const unsigned char output_spectrum_painting_model_tflite[] = {
  0x20, 0x00, 0x00, 0x00, 0x54, 0x46, 0x4c, 0x33, 0x00, 0x00, 0x00, 0x00,
  0x14, 0x00, 0x20, 0x00, 0x1c, 0x00, 0x18, 0x00, 0x14, 0x00, 0x10, 0x00,
  0x0c, 0x00, 0x00, 0x00, 0x08, 0x00, 0x04, 0x00, 0x14, 0x00, 0x00, 0x00,
  0x1c, 0x00, 0x00, 0x00, 0x9c, 0x00, 0x00, 0x00, 0xf4, 0x00, 0x00, 0x00,
  0x08, 0x1d, 0x00, 0x00, 0x18, 0x1d, 0x00, 0x00, 0x70, 0x4a, 0x00, 0x00,
  0x03, 0x00, 0x00, 0x00, 0x01, 0x00, 0x00, 0x00, 0x04, 0x00, 0x00, 0x00,
  0xf2, 0xe1, 0xff, 0xff, 0x0c, 0x00, 0x00, 0x00, 0x1c, 0x00, 0x00, 0x00,
  0x38, 0x00, 0x00, 0x00, 0x0f, 0x00, 0x00, 0x00, 0x73, 0x65, 0x72, 0x76,
  0x69, 0x6e, 0x67, 0x5f, 0x64, 0x65, 0x66, 0x61, 0x75, 0x6c, 0x74, 0x00,
  0x01, 0x00, 0x00, 0x00, 0x04, 0x00, 0x00, 0x00, 0x80, 0xff, 0xff, 0xff,
  0x3a, 0x00, 0x00, 0x00, 0x04, 0x00, 0x00, 0x00, 0x07, 0x00, 0x00, 0x00,
  0x64, 0x65, 0x6e, 0x73, 0x65, 0x5f, 0x33, 0x00, 0x02, 0x00, 0x00, 0x00,
  0x1c, 0x00, 0x00, 0x00, 0x04, 0x00, 0x00, 0x00, 0xfa, 0xe1, 0xff, 0xff,
  0x04, 0x00, 0x00, 0x00, 0x07, 0x00, 0x00, 0x00, 0x69, 0x6e, 0x70, 0x75,
  0x74, 0x5f, 0x38, 0x00, 0xb8, 0xff, 0xff, 0xff, 0x01, 0x00, 0x00, 0x00,
  0x04, 0x00, 0x00, 0x00, 0x07, 0x00, 0x00, 0x00, 0x69, 0x6e, 0x70, 0x75,
  0x74, 0x5f, 0x37, 0x00, 0x02, 0x00, 0x00, 0x00, 0x34, 0x00, 0x00, 0x00,
  0x04, 0x00, 0x00, 0x00, 0xdc, 0xff, 0xff, 0xff, 0x3d, 0x00, 0x00, 0x00,
  0x04, 0x00, 0x00, 0x00, 0x13, 0x00, 0x00, 0x00, 0x43, 0x4f, 0x4e, 0x56,
  0x45, 0x52, 0x53, 0x49, 0x4f, 0x4e, 0x5f, 0x4d, 0x45, 0x54, 0x41, 0x44,
  0x41, 0x54, 0x41, 0x00, 0x08, 0x00, 0x0c, 0x00, 0x08, 0x00, 0x04, 0x00,
  0x08, 0x00, 0x00, 0x00, 0x3c, 0x00, 0x00, 0x00, 0x04, 0x00, 0x00, 0x00,
  0x13, 0x00, 0x00, 0x00, 0x6d, 0x69, 0x6e, 0x5f, 0x72, 0x75, 0x6e, 0x74,
  0x69, 0x6d, 0x65, 0x5f, 0x76, 0x65, 0x72, 0x73, 0x69, 0x6f, 0x6e, 0x00,
  0x3e, 0x00, 0x00, 0x00, 0x10, 0x1c, 0x00, 0x00, 0x08, 0x1c, 0x00, 0x00,
  0x00, 0x1c, 0x00, 0x00, 0xe8, 0x1b, 0x00, 0x00, 0xbc, 0x1b, 0x00, 0x00,
  0x2c, 0x18, 0x00, 0x00, 0x14, 0x18, 0x00, 0x00, 0xfc, 0x17, 0x00, 0x00,
  0xcc, 0x17, 0x00, 0x00, 0x7c, 0x15, 0x00, 0x00, 0x64, 0x15, 0x00, 0x00,
  0x4c, 0x15, 0x00, 0x00, 0x1c, 0x15, 0x00, 0x00, 0xcc, 0x0e, 0x00, 0x00,
  0xb4, 0x0e, 0x00, 0x00, 0x9c, 0x0e, 0x00, 0x00, 0x6c, 0x0e, 0x00, 0x00,
  0xd4, 0x0c, 0x00, 0x00, 0xbc, 0x0c, 0x00, 0x00, 0xa4, 0x0c, 0x00, 0x00,
  0x74, 0x0c, 0x00, 0x00, 0x24, 0x0a, 0x00, 0x00, 0x0c, 0x0a, 0x00, 0x00,
  0xf4, 0x09, 0x00, 0x00, 0xc4, 0x09, 0x00, 0x00, 0x74, 0x03, 0x00, 0x00,
  0x5c, 0x03, 0x00, 0x00, 0x44, 0x03, 0x00, 0x00, 0x14, 0x03, 0x00, 0x00,
  0x7c, 0x01, 0x00, 0x00, 0x74, 0x01, 0x00, 0x00, 0x6c, 0x01, 0x00, 0x00,
  0x64, 0x01, 0x00, 0x00, 0x5c, 0x01, 0x00, 0x00, 0x54, 0x01, 0x00, 0x00,
  0x4c, 0x01, 0x00, 0x00, 0x44, 0x01, 0x00, 0x00, 0x3c, 0x01, 0x00, 0x00,
  0x34, 0x01, 0x00, 0x00, 0x2c, 0x01, 0x00, 0x00, 0x24, 0x01, 0x00, 0x00,
  0x1c, 0x01, 0x00, 0x00, 0x14, 0x01, 0x00, 0x00, 0x0c, 0x01, 0x00, 0x00,
  0x04, 0x01, 0x00, 0x00, 0xfc, 0x00, 0x00, 0x00, 0xf4, 0x00, 0x00, 0x00,
  0xec, 0x00, 0x00, 0x00, 0xe4, 0x00, 0x00, 0x00, 0xdc, 0x00, 0x00, 0x00,
  0xd4, 0x00, 0x00, 0x00, 0xcc, 0x00, 0x00, 0x00, 0xc4, 0x00, 0x00, 0x00,
  0xbc, 0x00, 0x00, 0x00, 0xb4, 0x00, 0x00, 0x00, 0xac, 0x00, 0x00, 0x00,
  0xa4, 0x00, 0x00, 0x00, 0x9c, 0x00, 0x00, 0x00, 0x94, 0x00, 0x00, 0x00,
  0x8c, 0x00, 0x00, 0x00, 0x6c, 0x00, 0x00, 0x00, 0x04, 0x00, 0x00, 0x00,
  0x7e, 0xe3, 0xff, 0xff, 0x04, 0x00, 0x00, 0x00, 0x58, 0x00, 0x00, 0x00,
  0x0c, 0x00, 0x00, 0x00, 0x08, 0x00, 0x0e, 0x00, 0x08, 0x00, 0x04, 0x00,
  0x08, 0x00, 0x00, 0x00, 0x10, 0x00, 0x00, 0x00, 0x28, 0x00, 0x00, 0x00,
  0x00, 0x00, 0x06, 0x00, 0x08, 0x00, 0x04, 0x00, 0x06, 0x00, 0x00, 0x00,
  0x04, 0x00, 0x00, 0x00, 0x01, 0x00, 0x00, 0x00, 0xeb, 0x03, 0x00, 0x00,
  0x00, 0x00, 0x0a, 0x00, 0x10, 0x00, 0x0c, 0x00, 0x08, 0x00, 0x04, 0x00,
  0x0a, 0x00, 0x00, 0x00, 0x02, 0x00, 0x00, 0x00, 0x02, 0x00, 0x00, 0x00,
  0x04, 0x00, 0x00, 0x00, 0x06, 0x00, 0x00, 0x00, 0x32, 0x2e, 0x31, 0x34,
  0x2e, 0x30, 0x00, 0x00, 0xe2, 0xe3, 0xff, 0xff, 0x04, 0x00, 0x00, 0x00,
  0x10, 0x00, 0x00, 0x00, 0x31, 0x2e, 0x31, 0x34, 0x2e, 0x30, 0x00, 0x00,
  0x00, 0x00, 0x00, 0x00, 0x00, 0x00, 0x00, 0x00, 0x5c, 0xb9, 0xff, 0xff,
  0x60, 0xb9, 0xff, 0xff, 0x64, 0xb9, 0xff, 0xff, 0x68, 0xb9, 0xff, 0xff,
  0x6c, 0xb9, 0xff, 0xff, 0x70, 0xb9, 0xff, 0xff, 0x74, 0xb9, 0xff, 0xff,
  0x78, 0xb9, 0xff, 0xff, 0x7c, 0xb9, 0xff, 0xff, 0x80, 0xb9, 0xff, 0xff,
  0x84, 0xb9, 0xff, 0xff, 0x88, 0xb9, 0xff, 0xff, 0x8c, 0xb9, 0xff, 0xff,
  0x90, 0xb9, 0xff, 0xff, 0x94, 0xb9, 0xff, 0xff, 0x98, 0xb9, 0xff, 0xff,
  0x9c, 0xb9, 0xff, 0xff, 0xa0, 0xb9, 0xff, 0xff, 0xa4, 0xb9, 0xff, 0xff,
  0xa8, 0xb9, 0xff, 0xff, 0xac, 0xb9, 0xff, 0xff, 0xb0, 0xb9, 0xff, 0xff,
  0xb4, 0xb9, 0xff, 0xff, 0xb8, 0xb9, 0xff, 0xff, 0xbc, 0xb9, 0xff, 0xff,
  0xc0, 0xb9, 0xff, 0xff, 0xc4, 0xb9, 0xff, 0xff, 0xc8, 0xb9, 0xff, 0xff,
  0xcc, 0xb9, 0xff, 0xff, 0xd0, 0xb9, 0xff, 0xff, 0x76, 0xe4, 0xff, 0xff,
  0x04, 0x00, 0x00, 0x00, 0x88, 0x01, 0x00, 0x00, 0xd0, 0x81, 0xba, 0xf7,
  0x28, 0x4e, 0x2e, 0xd5, 0xd7, 0x12, 0xe4, 0xf3, 0x1a, 0x1f, 0x0e, 0x03,
  0x36, 0xb2, 0xe6, 0x08, 0x10, 0x1e, 0x0a, 0xd3, 0x33, 0x17, 0x4a, 0x58,
  0xce, 0x1f, 0x0c, 0x2d, 0x04, 0x24, 0xf9, 0x3e, 0x09, 0x0c, 0xbb, 0x0c,
  0xbf, 0xe3, 0xbb, 0xd5, 0xf2, 0xfc, 0xe6, 0xa5, 0x96, 0x06, 0xff, 0xfd,
  0x40, 0x40, 0xd5, 0xf7, 0xcb, 0xb2, 0xd0, 0x51, 0x26, 0x57, 0xf0, 0xe3,
  0x0c, 0x15, 0x2a, 0xcf, 0xe8, 0xcf, 0x4d, 0x2c, 0x01, 0x04, 0x52, 0x40,
  0x12, 0xdb, 0xe0, 0xce, 0x01, 0xee, 0xe4, 0xa1, 0x32, 0x1c, 0x07, 0x3a,
  0x37, 0xe6, 0x8c, 0x45, 0x18, 0x7f, 0x07, 0x48, 0x58, 0xc0, 0x48, 0xc6,
  0xeb, 0x1c, 0xdf, 0xd0, 0x36, 0x08, 0xb0, 0x07, 0x60, 0xfa, 0x81, 0xf7,
  0xff, 0xdd, 0x12, 0xc1, 0xcb, 0x33, 0x35, 0x2d, 0xe0, 0x07, 0xf6, 0xdc,
  0xbd, 0x09, 0x36, 0x28, 0x07, 0xd5, 0xdb, 0xe2, 0x20, 0xf0, 0x10, 0xd4,
  0xf2, 0xf7, 0x06, 0x19, 0xaf, 0xf2, 0xba, 0xd0, 0xf9, 0x06, 0x0b, 0x1e,
  0xdd, 0x08, 0xac, 0xec, 0xf5, 0xf5, 0xd5, 0x06, 0xba, 0x23, 0x6b, 0x1e,
  0xff, 0x2f, 0x19, 0xd5, 0xbe, 0x27, 0x13, 0xdf, 0x25, 0xf6, 0xf8, 0xf0,
  0x1b, 0x2f, 0xb5, 0xbd, 0xe0, 0x17, 0x16, 0xd4, 0xe2, 0x92, 0x2b, 0x52,
  0x1f, 0xcf, 0xc1, 0x88, 0x81, 0xe7, 0x27, 0xef, 0xc7, 0x1e, 0x1a, 0x46,
  0xaa, 0x04, 0xdd, 0xee, 0x04, 0xfc, 0x10, 0xe8, 0xcd, 0x07, 0xd7, 0xb6,
  0xbd, 0xc4, 0x05, 0xd9, 0x40, 0xe5, 0xe2, 0x49, 0x3e, 0x37, 0x13, 0x2e,
  0xe3, 0xb2, 0xfb, 0x20, 0x32, 0x44, 0x25, 0xe1, 0x93, 0xf7, 0x2b, 0x81,
  0xdb, 0xfd, 0xc5, 0x20, 0x1a, 0xab, 0x03, 0xfd, 0x46, 0x44, 0xf4, 0xe1,
  0x25, 0x01, 0xed, 0x09, 0xc3, 0xe9, 0xef, 0xfc, 0xab, 0xba, 0xb6, 0x9a,
  0xa0, 0x95, 0xbf, 0xca, 0x0e, 0xe7, 0xdb, 0xef, 0xf7, 0x28, 0x12, 0x08,
  0x31, 0x1b, 0xfe, 0xe1, 0xed, 0xfa, 0x1f, 0x13, 0xe4, 0x1d, 0xd5, 0x0c,
  0x76, 0x7f, 0x2c, 0xd6, 0x42, 0xfa, 0xe0, 0x03, 0x16, 0x11, 0xcc, 0xf1,
  0x28, 0x0e, 0xf3, 0x1d, 0x31, 0x2f, 0xec, 0x12, 0x61, 0x23, 0xad, 0x09,
  0x4d, 0x61, 0x08, 0x6e, 0xd3, 0xf4, 0xaf, 0xe7, 0xcb, 0x17, 0x7f, 0x3c,
  0x24, 0xb7, 0xd0, 0x0a, 0xc7, 0x3b, 0x1e, 0x0a, 0x88, 0xce, 0xd1, 0xdd,
  0xfb, 0x40, 0x0c, 0xf2, 0xb2, 0x2f, 0x25, 0xf4, 0xd9, 0xaa, 0x91, 0xb6,
  0xab, 0x10, 0xf0, 0x81, 0xb3, 0x8c, 0xb9, 0xc6, 0xc6, 0xda, 0xfc, 0x0b,
  0xf2, 0x02, 0xe1, 0xb5, 0xbe, 0x23, 0x22, 0x08, 0x2f, 0xe1, 0x1f, 0x07,
  0xef, 0xfd, 0x23, 0xfd, 0xe7, 0xef, 0xc9, 0xd8, 0x0d, 0x32, 0x13, 0x53,
  0xe9, 0x1a, 0x16, 0x25, 0x38, 0x05, 0x22, 0xf9, 0x2f, 0xfe, 0x20, 0x49,
  0x1b, 0x19, 0xd8, 0x29, 0x0a, 0xe6, 0xff, 0xff, 0x04, 0x00, 0x00, 0x00,
  0x20, 0x00, 0x00, 0x00, 0x4f, 0x00, 0x00, 0x00, 0x3d, 0x00, 0x00, 0x00,
  0x21, 0x00, 0x00, 0x00, 0x72, 0x00, 0x00, 0x00, 0x70, 0x00, 0x00, 0x00,
  0x23, 0x00, 0x00, 0x00, 0x5d, 0x00, 0x00, 0x00, 0x47, 0x00, 0x00, 0x00,
  0x36, 0xe6, 0xff, 0xff, 0x04, 0x00, 0x00, 0x00, 0x08, 0x00, 0x00, 0x00,
  0xa7, 0x97, 0x7f, 0x12, 0xcf, 0x9b, 0x9f, 0x97, 0x4a, 0xe6, 0xff, 0xff,
  0x04, 0x00, 0x00, 0x00, 0x08, 0x00, 0x00, 0x00, 0xbd, 0xb8, 0xeb, 0xcb,
  0x22, 0x19, 0x80, 0x8c, 0x5e, 0xe6, 0xff, 0xff, 0x04, 0x00, 0x00, 0x00,
  0x40, 0x06, 0x00, 0x00, 0x44, 0x4a, 0x2c, 0x12, 0xfb, 0x28, 0x3c, 0x03,
  0x30, 0x36, 0x25, 0x32, 0x1d, 0x04, 0x34, 0xd9, 0xde, 0x01, 0xcc, 0x0a,
  0x7f, 0xdc, 0x0e, 0x1d, 0xe6, 0xc6, 0xe2, 0x4d, 0x02, 0x13, 0x60, 0x20,
  0xc1, 0xfe, 0x1e, 0x86, 0xc7, 0x97, 0x4a, 0x8e, 0x47, 0x2a, 0xfe, 0x0f,
  0xf3, 0xb4, 0xd4, 0xe1, 0xba, 0x4f, 0x37, 0x42, 0xa5, 0x09, 0xca, 0x40,
  0xfd, 0xc1, 0x42, 0xd2, 0x41, 0x15, 0xaf, 0x10, 0xf1, 0xa9, 0x0d, 0x4c,
  0x1e, 0xd9, 0x84, 0xca, 0xf9, 0xaa, 0x17, 0xd1, 0xf5, 0x03, 0xab, 0xa1,
  0x12, 0xf0, 0x3e, 0xfa, 0x44, 0xd3, 0x48, 0x3c, 0xee, 0x64, 0x37, 0x42,
  0x52, 0x1c, 0xe2, 0x44, 0xf0, 0x2d, 0x13, 0x11, 0x08, 0xd3, 0x32, 0x3c,
  0xbd, 0xd1, 0xdd, 0x3a, 0xc7, 0xe6, 0x30, 0xbb, 0xae, 0xe7, 0xc3, 0xdd,
  0x9b, 0xd7, 0xbd, 0xed, 0x36, 0x39, 0x2e, 0x2c, 0x6a, 0x19, 0x2b, 0x46,
  0x2e, 0x2d, 0x1b, 0x27, 0xd4, 0xda, 0x0b, 0xe5, 0xef, 0x10, 0xa5, 0xc8,
  0x3b, 0xd3, 0xdb, 0x02, 0xee, 0xc9, 0x15, 0x1b, 0x11, 0x05, 0x12, 0xed,
  0x2a, 0x91, 0x08, 0xb6, 0xb6, 0x03, 0x1f, 0x07, 0x12, 0x2d, 0xd6, 0x13,
  0x08, 0x47, 0x63, 0x2c, 0xee, 0x0a, 0x16, 0x4d, 0xf6, 0x4d, 0x1c, 0x00,
  0xf3, 0xbf, 0x27, 0x23, 0xf1, 0x4e, 0xfd, 0x1b, 0x26, 0xe6, 0x14, 0xdd,
  0x03, 0xeb, 0xe6, 0x21, 0xca, 0x0d, 0xff, 0xe7, 0xce, 0x87, 0x0b, 0xb7,
  0xf7, 0x22, 0xb7, 0xe9, 0x27, 0xca, 0xb6, 0x02, 0xd2, 0x0d, 0x19, 0xfe,
  0xed, 0x17, 0xe1, 0x0f, 0x06, 0xf4, 0x66, 0x12, 0xdc, 0xc8, 0xde, 0xc2,
  0xf5, 0xbb, 0xfe, 0x03, 0x41, 0x0f, 0xbd, 0x16, 0x06, 0x06, 0xc5, 0x9a,
  0xb4, 0xd8, 0x16, 0x2c, 0x08, 0xdd, 0xeb, 0xac, 0xdb, 0xf7, 0x0a, 0xea,
  0x03, 0x1a, 0x5b, 0xee, 0x0a, 0x24, 0x31, 0xe2, 0xfb, 0xfe, 0x0c, 0xf1,
  0x14, 0xce, 0xc9, 0xb8, 0xf4, 0xfb, 0x3c, 0xdf, 0xf9, 0xf4, 0x1d, 0xc1,
  0xf7, 0x09, 0xce, 0xfb, 0xef, 0xc4, 0x2f, 0xe8, 0xc4, 0x1e, 0xe6, 0x00,
  0x0a, 0xf4, 0xf8, 0x34, 0xd6, 0xfe, 0x34, 0x1d, 0xdf, 0x03, 0xfc, 0x20,
  0xf7, 0xf9, 0x22, 0x1c, 0xf7, 0xec, 0xca, 0x30, 0x3f, 0xfc, 0x4a, 0x3b,
  0xeb, 0x53, 0x4f, 0x20, 0x0c, 0x17, 0x0f, 0x1f, 0x1b, 0xfe, 0xfe, 0x06,
  0x0a, 0x06, 0xfa, 0x08, 0xd8, 0x1c, 0xf1, 0x42, 0x3c, 0x0b, 0x23, 0x7f,
  0xf5, 0x4e, 0x43, 0x00, 0x40, 0xe7, 0x12, 0xe2, 0x3e, 0x06, 0xe3, 0xfa,
  0x01, 0xc2, 0x45, 0xb9, 0xe4, 0x28, 0x08, 0x23, 0xce, 0xd8, 0xd3, 0x18,
  0x42, 0xe7, 0xa1, 0xde, 0xff, 0xd8, 0x30, 0xf1, 0x16, 0xf3, 0xef, 0xda,
  0xf0, 0xd1, 0x27, 0x41, 0x27, 0xfe, 0x4b, 0x09, 0x1a, 0xfb, 0x45, 0x1c,
  0xfb, 0x08, 0x08, 0xdf, 0xaa, 0x25, 0x2b, 0x4a, 0x1c, 0xfb, 0xe3, 0xb8,
  0x1d, 0xbc, 0xb3, 0x04, 0x1b, 0xfd, 0xce, 0xb7, 0xd0, 0xc5, 0x2e, 0xd1,
  0xe8, 0xb7, 0x13, 0xd0, 0x0b, 0x11, 0xc8, 0x4f, 0xf8, 0xe6, 0xf2, 0x1a,
  0x34, 0x15, 0x24, 0x08, 0xe7, 0x19, 0x0f, 0x4d, 0xcb, 0x16, 0x2a, 0xd6,
  0xf5, 0x46, 0xfd, 0x34, 0x17, 0xda, 0x8c, 0xb0, 0xd6, 0x1e, 0x29, 0x31,
  0xec, 0x02, 0x0b, 0x88, 0xeb, 0xc2, 0xca, 0xa6, 0xfd, 0xf7, 0x26, 0x1b,
  0x12, 0xb4, 0x17, 0x0c, 0xe2, 0xd6, 0xca, 0x21, 0x1c, 0xc0, 0xd3, 0x0d,
  0x1d, 0xec, 0x15, 0xe2, 0x03, 0x1b, 0x1f, 0x18, 0xf5, 0x02, 0xf6, 0x19,
  0x1b, 0x24, 0x03, 0x33, 0x0c, 0xcd, 0xed, 0x1c, 0xd6, 0x21, 0xf4, 0xf6,
  0x11, 0x24, 0xc4, 0x1d, 0xdd, 0xbe, 0x06, 0xd0, 0xc5, 0xeb, 0xd1, 0xdc,
  0xef, 0xc6, 0xf8, 0xdd, 0xed, 0xfa, 0x0a, 0x1b, 0xf0, 0x1f, 0x35, 0x17,
  0x13, 0xfd, 0x81, 0xf5, 0x23, 0xf1, 0xdc, 0x26, 0xeb, 0xef, 0x00, 0xfd,
  0xef, 0xe8, 0xbe, 0xc4, 0xd6, 0xe5, 0xa5, 0xa3, 0x0e, 0xc2, 0xe7, 0x24,
  0xff, 0x01, 0x10, 0xf6, 0xeb, 0xe0, 0xea, 0x01, 0x15, 0x07, 0x0f, 0x18,
  0x05, 0xf9, 0x3b, 0x08, 0x21, 0xec, 0x0f, 0xf6, 0x12, 0xe0, 0x09, 0x20,
  0xe4, 0xfa, 0xf8, 0x3c, 0x3a, 0x30, 0xce, 0x1c, 0xe3, 0x0b, 0x30, 0x5a,
  0xfa, 0x2e, 0x03, 0xd5, 0x13, 0xce, 0xd5, 0x11, 0x13, 0xea, 0x13, 0x2e,
  0xdd, 0xff, 0x1b, 0xc7, 0xfb, 0x34, 0xe2, 0x22, 0xce, 0x12, 0xe6, 0x18,
  0x27, 0x3b, 0xc9, 0x1a, 0xf4, 0xed, 0xd4, 0x00, 0x0a, 0xfb, 0x1f, 0xe2,
  0xe2, 0xf2, 0x46, 0xe7, 0x23, 0xd0, 0xf3, 0xf6, 0xc6, 0x19, 0x10, 0xf4,
  0xb5, 0xfd, 0xd8, 0xe6, 0xfd, 0x10, 0x0b, 0xf9, 0xcb, 0x06, 0xf9, 0xf6,
  0x12, 0xd9, 0xf3, 0xfc, 0x21, 0x0d, 0x01, 0xf1, 0xa5, 0xfa, 0xd2, 0xd6,
  0xe8, 0xf9, 0xe1, 0x19, 0xf4, 0xcd, 0x22, 0xee, 0xfc, 0xe1, 0x12, 0xfa,
  0xee, 0x00, 0xf9, 0xf2, 0xd0, 0x13, 0xbd, 0xe0, 0x0e, 0x15, 0x38, 0xca,
  0x0a, 0xf1, 0x09, 0x23, 0x1b, 0xff, 0xda, 0x16, 0x01, 0xe2, 0x02, 0x2d,
  0xab, 0x0b, 0xde, 0xfe, 0xdd, 0xe3, 0xe3, 0x01, 0x2b, 0x07, 0x20, 0xe1,
  0xf2, 0x1d, 0x22, 0xfd, 0x20, 0x25, 0xfb, 0x04, 0xf9, 0x02, 0xcc, 0xf7,
  0x28, 0x06, 0x13, 0xe7, 0xef, 0xd6, 0xfd, 0x0a, 0xe9, 0xea, 0x07, 0xd1,
  0x1b, 0xf9, 0xf7, 0x2a, 0xfa, 0xd9, 0xcd, 0xa3, 0x88, 0xe5, 0xaa, 0x09,
  0xe7, 0xe9, 0x1a, 0xd0, 0x2e, 0xeb, 0x13, 0xdb, 0xe0, 0x1c, 0x3a, 0x44,
  0x1a, 0xcd, 0xf9, 0xc6, 0xe0, 0x09, 0xed, 0xfb, 0x19, 0xda, 0x12, 0x32,
  0x11, 0x1a, 0xf9, 0x06, 0x1e, 0x13, 0xdd, 0x1a, 0xc7, 0x07, 0xb2, 0xc5,
  0xeb, 0xed, 0x00, 0x9e, 0xcf, 0xc2, 0x22, 0x81, 0xe0, 0xcc, 0xda, 0xd3,
  0x05, 0xd3, 0xff, 0x02, 0xf3, 0xa0, 0x04, 0xc7, 0xf3, 0x08, 0xf5, 0xf0,
  0xef, 0x06, 0xf6, 0x0f, 0xce, 0x19, 0x11, 0x30, 0xc6, 0x05, 0xe7, 0xf9,
  0x1d, 0x2a, 0xcc, 0x12, 0x24, 0xfa, 0x06, 0xb8, 0xeb, 0xf7, 0x2d, 0x21,
  0xfb, 0xee, 0xbd, 0x3b, 0xe3, 0x06, 0x2c, 0x18, 0xd4, 0x49, 0xb1, 0x41,
  0xb5, 0x1e, 0x1f, 0xe7, 0x4a, 0xfc, 0xbb, 0x06, 0xdd, 0xef, 0x3f, 0xcc,
  0x4d, 0x56, 0xe3, 0xd1, 0x16, 0x24, 0xab, 0xe2, 0xf5, 0xe3, 0x46, 0xef,
  0x15, 0xf4, 0xce, 0x3b, 0x36, 0xe8, 0x79, 0xe3, 0x1e, 0xe3, 0xa3, 0x59,
  0xbc, 0xe6, 0xd3, 0xc0, 0xc0, 0x11, 0x1b, 0xb5, 0xd9, 0xda, 0x02, 0x0e,
  0x39, 0xa9, 0xf6, 0x28, 0x7d, 0xf3, 0xed, 0xed, 0x4a, 0x03, 0x1c, 0xbd,
  0x27, 0x33, 0x19, 0xca, 0x2f, 0x43, 0x07, 0xaa, 0xcd, 0x0c, 0xff, 0x3a,
  0xf3, 0x21, 0x14, 0x0f, 0x25, 0x01, 0xcf, 0x1b, 0xb6, 0x6e, 0x0f, 0x07,
  0x49, 0x25, 0xfa, 0xd0, 0xfd, 0xc9, 0x0e, 0x1d, 0x2f, 0xe7, 0xd3, 0x13,
  0x12, 0xf2, 0x49, 0x26, 0x01, 0xea, 0xdb, 0xbd, 0x30, 0x1f, 0x51, 0xe3,
  0x59, 0x10, 0x31, 0xf7, 0xd2, 0xab, 0x02, 0x43, 0xec, 0xb4, 0xf2, 0xc0,
  0x14, 0x00, 0x2f, 0xee, 0xd9, 0x1c, 0xe6, 0x07, 0xc1, 0xd6, 0x26, 0xe3,
  0xdc, 0xf1, 0xba, 0x03, 0xb0, 0xd4, 0x74, 0x47, 0xbd, 0x15, 0x0e, 0x20,
  0x0c, 0xd7, 0x40, 0x7f, 0xcf, 0x3a, 0xe9, 0x1b, 0x22, 0x15, 0xe2, 0x09,
  0xec, 0xab, 0xcc, 0xcf, 0x05, 0xea, 0x02, 0xf6, 0xe1, 0xe3, 0xc9, 0xf1,
  0xce, 0x0d, 0x39, 0x95, 0x50, 0x02, 0xbc, 0xc3, 0x10, 0xe3, 0xae, 0x1b,
  0xeb, 0xef, 0x42, 0xfd, 0xda, 0xde, 0xf6, 0xe0, 0xf9, 0x03, 0xf2, 0x16,
  0xba, 0xcf, 0xbc, 0x0a, 0xbd, 0xe2, 0x06, 0xdf, 0xcd, 0xb3, 0xd7, 0x03,
  0xea, 0xf9, 0xd8, 0x24, 0x03, 0xda, 0x17, 0x15, 0x02, 0x1d, 0xf1, 0x14,
  0x2c, 0x15, 0xe6, 0x49, 0x36, 0xd6, 0xdf, 0x20, 0xe3, 0xe9, 0xea, 0x27,
  0x25, 0x1b, 0xd6, 0xf7, 0xf5, 0x30, 0xd7, 0xe0, 0x11, 0x09, 0x1d, 0xf5,
  0xe9, 0xaf, 0xe3, 0xdb, 0xf3, 0xcc, 0xed, 0x0f, 0x4f, 0xf3, 0x06, 0xd2,
  0x19, 0x09, 0x1e, 0xef, 0xd4, 0x08, 0x0d, 0x4d, 0xc5, 0x4b, 0x34, 0xfa,
  0xc2, 0xfc, 0xb1, 0xb1, 0xae, 0x3f, 0xff, 0x07, 0xcd, 0xbe, 0x99, 0xc3,
  0xeb, 0x08, 0xe7, 0xc0, 0xf6, 0xe0, 0xdd, 0x13, 0xde, 0xda, 0x0a, 0x9b,
  0x26, 0x32, 0x2b, 0x12, 0x39, 0xdf, 0x10, 0xff, 0xf9, 0x40, 0x0a, 0x5a,
  0x35, 0x7f, 0x29, 0x04, 0xd2, 0xe5, 0x00, 0xb8, 0x07, 0x24, 0x16, 0x1d,
  0xc1, 0xfb, 0x03, 0x06, 0xfe, 0x49, 0xd3, 0x16, 0xf9, 0xd5, 0x1f, 0x20,
  0x33, 0x11, 0xe9, 0x24, 0xc9, 0x36, 0xd6, 0xfd, 0xfb, 0x1c, 0x1b, 0x5d,
  0xfc, 0xea, 0x12, 0x30, 0x21, 0x15, 0xf2, 0x33, 0xdd, 0x2c, 0xc5, 0x2d,
  0xd1, 0x30, 0x02, 0xe5, 0x17, 0x11, 0x09, 0x28, 0x25, 0xfe, 0x1e, 0xde,
  0x44, 0xd6, 0x26, 0xd0, 0x1d, 0x13, 0x4f, 0xf2, 0x3d, 0xdb, 0xc4, 0xea,
  0xc1, 0x01, 0xae, 0xfa, 0x57, 0x03, 0x14, 0xff, 0xfd, 0x0c, 0x15, 0xef,
  0x14, 0xd2, 0x29, 0xeb, 0x4c, 0xe2, 0x14, 0xe5, 0xf6, 0xf4, 0x2e, 0xe4,
  0xf7, 0xf3, 0xf3, 0xeb, 0xf0, 0xef, 0x53, 0x27, 0xf5, 0xdf, 0xeb, 0x12,
  0xf1, 0x11, 0xac, 0x24, 0x0e, 0x1c, 0xe6, 0xe8, 0x03, 0x0e, 0x06, 0xfb,
  0xd0, 0xe3, 0xfb, 0x0e, 0x0f, 0xf8, 0x32, 0x01, 0x1c, 0xe3, 0xcc, 0x08,
  0x44, 0x1c, 0x4c, 0xf5, 0x11, 0x04, 0x22, 0xfc, 0x2d, 0x10, 0xfb, 0x1d,
  0xe6, 0x10, 0x04, 0xdd, 0xf3, 0xfc, 0xd9, 0x41, 0x08, 0x26, 0x08, 0x1e,
  0xc4, 0xf3, 0xe6, 0x05, 0xec, 0x07, 0xe9, 0x0d, 0xe3, 0x0e, 0x00, 0xe3,
  0x25, 0x04, 0x16, 0x2b, 0x06, 0x01, 0x0e, 0xe7, 0xeb, 0x0f, 0x10, 0x1a,
  0xea, 0xe1, 0xf3, 0x0b, 0x12, 0xe0, 0xfd, 0xf1, 0xd5, 0x20, 0xbf, 0xef,
  0x0d, 0xf8, 0xf3, 0xe9, 0x93, 0x15, 0xc0, 0x0b, 0x01, 0xe3, 0xb7, 0xed,
  0xcd, 0x0d, 0xfc, 0xe2, 0x08, 0x33, 0xe3, 0xfb, 0xf8, 0x0e, 0xe0, 0xf3,
  0xf6, 0xd9, 0xde, 0x29, 0xb9, 0xfc, 0x10, 0xf1, 0x0a, 0xee, 0xed, 0x29,
  0xd6, 0x31, 0x81, 0x19, 0xf8, 0xf9, 0xb6, 0x00, 0xd5, 0x0b, 0x06, 0xda,
  0xff, 0xf0, 0xb9, 0x14, 0xeb, 0x23, 0xea, 0xcc, 0x14, 0x18, 0xdb, 0x34,
  0xfd, 0x07, 0xfe, 0xe3, 0xd4, 0xf6, 0x1c, 0x1e, 0xe8, 0xd4, 0x2d, 0x1e,
  0x04, 0x33, 0x05, 0x2a, 0x1b, 0x12, 0xa4, 0x0f, 0xf4, 0x26, 0xcd, 0x1e,
  0xeb, 0x16, 0xcc, 0xd7, 0xe4, 0x3d, 0xe5, 0x3c, 0x0b, 0xe3, 0x16, 0xe7,
  0x17, 0x41, 0x25, 0x03, 0x26, 0xf8, 0xce, 0x01, 0x26, 0x08, 0xe9, 0x1f,
  0x1a, 0x1f, 0x34, 0xdf, 0x05, 0x41, 0xd6, 0x50, 0x40, 0xc2, 0xee, 0xb4,
  0xc2, 0xf9, 0x97, 0x47, 0x1a, 0xf5, 0xdf, 0x1d, 0xa9, 0x2f, 0xe3, 0x4d,
  0xfc, 0xe8, 0x0a, 0xe1, 0xe5, 0x00, 0x2d, 0x06, 0x1e, 0xc4, 0xf0, 0xe3,
  0xe6, 0x34, 0x04, 0x25, 0x3c, 0xdf, 0xb6, 0x05, 0xdf, 0x39, 0xec, 0x2f,
  0x02, 0xd5, 0xa5, 0x27, 0x12, 0xcf, 0x68, 0xcb, 0xe4, 0x73, 0x0a, 0x59,
  0x41, 0x41, 0xf7, 0x4b, 0xb0, 0x44, 0xc4, 0xca, 0x10, 0x05, 0xde, 0x40,
  0xdc, 0x30, 0xfb, 0xf2, 0x2a, 0x41, 0x22, 0x69, 0x22, 0x01, 0xea, 0x12,
  0x1b, 0x31, 0x01, 0x17, 0xf9, 0x01, 0xc8, 0xf5, 0xf1, 0xcb, 0x49, 0xe5,
  0x16, 0x4a, 0xe6, 0xa4, 0x1d, 0x1e, 0xf7, 0xfe, 0xd4, 0x13, 0x20, 0xc2,
  0xe3, 0x2a, 0x18, 0x24, 0xb2, 0x01, 0xf4, 0xda, 0xe7, 0xec, 0x09, 0x61,
  0xdb, 0xdc, 0xa9, 0x1b, 0x10, 0x10, 0xfb, 0x39, 0xd6, 0xd6, 0x23, 0x99,
  0xac, 0xff, 0x2e, 0x24, 0x45, 0xcb, 0x14, 0xaf, 0xd1, 0x36, 0x12, 0xd8,
  0xfa, 0x07, 0x11, 0xd6, 0x1e, 0x30, 0x04, 0x19, 0x02, 0xdf, 0x81, 0xbb,
  0xd2, 0x44, 0x06, 0x26, 0x26, 0x28, 0xaa, 0x13, 0x4d, 0x3e, 0xe9, 0x26,
  0x1a, 0xd3, 0x1f, 0xf8, 0x86, 0xca, 0x2e, 0xda, 0xaa, 0xec, 0xff, 0xff,
  0x04, 0x00, 0x00, 0x00, 0x20, 0x00, 0x00, 0x00, 0x32, 0xfe, 0xff, 0xff,
  0x16, 0x00, 0x00, 0x00, 0x5f, 0xff, 0xff, 0xff, 0x0e, 0xfe, 0xff, 0xff,
  0x7b, 0x01, 0x00, 0x00, 0x1d, 0x00, 0x00, 0x00, 0x6f, 0xff, 0xff, 0xff,
  0x39, 0xff, 0xff, 0xff, 0xd6, 0xec, 0xff, 0xff, 0x04, 0x00, 0x00, 0x00,
  0x08, 0x00, 0x00, 0x00, 0x08, 0x0e, 0x5b, 0x7f, 0x23, 0x2e, 0x1b, 0x12,
  0xea, 0xec, 0xff, 0xff, 0x04, 0x00, 0x00, 0x00, 0x08, 0x00, 0x00, 0x00,
  0xd7, 0xbc, 0xaf, 0x80, 0xf7, 0xb0, 0x83, 0xa9, 0xfe, 0xec, 0xff, 0xff,
  0x04, 0x00, 0x00, 0x00, 0x40, 0x02, 0x00, 0x00, 0xc6, 0xf3, 0xc4, 0x7d,
  0xde, 0x5f, 0xa3, 0xd1, 0x2b, 0x4f, 0x21, 0xf6, 0x8b, 0xce, 0xc1, 0x0a,
  0xd7, 0x19, 0x41, 0x6a, 0x04, 0x34, 0x4a, 0xaf, 0x05, 0xfd, 0x2c, 0x7f,
  0x61, 0xf2, 0xc1, 0xca, 0x59, 0xc8, 0x9f, 0xe0, 0x2f, 0xe1, 0xd3, 0x1a,
  0xed, 0x0e, 0x05, 0x1b, 0xbe, 0x1b, 0xfc, 0x1a, 0x4f, 0xda, 0x0b, 0x07,
  0xf7, 0x11, 0x0e, 0xfb, 0xe0, 0xd6, 0x61, 0xd4, 0x1c, 0xb9, 0x78, 0xee,
  0x1d, 0x21, 0x3a, 0x43, 0xac, 0x28, 0x1e, 0xd4, 0xa3, 0xdd, 0x56, 0xf7,
  0x2d, 0x07, 0xf6, 0xf4, 0xfc, 0x01, 0xf4, 0x8b, 0xd4, 0xe5, 0x2c, 0x0d,
  0x2a, 0xba, 0xf6, 0x81, 0xf5, 0xe0, 0xee, 0x1a, 0xb9, 0xf4, 0x11, 0xcc,
  0x69, 0xde, 0x05, 0xec, 0xc0, 0x23, 0x18, 0xc3, 0x04, 0x04, 0x08, 0xdf,
  0xf7, 0xdc, 0x08, 0xb9, 0x19, 0xd3, 0xd4, 0x00, 0x25, 0xbb, 0x17, 0xf4,
  0x4c, 0xf2, 0xe0, 0xac, 0x1a, 0x32, 0x0b, 0x15, 0xd9, 0x0c, 0x14, 0xfb,
  0xd6, 0xfa, 0xe2, 0x08, 0x01, 0xf9, 0xa0, 0xd8, 0x81, 0x31, 0x60, 0x1f,
  0xfb, 0xd1, 0xc9, 0x14, 0xd0, 0xf3, 0xf3, 0xa6, 0xd3, 0x11, 0xfd, 0x44,
  0xcf, 0xcf, 0x30, 0x1c, 0x2e, 0x60, 0xca, 0x1b, 0xd1, 0x06, 0x36, 0xe5,
  0x35, 0xf5, 0xa1, 0x58, 0xbd, 0xac, 0x13, 0xea, 0x09, 0x4c, 0x28, 0x6b,
  0xe1, 0xe4, 0xa8, 0x0b, 0xf1, 0xb6, 0xc9, 0x71, 0x4e, 0xfd, 0xe3, 0xe3,
  0x28, 0xee, 0x98, 0x07, 0xf9, 0x05, 0xe4, 0x06, 0x9f, 0xfc, 0xd2, 0x18,
  0xc9, 0x48, 0x55, 0x06, 0x23, 0x41, 0xdc, 0x28, 0x20, 0x65, 0x9d, 0x5b,
  0x32, 0x06, 0xa0, 0xcd, 0xce, 0x6c, 0x26, 0x98, 0x29, 0x3c, 0x2c, 0x54,
  0x78, 0x36, 0xf0, 0xf6, 0x2c, 0x9a, 0xb0, 0x2f, 0xbb, 0x7f, 0x3e, 0x15,
  0x20, 0xaf, 0xbc, 0xec, 0xc8, 0xcd, 0x86, 0x45, 0x25, 0x6b, 0x1e, 0xfe,
  0x5f, 0x21, 0x09, 0xd8, 0x0a, 0x40, 0xc0, 0xa8, 0xd6, 0x00, 0xb5, 0x27,
  0xc9, 0x0c, 0x2a, 0x48, 0xf4, 0x5c, 0xf8, 0x2f, 0x01, 0xbf, 0x19, 0x02,
  0x21, 0x61, 0x82, 0x1d, 0x3c, 0xe5, 0x16, 0xe8, 0xeb, 0xce, 0x34, 0xf5,
  0x2a, 0x0b, 0x09, 0xcb, 0x4c, 0x78, 0xf1, 0xe8, 0xd1, 0xf9, 0x4f, 0x35,
  0x29, 0x03, 0x14, 0x34, 0x34, 0xc5, 0xf1, 0x3c, 0x2f, 0x04, 0xa4, 0xdb,
  0x3d, 0x43, 0x02, 0x9e, 0x44, 0x7f, 0xf6, 0xf0, 0xd0, 0x4a, 0x37, 0x1a,
  0xf0, 0xfd, 0x15, 0x64, 0xee, 0x09, 0x20, 0x18, 0xe0, 0xb9, 0xd3, 0xc4,
  0x77, 0x22, 0x0e, 0x0d, 0x03, 0x41, 0x1e, 0x3a, 0xfc, 0x3d, 0x5c, 0x1b,
  0x5a, 0xec, 0xd7, 0x1f, 0x94, 0xee, 0x47, 0x3b, 0x13, 0x24, 0x09, 0x25,
  0x2f, 0x30, 0xd8, 0xed, 0x2e, 0x3a, 0xb8, 0x19, 0xf4, 0x33, 0x42, 0xf5,
  0xef, 0xa2, 0x19, 0x09, 0xfa, 0xe1, 0xa5, 0xc0, 0x1b, 0x06, 0xd6, 0x61,
  0x15, 0xca, 0x1b, 0xcd, 0xd8, 0xf0, 0xf1, 0x38, 0xe0, 0xa6, 0x41, 0xc4,
  0x31, 0xab, 0xd9, 0x9a, 0xfa, 0xdf, 0x2f, 0xf2, 0x1e, 0x9e, 0xd9, 0x93,
  0xed, 0xce, 0xbd, 0xe6, 0xcb, 0x81, 0x25, 0xd4, 0xa9, 0xfc, 0xfb, 0xeb,
  0xc5, 0x43, 0xc7, 0xaf, 0xb8, 0x07, 0xfa, 0x21, 0x01, 0x17, 0xee, 0xda,
  0xcb, 0xb9, 0xf2, 0x29, 0xca, 0x49, 0xe9, 0x10, 0xe0, 0x53, 0x21, 0x60,
  0x96, 0xb1, 0x01, 0xac, 0x66, 0xdb, 0xab, 0x81, 0xa2, 0xf2, 0xb5, 0x1c,
  0xe9, 0x26, 0xd6, 0xcc, 0x2f, 0x18, 0xe6, 0x1e, 0xa1, 0xd8, 0xec, 0xb6,
  0xf6, 0x1d, 0x5b, 0xd2, 0x56, 0xc7, 0xc6, 0xa7, 0x35, 0xa9, 0x13, 0x16,
  0x99, 0xe5, 0xf9, 0x27, 0xee, 0x38, 0xc9, 0xd5, 0xbd, 0xd3, 0x20, 0x33,
  0x9a, 0xf0, 0x02, 0x8b, 0x32, 0xb7, 0x11, 0xb9, 0xc3, 0xda, 0x91, 0x2e,
  0x29, 0x3c, 0x81, 0xaf, 0xf6, 0x09, 0xf7, 0x50, 0x0f, 0xc6, 0xfd, 0xb5,
  0x0b, 0x3a, 0x1e, 0x21, 0x10, 0xf7, 0xc1, 0xcc, 0x91, 0x1d, 0xa5, 0xf0,
  0xc3, 0x9f, 0x20, 0xde, 0x2a, 0x34, 0x1d, 0x06, 0x4d, 0x11, 0xe3, 0xf7,
  0x50, 0xf6, 0xdb, 0x55, 0xdb, 0xd3, 0xd0, 0xcd, 0xe9, 0x2a, 0x05, 0xfd,
  0x49, 0x3c, 0xbe, 0xec, 0xe1, 0x13, 0xea, 0x33, 0x05, 0x17, 0x14, 0x09,
  0xeb, 0x09, 0x42, 0xec, 0x25, 0xe9, 0xd6, 0xa3, 0x4a, 0xef, 0xff, 0xff,
  0x04, 0x00, 0x00, 0x00, 0x20, 0x00, 0x00, 0x00, 0x09, 0xfe, 0xff, 0xff,
  0xdb, 0x03, 0x00, 0x00, 0x76, 0xfe, 0xff, 0xff, 0x4f, 0x00, 0x00, 0x00,
  0xee, 0xf8, 0xff, 0xff, 0xbd, 0x00, 0x00, 0x00, 0xf6, 0xfc, 0xff, 0xff,
  0xee, 0xfd, 0xff, 0xff, 0x76, 0xef, 0xff, 0xff, 0x04, 0x00, 0x00, 0x00,
  0x08, 0x00, 0x00, 0x00, 0xef, 0x12, 0xf0, 0xbd, 0xbd, 0x2a, 0x7f, 0xf5,
  0x8a, 0xef, 0xff, 0xff, 0x04, 0x00, 0x00, 0x00, 0x08, 0x00, 0x00, 0x00,
  0xb3, 0x80, 0xa9, 0xee, 0xc9, 0xee, 0x21, 0xa8, 0x9e, 0xef, 0xff, 0xff,
  0x04, 0x00, 0x00, 0x00, 0x88, 0x01, 0x00, 0x00, 0xb5, 0x36, 0xf2, 0xf8,
  0x43, 0x1f, 0x04, 0x45, 0x1e, 0xc1, 0xea, 0x1a, 0xc9, 0xfa, 0x58, 0x08,
  0xa7, 0x48, 0xe9, 0x19, 0xd9, 0x30, 0x88, 0x81, 0x69, 0x1f, 0xf9, 0x1b,
  0xcf, 0x04, 0x0f, 0x32, 0x16, 0xf6, 0x2e, 0x34, 0xe0, 0x01, 0x5e, 0xad,
  0xc7, 0x1e, 0xf8, 0xe8, 0x24, 0x2b, 0xab, 0x28, 0xc3, 0x01, 0xaf, 0x4f,
  0xf4, 0xa1, 0x40, 0x62, 0xf9, 0x17, 0x23, 0x2a, 0x92, 0x1f, 0xe8, 0x2d,
  0xeb, 0xf2, 0x00, 0xa0, 0xf3, 0x5b, 0x26, 0xb3, 0x34, 0xd5, 0xcb, 0x36,
  0x2a, 0x32, 0xd9, 0x28, 0xde, 0xb3, 0x81, 0xdb, 0x0b, 0xc9, 0x52, 0x0c,
  0xde, 0xb7, 0xba, 0xed, 0xfa, 0xd4, 0xff, 0xc1, 0xea, 0x11, 0xa2, 0xec,
  0xef, 0x53, 0x28, 0x1d, 0x03, 0x81, 0xc4, 0xac, 0x02, 0x08, 0x3c, 0xf5,
  0x1a, 0xed, 0x02, 0x0d, 0xd5, 0xd8, 0x13, 0x93, 0xda, 0xb4, 0x41, 0xf2,
  0xd5, 0x01, 0xb2, 0xf7, 0x33, 0xdd, 0x23, 0x05, 0x06, 0xd2, 0x00, 0x3a,
  0xd4, 0xc8, 0x4b, 0x3b, 0xf1, 0xe7, 0x20, 0xbc, 0x35, 0x4b, 0x11, 0x51,
  0x60, 0xa1, 0xcd, 0x03, 0xe2, 0x17, 0x45, 0xad, 0xb1, 0x0c, 0x2f, 0x65,
  0xd0, 0xd2, 0xef, 0x37, 0x57, 0x15, 0x9c, 0x9b, 0x10, 0x06, 0xe9, 0xda,
  0xe3, 0x54, 0x6d, 0x25, 0x1f, 0x3a, 0xea, 0xfe, 0x82, 0xc7, 0xd9, 0x5e,
  0x63, 0xe0, 0xf6, 0xbd, 0x86, 0x54, 0xc2, 0x3c, 0x81, 0x38, 0x5f, 0xf2,
  0xda, 0x81, 0xee, 0xef, 0x08, 0x03, 0xed, 0x0f, 0xdd, 0xe2, 0xd3, 0xdc,
  0xea, 0x38, 0x30, 0x23, 0x6d, 0xc0, 0xfb, 0xec, 0xce, 0xd7, 0x10, 0x3a,
  0xe8, 0x2e, 0xc4, 0xec, 0xf8, 0x97, 0xb2, 0x09, 0xe3, 0xd0, 0x38, 0xea,
  0xc6, 0xe0, 0x2b, 0x34, 0xe6, 0xcd, 0x36, 0xeb, 0x0d, 0x11, 0xbb, 0xf6,
  0x25, 0x4b, 0x1f, 0x98, 0xb8, 0x09, 0xb2, 0xa1, 0xcc, 0x12, 0xe0, 0x2a,
  0x3c, 0xa2, 0x17, 0xea, 0x01, 0x09, 0xe8, 0x7f, 0xb9, 0x44, 0x4e, 0x0d,
  0x14, 0xf3, 0x40, 0xad, 0xfd, 0xf4, 0x81, 0x28, 0xe6, 0x54, 0xe2, 0xb5,
  0xf9, 0x1e, 0xe3, 0x28, 0x0e, 0xd7, 0x07, 0x41, 0x04, 0xd2, 0xfd, 0x25,
  0xe5, 0x0f, 0xfc, 0xe3, 0xf7, 0x05, 0xf9, 0x81, 0xfe, 0xa2, 0xc9, 0xb0,
  0xd1, 0xec, 0xe3, 0x44, 0x0a, 0xf0, 0xf5, 0xd8, 0x23, 0x1a, 0xff, 0x30,
  0x46, 0x29, 0xf2, 0x1d, 0xdf, 0x38, 0xac, 0xd3, 0xb5, 0x36, 0xf6, 0x1e,
  0xe3, 0x2d, 0x09, 0xbd, 0xfb, 0x04, 0x21, 0x4d, 0x07, 0xd2, 0xe6, 0x0b,
  0xec, 0xd7, 0xd9, 0xb9, 0x91, 0xae, 0xd1, 0xae, 0x13, 0x49, 0xf0, 0xfc,
  0x21, 0xdc, 0x4c, 0xdc, 0xd7, 0x43, 0x04, 0xe3, 0xbc, 0xdd, 0xa9, 0x5f,
  0x2e, 0x74, 0xfc, 0xae, 0xc9, 0x7f, 0xcb, 0x79, 0xc8, 0x08, 0xba, 0xdf,
  0x35, 0xb3, 0xbd, 0xf1, 0x49, 0xe8, 0x48, 0xd2, 0xf1, 0xc3, 0x7c, 0xc4,
  0x84, 0x3b, 0xdf, 0x4a, 0x32, 0xf1, 0xff, 0xff, 0x04, 0x00, 0x00, 0x00,
  0x20, 0x00, 0x00, 0x00, 0x90, 0x00, 0x00, 0x00, 0x2d, 0x00, 0x00, 0x00,
  0x2e, 0x00, 0x00, 0x00, 0x5d, 0x01, 0x00, 0x00, 0xe4, 0xff, 0xff, 0xff,
  0x24, 0x00, 0x00, 0x00, 0xd4, 0xff, 0xff, 0xff, 0x5c, 0x00, 0x00, 0x00,
  0x5e, 0xf1, 0xff, 0xff, 0x04, 0x00, 0x00, 0x00, 0x08, 0x00, 0x00, 0x00,
  0xc9, 0x16, 0xcd, 0xd2, 0x7f, 0xe7, 0xdc, 0x1c, 0x72, 0xf1, 0xff, 0xff,
  0x04, 0x00, 0x00, 0x00, 0x08, 0x00, 0x00, 0x00, 0xd9, 0x22, 0xa1, 0x80,
  0xd6, 0xd1, 0xc1, 0x10, 0x86, 0xf1, 0xff, 0xff, 0x04, 0x00, 0x00, 0x00,
  0x40, 0x06, 0x00, 0x00, 0xc8, 0x25, 0xc1, 0xd8, 0xef, 0xcf, 0x0d, 0x07,
  0xec, 0xcc, 0x1b, 0x12, 0xb7, 0x33, 0x2a, 0x9c, 0xd9, 0x0d, 0x08, 0xf3,
  0x15, 0x21, 0x06, 0xfe, 0xc8, 0x16, 0x0c, 0x01, 0xc5, 0x0e, 0xfc, 0x3b,
  0xef, 0x14, 0xcc, 0x08, 0xc0, 0x2b, 0xf0, 0xfc, 0x9e, 0xd2, 0xe0, 0x04,
  0xbd, 0x15, 0xe6, 0xb6, 0x21, 0x23, 0x3d, 0x1e, 0x18, 0xd7, 0xcf, 0xb7,
  0xf3, 0x02, 0x19, 0xdc, 0x25, 0x07, 0x1c, 0x02, 0x17, 0x07, 0xea, 0x1a,
  0xf5, 0x0d, 0x4b, 0x47, 0x4e, 0xe1, 0x03, 0x12, 0x00, 0x0f, 0x1c, 0xf5,
  0x05, 0xd1, 0x20, 0xfa, 0xe9, 0xe8, 0xec, 0x2c, 0x2d, 0x31, 0x49, 0xe6,
  0xd0, 0xf8, 0x08, 0xf3, 0xd2, 0x41, 0x06, 0x25, 0x08, 0x2d, 0xf9, 0x20,
  0x31, 0x1d, 0x1a, 0x2f, 0x1b, 0xf4, 0xfb, 0x00, 0xd9, 0xce, 0xff, 0x4e,
  0x0d, 0xec, 0x0d, 0xe5, 0xd5, 0xed, 0x81, 0x03, 0x51, 0xdf, 0x04, 0xe6,
  0x0f, 0xc0, 0x11, 0x2d, 0xee, 0x13, 0x00, 0xf2, 0xe3, 0x0b, 0xe8, 0xe7,
  0x24, 0x22, 0x0e, 0x25, 0x24, 0xee, 0xe0, 0x1f, 0xfd, 0xf2, 0x17, 0x10,
  0x01, 0xdf, 0xbb, 0xf5, 0xb5, 0x0a, 0x24, 0x1c, 0xd9, 0xc2, 0x12, 0x39,
  0xf1, 0xfb, 0xf4, 0xce, 0x21, 0x18, 0xec, 0xf1, 0x39, 0xd6, 0xd2, 0xc5,
  0x2b, 0x9a, 0x1f, 0xfa, 0xd1, 0x0a, 0x2e, 0xe9, 0xd8, 0xdb, 0xca, 0xed,
  0x03, 0x3c, 0x2b, 0x3e, 0xea, 0xe2, 0xe1, 0x62, 0xe8, 0x0c, 0x0e, 0xdc,
  0x05, 0x38, 0x35, 0x04, 0xe3, 0x16, 0x04, 0xc5, 0xe2, 0xe0, 0x34, 0xe3,
  0x58, 0xe9, 0x47, 0x27, 0xf6, 0xbc, 0x0f, 0x1f, 0x3d, 0x3b, 0x3c, 0x23,
  0xf6, 0x17, 0x13, 0xe2, 0x9b, 0xd7, 0x3f, 0x31, 0x28, 0x1b, 0x06, 0x0a,
  0x8f, 0x04, 0x17, 0xf7, 0xbb, 0xfc, 0x09, 0xf0, 0xd4, 0x29, 0x35, 0x0f,
  0x19, 0x21, 0xba, 0x7f, 0x1a, 0xfb, 0xd4, 0xa0, 0x21, 0xb3, 0xd7, 0x9b,
  0xf1, 0xcc, 0x4a, 0x1b, 0x11, 0xfd, 0x21, 0x08, 0x04, 0x39, 0x35, 0xff,
  0x14, 0x0f, 0x20, 0xdb, 0xfc, 0xb7, 0xf5, 0x0b, 0x26, 0x2d, 0xf4, 0xb4,
  0x1c, 0xee, 0x54, 0xe1, 0xfd, 0xec, 0x1e, 0xf0, 0xaa, 0x39, 0x07, 0xd8,
  0x28, 0xf4, 0xf1, 0xf3, 0xa4, 0x07, 0x33, 0x18, 0x52, 0xf2, 0xc1, 0x54,
  0x9d, 0xd4, 0xcb, 0x0a, 0xeb, 0xd7, 0xd7, 0x1d, 0x3d, 0xfd, 0xdb, 0xcd,
  0xe9, 0xaf, 0x0d, 0x39, 0x1a, 0xdc, 0x0a, 0x24, 0xf3, 0xe8, 0x0a, 0x98,
  0xfc, 0xd7, 0xdc, 0x2b, 0xbe, 0x19, 0xe2, 0x48, 0x26, 0x23, 0xfe, 0xd1,
  0xfa, 0x0d, 0xee, 0x42, 0x46, 0xfd, 0x0f, 0x28, 0xf5, 0x40, 0x15, 0xe1,
  0x13, 0x06, 0xbf, 0x30, 0xf5, 0xd6, 0x0c, 0xd1, 0x1b, 0xbc, 0xf8, 0x46,
  0x2b, 0x0e, 0xe2, 0x02, 0xe0, 0x02, 0xd2, 0xc4, 0xff, 0xf4, 0x1d, 0x1f,
  0x41, 0x39, 0xf0, 0xf9, 0xf1, 0xc4, 0x1d, 0xdd, 0x4e, 0xc9, 0xf7, 0x21,
  0xfe, 0x87, 0x57, 0x29, 0x3b, 0xf4, 0xf4, 0x36, 0xde, 0x0f, 0xfd, 0x14,
  0xe8, 0x44, 0x06, 0xf5, 0x23, 0xd4, 0x2c, 0x1c, 0x1b, 0x38, 0x15, 0xd5,
  0x09, 0xea, 0xea, 0xea, 0x04, 0x15, 0xdf, 0xfe, 0x40, 0xc1, 0xd8, 0xdd,
  0xe8, 0xa3, 0xe5, 0x65, 0x04, 0xc0, 0x36, 0x13, 0x06, 0x06, 0xd6, 0xfe,
  0xef, 0xf3, 0x03, 0xea, 0xfd, 0x15, 0xfb, 0x2a, 0xfb, 0xf1, 0xf6, 0x00,
  0x11, 0xf5, 0xd3, 0x0f, 0xf0, 0x22, 0xec, 0x21, 0xe0, 0xef, 0xf6, 0xc5,
  0x0d, 0xb6, 0xbd, 0x3a, 0x02, 0x10, 0xd0, 0xf2, 0xef, 0xf4, 0x1e, 0xef,
  0x35, 0x50, 0xf6, 0x0d, 0xf8, 0xb1, 0x03, 0xd5, 0xd1, 0x03, 0x10, 0xdc,
  0xc6, 0xc8, 0xf8, 0xff, 0x1c, 0x09, 0x0f, 0x25, 0xe2, 0x07, 0xe0, 0x28,
  0xef, 0xbf, 0x10, 0xdf, 0xf4, 0x1d, 0xd5, 0x14, 0xb3, 0xc7, 0xbf, 0x2c,
  0x26, 0x0d, 0x05, 0x20, 0x05, 0x3e, 0xc3, 0xdd, 0xf7, 0x15, 0xd7, 0x1f,
  0x09, 0xda, 0xd4, 0xcc, 0xf2, 0x06, 0x0b, 0x01, 0x25, 0x09, 0x0e, 0xe6,
  0x17, 0x1e, 0x02, 0xfe, 0xf4, 0xe0, 0xf1, 0xf3, 0xf4, 0xee, 0xa0, 0x11,
  0x03, 0xe4, 0xbd, 0xed, 0xf8, 0xd0, 0x01, 0xfd, 0x19, 0x00, 0x0b, 0x47,
  0x0a, 0x06, 0x2a, 0xfd, 0x0b, 0xf8, 0x1e, 0x0b, 0x1e, 0xd5, 0x24, 0x33,
  0xbd, 0xe6, 0x1b, 0x11, 0x16, 0x3c, 0xf9, 0x09, 0xf1, 0xec, 0xba, 0x12,
  0xf1, 0x08, 0xe7, 0x2c, 0x0f, 0xfd, 0x81, 0x2a, 0x12, 0x02, 0xf1, 0x1d,
  0x16, 0x06, 0x01, 0x1d, 0xef, 0xda, 0x2b, 0x17, 0x1f, 0x11, 0xe6, 0x13,
  0x0d, 0xcc, 0xa4, 0x01, 0x0f, 0xdf, 0x0b, 0xe6, 0xd4, 0x26, 0xe2, 0x26,
  0x1e, 0x37, 0xe2, 0xf2, 0xfe, 0xce, 0x00, 0x02, 0xe1, 0x15, 0xc3, 0xeb,
  0xe6, 0x2c, 0xbb, 0x03, 0xff, 0xfb, 0xe0, 0x05, 0xd8, 0xd0, 0xfc, 0xf6,
  0x26, 0x40, 0x27, 0x4c, 0xfa, 0xe6, 0x09, 0xd8, 0x3e, 0xfd, 0x12, 0x16,
  0x00, 0x08, 0x11, 0xe3, 0xfa, 0xd7, 0x10, 0x1f, 0x1b, 0x14, 0x20, 0xec,
  0xc6, 0xf3, 0x33, 0xc7, 0xdc, 0x13, 0xf2, 0xe2, 0xcf, 0xcf, 0xf2, 0xd3,
  0xed, 0xcd, 0xc2, 0x3c, 0x14, 0x2a, 0x0f, 0xfb, 0xde, 0xe8, 0xe7, 0xce,
  0x10, 0xf9, 0x09, 0x1c, 0xd7, 0x06, 0x2e, 0x17, 0xde, 0x37, 0x1e, 0x49,
  0x01, 0x11, 0x11, 0xc2, 0xee, 0xf6, 0xe6, 0xa0, 0x1f, 0xe3, 0x0e, 0x01,
  0xf1, 0x00, 0xa2, 0x15, 0x29, 0xfc, 0xe5, 0xfe, 0x0a, 0x09, 0xeb, 0xe3,
  0xdc, 0xf6, 0xc5, 0x53, 0xb1, 0xd9, 0xea, 0xbf, 0x1f, 0xcc, 0xf8, 0xfc,
  0x2a, 0xfb, 0xea, 0x97, 0xec, 0xce, 0x14, 0x14, 0x9a, 0xfa, 0xea, 0xff,
  0xd8, 0x81, 0xb3, 0x0d, 0xba, 0xa6, 0xbf, 0xf9, 0x12, 0x21, 0x28, 0x04,
  0xf8, 0xd8, 0xf8, 0x02, 0xd1, 0xbb, 0x1f, 0x1a, 0x9f, 0x11, 0x86, 0xed,
  0x17, 0x27, 0xc5, 0x0f, 0xec, 0xba, 0x05, 0x9e, 0xf9, 0xed, 0x99, 0xae,
  0x31, 0x0c, 0xe9, 0x0c, 0xd3, 0xf3, 0xdf, 0x2a, 0xff, 0x04, 0x9e, 0x25,
  0xf6, 0x0e, 0x37, 0xd9, 0xb7, 0xfd, 0x15, 0xbf, 0x23, 0x07, 0xc6, 0x3c,
  0xd8, 0x83, 0xda, 0x3c, 0x02, 0xed, 0x2e, 0xe6, 0xd9, 0x06, 0x0e, 0xc5,
  0xfd, 0xf5, 0x9f, 0x16, 0x18, 0x2e, 0xe5, 0x0d, 0x16, 0x4f, 0x14, 0x0c,
  0x2f, 0xe3, 0xfe, 0x2f, 0xc8, 0x18, 0x53, 0xf9, 0x01, 0x30, 0xff, 0x14,
  0xcc, 0xdb, 0x15, 0xe1, 0xc8, 0x0b, 0xd2, 0x17, 0x25, 0x2c, 0x08, 0x91,
  0xf3, 0x13, 0x00, 0xfd, 0xd5, 0xa7, 0xb6, 0x2d, 0x32, 0x36, 0xfd, 0xd2,
  0x42, 0x6f, 0x01, 0x3e, 0x0d, 0xb4, 0xe3, 0x14, 0x14, 0xd4, 0x48, 0x0a,
  0xe1, 0xd6, 0x14, 0xf4, 0x02, 0x07, 0x2e, 0xf7, 0xd2, 0xff, 0xe3, 0x53,
  0xfc, 0xe3, 0x4c, 0x1d, 0x2c, 0xe4, 0x06, 0xba, 0xf8, 0x36, 0xa2, 0x11,
  0x16, 0xdf, 0xfc, 0x24, 0xd9, 0xf8, 0xe9, 0x0b, 0x22, 0x24, 0xfc, 0x1c,
  0x0a, 0xfa, 0xd1, 0x15, 0x20, 0xf8, 0x05, 0x36, 0x12, 0x0a, 0xb0, 0xe1,
  0xcc, 0xc4, 0xe6, 0xd5, 0xa5, 0xeb, 0x08, 0xe4, 0xf2, 0xed, 0x50, 0x36,
  0x1a, 0xc3, 0xa2, 0x03, 0x00, 0x17, 0x1e, 0x98, 0x31, 0x70, 0x12, 0xfd,
  0x01, 0xe8, 0x16, 0x19, 0x11, 0x0f, 0x45, 0xc6, 0x39, 0xd9, 0x0d, 0xdc,
  0x07, 0xf8, 0xdc, 0xef, 0x11, 0x0f, 0xac, 0x3b, 0x53, 0xc1, 0xf1, 0xcd,
  0x34, 0x35, 0xf2, 0xe2, 0xd7, 0x81, 0xf1, 0x5f, 0xd1, 0x22, 0x30, 0x09,
  0xed, 0x64, 0xce, 0x01, 0xa9, 0xec, 0x17, 0xee, 0x3c, 0x53, 0xf5, 0xfd,
  0xf8, 0xfd, 0xf9, 0x07, 0x1e, 0xee, 0xb1, 0x2b, 0x3c, 0xd9, 0xe7, 0x12,
  0xe3, 0xf4, 0x98, 0xc2, 0xdc, 0xc8, 0xd6, 0xed, 0xe6, 0x26, 0xb9, 0xac,
  0xd4, 0xb7, 0x2c, 0xf6, 0x3e, 0x71, 0x35, 0x39, 0xf2, 0xe5, 0x4e, 0x18,
  0x36, 0x0d, 0x0b, 0xea, 0x32, 0x04, 0x09, 0xcc, 0xe1, 0xbf, 0xec, 0x1e,
  0xe7, 0x25, 0x10, 0xf6, 0xc8, 0x03, 0xec, 0xc3, 0x16, 0xf0, 0xf9, 0x11,
  0x17, 0xbd, 0x10, 0x05, 0xdc, 0x3c, 0x21, 0xbd, 0xd0, 0x6a, 0x7e, 0x09,
  0x81, 0xd3, 0x2d, 0x61, 0xec, 0x0f, 0xe1, 0x13, 0xe6, 0xd2, 0x28, 0xc8,
  0x45, 0x23, 0xd2, 0xda, 0x23, 0x00, 0x36, 0x5e, 0x15, 0xe7, 0x22, 0x2b,
  0xf5, 0xee, 0x16, 0xf4, 0xed, 0xf8, 0x00, 0x0b, 0xfe, 0x0d, 0xe9, 0x29,
  0xe6, 0x0e, 0xfc, 0x0c, 0x92, 0x1d, 0xa0, 0xc9, 0xfc, 0x35, 0x02, 0xce,
  0x18, 0xce, 0xed, 0x1a, 0xf9, 0x0b, 0xfb, 0xfb, 0x08, 0x52, 0xf4, 0x8b,
  0xfd, 0x0c, 0x12, 0x55, 0xce, 0x04, 0xff, 0x67, 0x4f, 0x29, 0x4f, 0xd3,
  0x14, 0xf3, 0x51, 0x10, 0x2e, 0xc2, 0x0c, 0x31, 0xc6, 0x71, 0xe9, 0xa4,
  0xdf, 0xcb, 0xd6, 0x85, 0x20, 0x09, 0x1b, 0xb5, 0x1c, 0x14, 0xdd, 0xd0,
  0x05, 0x01, 0xcb, 0xbc, 0xd6, 0xec, 0x11, 0x05, 0xf0, 0xa8, 0xdd, 0x20,
  0xfc, 0x4b, 0x33, 0x09, 0xc2, 0xf2, 0x14, 0x1a, 0x25, 0xa9, 0x02, 0x26,
  0xe1, 0x53, 0x26, 0x00, 0x0e, 0xe9, 0xd5, 0xb6, 0xe3, 0xdb, 0x19, 0xba,
  0xcd, 0x0a, 0x29, 0xf3, 0x9a, 0xd4, 0xb3, 0xf0, 0xe2, 0xe2, 0xea, 0xc2,
  0xca, 0xeb, 0x3b, 0xa2, 0xd8, 0x36, 0xe7, 0xc3, 0x15, 0x48, 0x3e, 0xea,
  0x3f, 0x0e, 0xff, 0x11, 0xb1, 0x21, 0x2a, 0x07, 0xab, 0x9a, 0x09, 0xc2,
  0xf8, 0xe8, 0xfc, 0xf7, 0x81, 0xa3, 0xea, 0xef, 0x2e, 0xcf, 0x09, 0xbd,
  0xef, 0x0a, 0xa4, 0x06, 0xb4, 0x06, 0xfd, 0x01, 0xf9, 0x6b, 0x99, 0xf2,
  0xc8, 0xe2, 0x23, 0xd1, 0x2c, 0xd4, 0x25, 0x0b, 0x24, 0xef, 0x2c, 0x39,
  0x44, 0xc1, 0xfc, 0x0d, 0x37, 0xfc, 0xe5, 0xab, 0xe1, 0x08, 0x43, 0x0f,
  0xf5, 0x1c, 0x33, 0xb9, 0xe3, 0xd3, 0xed, 0x01, 0x3b, 0xde, 0x54, 0xfd,
  0xec, 0x3b, 0xe9, 0x25, 0xe7, 0xfc, 0xfd, 0x30, 0x1c, 0xcb, 0x1b, 0x39,
  0x2b, 0xbc, 0xf5, 0x29, 0xca, 0x0a, 0xfd, 0xc5, 0x30, 0x02, 0x39, 0xe9,
  0x07, 0xe4, 0x1a, 0x50, 0x04, 0x03, 0x04, 0x0a, 0xd0, 0xf4, 0x16, 0xc9,
  0xfe, 0x2e, 0xd1, 0x08, 0x00, 0x0e, 0x1a, 0xf7, 0x3e, 0x18, 0x20, 0x04,
  0xc0, 0xdc, 0x57, 0xf8, 0x30, 0xb4, 0x33, 0xe4, 0x06, 0x46, 0xb8, 0x3e,
  0xe1, 0x06, 0xc9, 0xca, 0x3f, 0xea, 0x0f, 0x24, 0xfd, 0xc0, 0xf9, 0xfd,
  0xec, 0xab, 0xd7, 0x08, 0xdd, 0xf1, 0x0f, 0xd0, 0xd8, 0x15, 0xce, 0xed,
  0x47, 0xf8, 0xe6, 0xb2, 0x14, 0xdb, 0xd2, 0xd5, 0xde, 0xf6, 0x28, 0x02,
  0xa4, 0xd2, 0xb0, 0x45, 0x0d, 0x34, 0xda, 0xee, 0x02, 0xd3, 0x22, 0x33,
  0xef, 0xd2, 0xf5, 0x05, 0x2d, 0x19, 0x41, 0xf5, 0x49, 0xd2, 0x0f, 0xce,
  0x38, 0x31, 0x83, 0x07, 0xd7, 0x07, 0x12, 0x4d, 0x24, 0x94, 0xc8, 0x04,
  0x1c, 0xe3, 0x9f, 0xf9, 0xcf, 0x04, 0x10, 0xe0, 0x32, 0xc7, 0x1e, 0x10,
  0x11, 0xad, 0x3a, 0x23, 0xcd, 0xc4, 0xc9, 0xd9, 0xff, 0xee, 0x38, 0x1e,
  0x6e, 0xd7, 0xe5, 0xea, 0x52, 0xee, 0xe5, 0x39, 0x46, 0xd4, 0x0f, 0xf5,
  0x33, 0xfc, 0xe6, 0x39, 0x28, 0x1d, 0xbb, 0xf5, 0xd5, 0x0d, 0xdf, 0x4a,
  0x03, 0xd6, 0xfc, 0x34, 0x7a, 0xdb, 0x4e, 0x27, 0x04, 0x2d, 0x0f, 0x81,
  0xe3, 0xe7, 0xe8, 0x1b, 0x3c, 0x2f, 0x3d, 0xf3, 0x1e, 0xfe, 0x08, 0x4a,
  0x42, 0xe4, 0x0d, 0xdb, 0x02, 0xc5, 0xde, 0xeb, 0xc8, 0xff, 0xcc, 0x3d,
  0x04, 0x04, 0x21, 0x4b, 0xe2, 0xd7, 0x24, 0xe3, 0x1f, 0xf4, 0xe3, 0xe7,
  0x6f, 0xe2, 0xf2, 0x18, 0x93, 0xef, 0xc4, 0x0f, 0xd4, 0x05, 0xf0, 0xff,
  0x06, 0xba, 0xd4, 0xb1, 0xa6, 0xef, 0x19, 0xae, 0xe5, 0xfc, 0x58, 0x03,
  0xf6, 0xcf, 0x12, 0x37, 0xb7, 0xbb, 0xe4, 0xc8, 0x10, 0xfe, 0x1f, 0xf9,
  0x12, 0xd4, 0x0c, 0xa3, 0x73, 0x21, 0xc7, 0xca, 0x02, 0xf5, 0xb4, 0x0d,
  0xf6, 0xba, 0xfc, 0x0e, 0x06, 0xc7, 0x08, 0xf1, 0x08, 0xed, 0x1a, 0x36,
  0x1b, 0xdc, 0x36, 0xd4, 0xbc, 0x1d, 0x24, 0x16, 0xd2, 0xf7, 0xff, 0xff,
  0x04, 0x00, 0x00, 0x00, 0x20, 0x00, 0x00, 0x00, 0x33, 0x01, 0x00, 0x00,
  0xac, 0xfc, 0xff, 0xff, 0xca, 0xff, 0xff, 0xff, 0x37, 0xfd, 0xff, 0xff,
  0xa4, 0x01, 0x00, 0x00, 0x12, 0xfc, 0xff, 0xff, 0xd6, 0x00, 0x00, 0x00,
  0x4b, 0xfb, 0xff, 0xff, 0xfe, 0xf7, 0xff, 0xff, 0x04, 0x00, 0x00, 0x00,
  0x08, 0x00, 0x00, 0x00, 0x0f, 0x2b, 0x50, 0x7b, 0x2f, 0x0f, 0x38, 0x7f,
  0x12, 0xf8, 0xff, 0xff, 0x04, 0x00, 0x00, 0x00, 0x08, 0x00, 0x00, 0x00,
  0x13, 0xd8, 0xb7, 0xcd, 0x80, 0xc8, 0xe3, 0xec, 0x26, 0xf8, 0xff, 0xff,
  0x04, 0x00, 0x00, 0x00, 0x40, 0x02, 0x00, 0x00, 0xe7, 0xdf, 0xe9, 0xd5,
  0xe2, 0xd1, 0xe3, 0xcb, 0x11, 0xb7, 0xf8, 0xbf, 0xfa, 0xcb, 0xf1, 0x42,
  0xc9, 0xd5, 0xa2, 0x8d, 0x14, 0xee, 0x1d, 0xd3, 0x1a, 0x3c, 0x0e, 0xfc,
  0xe1, 0x5c, 0xa8, 0x5a, 0xc3, 0xd8, 0xb1, 0xc5, 0x26, 0x0e, 0x27, 0x17,
  0x55, 0xb4, 0xf0, 0x35, 0x08, 0xce, 0x21, 0x98, 0xed, 0xd3, 0x3f, 0x05,
  0x01, 0x02, 0xd5, 0x1f, 0xdc, 0x01, 0x1a, 0xf1, 0xf8, 0x2e, 0x4e, 0xfe,
  0xe4, 0x81, 0xfa, 0xd6, 0x0f, 0x15, 0xac, 0xe8, 0xd8, 0x8a, 0x81, 0xf5,
  0xba, 0xd1, 0xe2, 0x00, 0x07, 0x10, 0x0f, 0xc6, 0x56, 0x53, 0xe3, 0x16,
  0x22, 0x03, 0xfa, 0xc7, 0xff, 0x99, 0x22, 0xbe, 0x8c, 0x21, 0xb8, 0x09,
  0xc1, 0x2f, 0x21, 0x51, 0x1f, 0xe0, 0x04, 0xd8, 0x4f, 0x4d, 0xe0, 0x37,
  0xe0, 0xd7, 0x08, 0xdf, 0x11, 0x93, 0xe3, 0xc7, 0xd4, 0x03, 0x20, 0xcf,
  0x2e, 0x07, 0xe4, 0x65, 0xce, 0xfb, 0x2f, 0xca, 0x29, 0x52, 0xb3, 0x3e,
  0xb1, 0xeb, 0xd3, 0xe3, 0xdd, 0x06, 0xfa, 0x0b, 0x15, 0x4e, 0xe4, 0xee,
  0x17, 0xe4, 0x34, 0xe6, 0xc9, 0xad, 0x0f, 0xa0, 0xbb, 0x0f, 0xf0, 0xd9,
  0x2e, 0x21, 0x38, 0xae, 0x63, 0xfb, 0xa7, 0x37, 0xef, 0xe3, 0xbc, 0x28,
  0xac, 0x11, 0xd8, 0x12, 0x23, 0xf2, 0x33, 0xb5, 0x0a, 0xf9, 0xf1, 0x03,
  0xc6, 0xce, 0xed, 0x28, 0x2c, 0xc2, 0xf3, 0x11, 0xc7, 0x01, 0x96, 0xd8,
  0x81, 0x14, 0x0f, 0xdb, 0xdd, 0x0d, 0x1e, 0xa9, 0xe7, 0xff, 0xed, 0xce,
  0x27, 0x9e, 0x10, 0xf6, 0x20, 0xd9, 0x02, 0x3f, 0x4a, 0xfa, 0x02, 0xcf,
  0xef, 0xbf, 0x00, 0x24, 0xef, 0x10, 0xa1, 0x3c, 0x9c, 0xe6, 0xf8, 0xd3,
  0xf2, 0xce, 0x13, 0xd8, 0x09, 0xf2, 0x2b, 0xf9, 0x1f, 0x4d, 0xd8, 0x81,
  0xeb, 0xb0, 0xd2, 0x0a, 0xc8, 0xfc, 0x1d, 0x21, 0xdb, 0xa9, 0x2e, 0xed,
  0x3d, 0xf2, 0x00, 0xc4, 0x24, 0xfe, 0xbc, 0x2b, 0xe6, 0xb3, 0x1c, 0xe6,
  0x3c, 0xe7, 0x10, 0xf1, 0xf9, 0x1c, 0xeb, 0xe4, 0x99, 0x0e, 0x03, 0xf2,
  0x81, 0xc2, 0xb5, 0xd3, 0x9b, 0xda, 0x2a, 0xa3, 0x1e, 0xd4, 0xbe, 0x13,
  0xa2, 0xa5, 0x31, 0xce, 0x07, 0xb8, 0xd6, 0x08, 0xf3, 0xb1, 0x18, 0x34,
  0x43, 0x97, 0xf6, 0xae, 0x0f, 0xf0, 0x2b, 0xcf, 0xe2, 0x21, 0xc0, 0xff,
  0xd9, 0x0c, 0x13, 0xf6, 0x1e, 0x37, 0x2a, 0x02, 0x00, 0x1f, 0x6c, 0x22,
  0xe0, 0xbc, 0xf9, 0x40, 0x28, 0xff, 0xdf, 0x9f, 0xe2, 0xe1, 0x46, 0xce,
  0x36, 0x22, 0xd5, 0xcb, 0xeb, 0xfe, 0x4c, 0x41, 0xf4, 0x09, 0xec, 0x2a,
  0x81, 0xb3, 0xc2, 0xab, 0xbe, 0x1e, 0xff, 0xac, 0xef, 0xe3, 0xf0, 0x2e,
  0xb7, 0xb4, 0xe2, 0x68, 0xac, 0x0b, 0x6d, 0xc4, 0x51, 0x53, 0xa3, 0xe9,
  0x3f, 0xb3, 0x9d, 0x05, 0x81, 0x31, 0xc3, 0xde, 0x22, 0xea, 0xcf, 0x2e,
  0x12, 0x0d, 0x1e, 0xe3, 0xf4, 0xcd, 0x46, 0x02, 0x07, 0x71, 0x27, 0xff,
  0xe5, 0xff, 0xbb, 0x1d, 0x4c, 0xd5, 0x16, 0xf4, 0x06, 0x0d, 0x03, 0x13,
  0x31, 0xbe, 0x27, 0x65, 0xfb, 0x01, 0x32, 0xed, 0x44, 0xe8, 0xe5, 0xe5,
  0xdf, 0x0b, 0xa9, 0xeb, 0xbc, 0x3f, 0x20, 0xc9, 0x26, 0xfe, 0x0a, 0xc7,
  0xd9, 0xf0, 0xab, 0xd9, 0xf7, 0x2e, 0x3a, 0xe3, 0x13, 0xed, 0xe4, 0x13,
  0x22, 0xa9, 0x0d, 0x48, 0x33, 0x06, 0xc7, 0x04, 0x13, 0xd1, 0x37, 0xe4,
  0xb7, 0xfa, 0xba, 0x2e, 0xc8, 0x1b, 0xbb, 0xcd, 0xc0, 0x12, 0xf4, 0xd3,
  0xf5, 0xff, 0x17, 0x26, 0x3b, 0xe8, 0x00, 0x26, 0x38, 0x2b, 0xe5, 0xe9,
  0xbe, 0x0f, 0x9b, 0xf6, 0xbb, 0xf5, 0x2c, 0x81, 0x3b, 0xfb, 0x05, 0xc3,
  0x36, 0xff, 0x07, 0xed, 0xc8, 0xbc, 0x20, 0x4f, 0x5a, 0xdb, 0xc3, 0x0c,
  0x08, 0x84, 0x22, 0xd8, 0x46, 0xae, 0x5e, 0x26, 0xba, 0xc3, 0x1b, 0x00,
  0xc5, 0x28, 0xd5, 0xfd, 0x1e, 0xe4, 0x5b, 0xaa, 0xdf, 0x30, 0x2a, 0x45,
  0x30, 0xc6, 0x38, 0x0b, 0xd9, 0x5b, 0xd1, 0xe5, 0x0f, 0x40, 0x87, 0x2c,
  0xb9, 0xbd, 0x0e, 0xe4, 0xac, 0xdc, 0x40, 0x02, 0x43, 0xb8, 0x1a, 0x65,
  0x1d, 0x30, 0x43, 0x2d, 0x33, 0xd6, 0xf7, 0x89, 0x0e, 0x38, 0x81, 0x13,
  0xed, 0x95, 0x9c, 0x1b, 0x32, 0xe7, 0x1e, 0xc2, 0x72, 0xfa, 0xff, 0xff,
  0x04, 0x00, 0x00, 0x00, 0x20, 0x00, 0x00, 0x00, 0x36, 0xfd, 0xff, 0xff,
  0x50, 0xfa, 0xff, 0xff, 0x05, 0x00, 0x00, 0x00, 0x85, 0xfd, 0xff, 0xff,
  0x6d, 0xfd, 0xff, 0xff, 0x62, 0xff, 0xff, 0xff, 0x82, 0xfc, 0xff, 0xff,
  0x80, 0xfe, 0xff, 0xff, 0x9e, 0xfa, 0xff, 0xff, 0x04, 0x00, 0x00, 0x00,
  0x08, 0x00, 0x00, 0x00, 0x7f, 0x12, 0x0c, 0xf0, 0xf6, 0xdd, 0xe7, 0xe9,
  0xb2, 0xfa, 0xff, 0xff, 0x04, 0x00, 0x00, 0x00, 0x08, 0x00, 0x00, 0x00,
  0x04, 0xd2, 0xc3, 0xda, 0x8a, 0x9a, 0xf5, 0x80, 0xc6, 0xfa, 0xff, 0xff,
  0x04, 0x00, 0x00, 0x00, 0x80, 0x03, 0x00, 0x00, 0x0a, 0xd9, 0xee, 0x06,
  0xcc, 0xe9, 0x2c, 0x03, 0xcf, 0xa9, 0xe8, 0x1b, 0x05, 0xd4, 0x18, 0xd4,
  0x41, 0xf2, 0xd1, 0x16, 0x0c, 0xe0, 0x16, 0xf8, 0x0f, 0xb7, 0x30, 0xff,
  0xd4, 0xf6, 0x0c, 0xeb, 0xe9, 0xff, 0xd3, 0xfe, 0xec, 0xfb, 0x24, 0xfd,
  0xfa, 0xac, 0x2a, 0xf0, 0x23, 0xf3, 0xfd, 0xf2, 0x27, 0xfe, 0xfa, 0xe9,
  0xf5, 0xfe, 0x2f, 0x0b, 0xde, 0xc3, 0x36, 0x17, 0xda, 0xb2, 0x08, 0xcd,
  0x2c, 0xc3, 0xdd, 0x20, 0xff, 0xce, 0x22, 0x1f, 0xcf, 0xbd, 0x11, 0x15,
  0x07, 0x9f, 0x03, 0xfa, 0x15, 0xd7, 0xe7, 0xf7, 0x0c, 0xd4, 0x02, 0x0c,
  0xe2, 0xb6, 0x1b, 0x13, 0x02, 0xeb, 0x0d, 0xb9, 0x09, 0xd6, 0xb1, 0x18,
  0xea, 0xff, 0x21, 0xf9, 0xcc, 0xba, 0x27, 0x05, 0xdf, 0x81, 0x06, 0xc3,
  0x14, 0xcc, 0x12, 0xf8, 0xdd, 0x27, 0xff, 0xfa, 0xb4, 0xc6, 0xf0, 0xe8,
  0x05, 0xcd, 0x25, 0xf4, 0x0a, 0xf2, 0x1a, 0x06, 0x08, 0xd3, 0xc6, 0x22,
  0x09, 0x16, 0xeb, 0x09, 0x26, 0x07, 0xd7, 0x13, 0xfa, 0xda, 0xc3, 0xdf,
  0x23, 0x12, 0xd1, 0x0f, 0x0f, 0x02, 0xd9, 0x05, 0x1e, 0x13, 0xb9, 0x0a,
  0x10, 0xe7, 0xcd, 0xfb, 0x29, 0x10, 0xb6, 0x1f, 0xfd, 0x10, 0xc5, 0x2b,
  0x21, 0x1a, 0xd2, 0x36, 0x00, 0xd3, 0xcb, 0x07, 0x1f, 0x25, 0xd1, 0x09,
  0x09, 0x0a, 0xbb, 0x1e, 0x1c, 0x2b, 0xbe, 0x16, 0x0c, 0xd3, 0xe9, 0x11,
  0x0b, 0x1a, 0xd2, 0x2b, 0x11, 0x04, 0xcc, 0x21, 0x25, 0x2d, 0xb2, 0x29,
  0x0e, 0xb8, 0xcb, 0xfe, 0x1f, 0x1e, 0xb4, 0x2d, 0xf5, 0xfd, 0xac, 0x1e,
  0x22, 0x38, 0x9a, 0x25, 0x16, 0xc4, 0xc7, 0x0b, 0xf8, 0x22, 0xb0, 0xf9,
  0x1c, 0x10, 0xcc, 0x14, 0x1c, 0x2c, 0xe1, 0x09, 0xf9, 0xc5, 0xcb, 0x01,
  0x22, 0x15, 0xe6, 0x2c, 0x16, 0x15, 0xfb, 0x14, 0x1a, 0x27, 0xbe, 0x27,
  0x0b, 0xff, 0x16, 0x01, 0x05, 0x23, 0x00, 0xf8, 0xb4, 0xb9, 0xd3, 0x05,
  0xca, 0x13, 0x03, 0x53, 0x03, 0x16, 0x27, 0xf7, 0x08, 0xf9, 0xd2, 0xf8,
  0xc3, 0xd5, 0xd8, 0xc4, 0xb4, 0x11, 0x9a, 0x39, 0x0b, 0x1b, 0x1f, 0x0f,
  0x23, 0xfc, 0xce, 0x07, 0xa7, 0xe8, 0xb5, 0xf6, 0xbd, 0x05, 0xe0, 0x0b,
  0x0d, 0x1d, 0x05, 0x06, 0x01, 0xfc, 0xd8, 0xde, 0xb5, 0xe4, 0xa0, 0xf4,
  0xc9, 0xee, 0xd1, 0x1d, 0x10, 0x00, 0x1e, 0x00, 0xf1, 0xf4, 0xf3, 0xf1,
  0xcc, 0xe2, 0xa5, 0xaf, 0xd0, 0x0e, 0xfb, 0x04, 0x04, 0xf3, 0x0c, 0xfa,
  0x17, 0xed, 0xfa, 0xe4, 0xb2, 0xeb, 0x8f, 0xf1, 0xf3, 0x1a, 0xc7, 0x41,
  0xf9, 0x1f, 0x1e, 0xf8, 0x00, 0xeb, 0xf1, 0x05, 0xc7, 0xe8, 0xcc, 0xe8,
  0xeb, 0xdf, 0xf0, 0x63, 0xfc, 0x18, 0x2b, 0xfd, 0x2e, 0xfd, 0x0c, 0xd9,
  0xc7, 0xdd, 0xad, 0xfa, 0xda, 0x02, 0xec, 0x15, 0x09, 0xed, 0x12, 0xed,
  0x14, 0x18, 0x07, 0xcc, 0x00, 0x46, 0xe9, 0x08, 0x3c, 0x03, 0xb1, 0xd9,
  0x0a, 0x05, 0x04, 0x0a, 0x0e, 0xf5, 0xd2, 0xd5, 0x0a, 0x08, 0xaf, 0x05,
  0x1f, 0x22, 0xe7, 0xfa, 0x0e, 0x16, 0xf6, 0xec, 0x12, 0xf6, 0xe4, 0xef,
  0x2e, 0x15, 0xae, 0x21, 0x22, 0x29, 0xbb, 0x32, 0xe3, 0x16, 0x07, 0xec,
  0x09, 0xd6, 0xdc, 0xc6, 0x20, 0x13, 0xe6, 0x07, 0x37, 0x1f, 0xb0, 0x09,
  0x1e, 0x20, 0x17, 0x0c, 0xff, 0xf7, 0x0e, 0xd8, 0x1f, 0x25, 0xd0, 0x2c,
  0x18, 0x18, 0xbf, 0x0a, 0x13, 0xf7, 0x16, 0x16, 0x11, 0x15, 0xe3, 0xe2,
  0xf1, 0x0f, 0xc4, 0x12, 0x14, 0x1a, 0xbb, 0x1c, 0xe2, 0x22, 0x05, 0xfb,
  0x06, 0xec, 0xf0, 0xca, 0x29, 0x0e, 0xcd, 0xee, 0x30, 0x38, 0xd4, 0x06,
  0xf3, 0x12, 0x09, 0xfe, 0xe6, 0xef, 0x0f, 0xe2, 0x1a, 0x20, 0x02, 0xe5,
  0x07, 0x2c, 0xa8, 0x13, 0x02, 0xf8, 0xd1, 0x12, 0xe5, 0xf7, 0x02, 0xf6,
  0x2b, 0x16, 0x0d, 0x03, 0x00, 0xfc, 0x20, 0xef, 0xee, 0xc0, 0xc1, 0xeb,
  0x1a, 0xfd, 0x1a, 0x27, 0x08, 0x21, 0x04, 0xf2, 0x14, 0xf4, 0x1e, 0xe2,
  0x25, 0xe1, 0xd0, 0x13, 0xe2, 0xf0, 0x0d, 0x14, 0x13, 0x20, 0x18, 0x00,
  0xed, 0x06, 0x22, 0xf4, 0xf5, 0xc6, 0xc9, 0x17, 0x0e, 0xd6, 0x1c, 0x25,
  0x22, 0x19, 0x0e, 0x0a, 0x24, 0x0f, 0x1b, 0xd8, 0xff, 0xd6, 0xc8, 0x0a,
  0x02, 0x18, 0x00, 0x22, 0x05, 0x1f, 0x16, 0xcd, 0xe4, 0x0f, 0x30, 0xfa,
  0x0f, 0xdf, 0xec, 0x2e, 0xf3, 0xef, 0x23, 0x09, 0x0b, 0xff, 0x08, 0x15,
  0xf5, 0xfb, 0x0a, 0x0f, 0xfb, 0xbd, 0xe8, 0x10, 0x29, 0x09, 0xef, 0x13,
  0x0a, 0x20, 0x14, 0xe8, 0x0d, 0x1e, 0x20, 0x03, 0x17, 0xe9, 0xb6, 0x03,
  0xe6, 0xf5, 0x16, 0xff, 0x18, 0x37, 0x25, 0x08, 0xf3, 0x07, 0xe4, 0x00,
  0xe7, 0x05, 0xfb, 0x43, 0x00, 0x11, 0xf4, 0x13, 0xaa, 0x90, 0x2f, 0x0f,
  0xc8, 0xea, 0x0c, 0xff, 0xf4, 0x18, 0x1d, 0xf1, 0xf5, 0x12, 0xf8, 0xd3,
  0xf7, 0xbc, 0x2d, 0xfd, 0xfe, 0xa1, 0xff, 0x12, 0x08, 0x12, 0x2d, 0xff,
  0xf6, 0x09, 0x03, 0xfe, 0xf2, 0xb3, 0x34, 0xd8, 0xb8, 0xa4, 0x14, 0xe7,
  0xf5, 0x1a, 0xf2, 0xfe, 0x16, 0x30, 0xe2, 0x05, 0xce, 0xbf, 0x28, 0xe0,
  0xdb, 0x99, 0x13, 0x21, 0xf8, 0x05, 0xff, 0x03, 0x09, 0x04, 0xe8, 0xe7,
  0xdb, 0xcf, 0x24, 0x17, 0xdb, 0xc4, 0x29, 0xe0, 0xfe, 0xf1, 0xf7, 0x18,
  0xfc, 0xfc, 0xe4, 0xce, 0x13, 0x9f, 0x2e, 0x02, 0xb6, 0xbe, 0x08, 0xcb,
  0xf6, 0xfd, 0x27, 0xf3, 0x1e, 0xfe, 0xe1, 0xf4, 0xd2, 0xca, 0x1f, 0x1b,
  0xfb, 0xca, 0x24, 0xfb, 0xf2, 0x02, 0x12, 0x11, 0xe6, 0xd4, 0xd4, 0xef,
  0xeb, 0x99, 0xfd, 0xff, 0x18, 0x83, 0x36, 0xc3, 0xde, 0xea, 0xea, 0xc6,
  0x04, 0xfa, 0xff, 0xca, 0x2c, 0x3f, 0x21, 0x0e, 0x0f, 0xe8, 0x17, 0xd6,
  0xec, 0x12, 0x00, 0x0a, 0x0a, 0x18, 0xed, 0xce, 0x00, 0x22, 0x14, 0x16,
  0xf5, 0xf2, 0x2a, 0xc4, 0x02, 0x05, 0xfe, 0xf9, 0xff, 0x08, 0x16, 0xd8,
  0x10, 0x28, 0x17, 0xe3, 0x12, 0x1f, 0x18, 0xe9, 0xed, 0x27, 0xea, 0xf2,
  0xe1, 0x11, 0xfc, 0xd1, 0x39, 0x3a, 0x26, 0xe1, 0xde, 0xfa, 0x1f, 0xa1,
  0x01, 0x0a, 0xf9, 0xf4, 0x0c, 0xf3, 0xf2, 0xcf, 0x0a, 0x20, 0x1b, 0xd8,
  0x26, 0x0f, 0x21, 0xd1, 0xeb, 0x02, 0x02, 0x08, 0x07, 0x24, 0xf5, 0xed,
  0x13, 0x09, 0x2b, 0x27, 0x04, 0x12, 0x22, 0xdd, 0xf7, 0xfb, 0x0b, 0x04,
  0x07, 0x0e, 0xe7, 0xc0, 0x46, 0x3c, 0x04, 0xb7, 0xd5, 0xe7, 0x2f, 0xcf,
  0xc7, 0x12, 0xff, 0xf4, 0xcc, 0xe6, 0xe3, 0xd1, 0x15, 0x32, 0x39, 0x0a,
  0x02, 0x20, 0xff, 0x19, 0x52, 0xfe, 0xff, 0xff, 0x04, 0x00, 0x00, 0x00,
  0x1c, 0x00, 0x00, 0x00, 0xd2, 0xff, 0xff, 0xff, 0x76, 0xff, 0xff, 0xff,
  0x45, 0x00, 0x00, 0x00, 0xbc, 0xff, 0xff, 0xff, 0x5f, 0x00, 0x00, 0x00,
  0x41, 0x00, 0x00, 0x00, 0xdb, 0xff, 0xff, 0xff, 0x7a, 0xfe, 0xff, 0xff,
  0x04, 0x00, 0x00, 0x00, 0x08, 0x00, 0x00, 0x00, 0xff, 0xff, 0xff, 0xff,
  0x80, 0x00, 0x00, 0x00, 0xec, 0xd3, 0xff, 0xff, 0xf0, 0xd3, 0xff, 0xff,
  0xf4, 0xd3, 0xff, 0xff, 0x0f, 0x00, 0x00, 0x00, 0x4d, 0x4c, 0x49, 0x52,
  0x20, 0x43, 0x6f, 0x6e, 0x76, 0x65, 0x72, 0x74, 0x65, 0x64, 0x2e, 0x00,
  0x01, 0x00, 0x00, 0x00, 0x14, 0x00, 0x00, 0x00, 0x00, 0x00, 0x0e, 0x00,
  0x18, 0x00, 0x14, 0x00, 0x10, 0x00, 0x0c, 0x00, 0x08, 0x00, 0x04, 0x00,
  0x0e, 0x00, 0x00, 0x00, 0x14, 0x00, 0x00, 0x00, 0x1c, 0x00, 0x00, 0x00,
  0x00, 0x07, 0x00, 0x00, 0x04, 0x07, 0x00, 0x00, 0x0c, 0x07, 0x00, 0x00,
  0x04, 0x00, 0x00, 0x00, 0x6d, 0x61, 0x69, 0x6e, 0x00, 0x00, 0x00, 0x00,
  0x1e, 0x00, 0x00, 0x00, 0xc8, 0x06, 0x00, 0x00, 0x9c, 0x06, 0x00, 0x00,
  0x4c, 0x06, 0x00, 0x00, 0x08, 0x06, 0x00, 0x00, 0xd4, 0x05, 0x00, 0x00,
  0x80, 0x05, 0x00, 0x00, 0x3c, 0x05, 0x00, 0x00, 0x08, 0x05, 0x00, 0x00,
  0xd4, 0x04, 0x00, 0x00, 0x90, 0x04, 0x00, 0x00, 0x4c, 0x04, 0x00, 0x00,
  0x18, 0x04, 0x00, 0x00, 0xe4, 0x03, 0x00, 0x00, 0xa0, 0x03, 0x00, 0x00,
  0x5c, 0x03, 0x00, 0x00, 0x28, 0x03, 0x00, 0x00, 0xf4, 0x02, 0x00, 0x00,
  0xb0, 0x02, 0x00, 0x00, 0x6c, 0x02, 0x00, 0x00, 0x38, 0x02, 0x00, 0x00,
  0x04, 0x02, 0x00, 0x00, 0xc0, 0x01, 0x00, 0x00, 0x7c, 0x01, 0x00, 0x00,
  0x48, 0x01, 0x00, 0x00, 0x14, 0x01, 0x00, 0x00, 0xd0, 0x00, 0x00, 0x00,
  0x90, 0x00, 0x00, 0x00, 0x68, 0x00, 0x00, 0x00, 0x24, 0x00, 0x00, 0x00,
  0x04, 0x00, 0x00, 0x00, 0xba, 0xf9, 0xff, 0xff, 0x08, 0x00, 0x00, 0x00,
  0x0c, 0x00, 0x00, 0x00, 0x01, 0x00, 0x00, 0x00, 0x3a, 0x00, 0x00, 0x00,
  0x01, 0x00, 0x00, 0x00, 0x39, 0x00, 0x00, 0x00, 0x4e, 0xfa, 0xff, 0xff,
  0x14, 0x00, 0x00, 0x00, 0x00, 0x00, 0x00, 0x08, 0x10, 0x00, 0x00, 0x00,
  0x14, 0x00, 0x00, 0x00, 0x07, 0x00, 0x00, 0x00, 0xf8, 0xd4, 0xff, 0xff,
  0x01, 0x00, 0x00, 0x00, 0x39, 0x00, 0x00, 0x00, 0x03, 0x00, 0x00, 0x00,
  0x38, 0x00, 0x00, 0x00, 0x04, 0x00, 0x00, 0x00, 0x03, 0x00, 0x00, 0x00,
  0x00, 0x00, 0x0a, 0x00, 0x10, 0x00, 0x0c, 0x00, 0x08, 0x00, 0x04, 0x00,
  0x0a, 0x00, 0x00, 0x00, 0x0c, 0x00, 0x00, 0x00, 0x10, 0x00, 0x00, 0x00,
  0x06, 0x00, 0x00, 0x00, 0x01, 0x00, 0x00, 0x00, 0x38, 0x00, 0x00, 0x00,
  0x02, 0x00, 0x00, 0x00, 0x37, 0x00, 0x00, 0x00, 0x02, 0x00, 0x00, 0x00,
  0xb2, 0xfa, 0xff, 0xff, 0x1c, 0x00, 0x00, 0x00, 0x00, 0x00, 0x00, 0x0a,
  0x1c, 0x00, 0x00, 0x00, 0x20, 0x00, 0x00, 0x00, 0x05, 0x00, 0x00, 0x00,
  0x00, 0x00, 0x06, 0x00, 0x08, 0x00, 0x04, 0x00, 0x06, 0x00, 0x00, 0x00,
  0x03, 0x00, 0x00, 0x00, 0x01, 0x00, 0x00, 0x00, 0x37, 0x00, 0x00, 0x00,
  0x02, 0x00, 0x00, 0x00, 0x2a, 0x00, 0x00, 0x00, 0x36, 0x00, 0x00, 0x00,
  0xee, 0xfa, 0xff, 0xff, 0x14, 0x00, 0x00, 0x00, 0x00, 0x00, 0x00, 0x05,
  0x24, 0x00, 0x00, 0x00, 0x28, 0x00, 0x00, 0x00, 0x04, 0x00, 0x00, 0x00,
  0x9e, 0xfb, 0xff, 0xff, 0x02, 0x00, 0x00, 0x00, 0x02, 0x00, 0x00, 0x00,
  0x02, 0x00, 0x00, 0x00, 0x02, 0x00, 0x00, 0x00, 0x00, 0x00, 0x00, 0x01,
  0x01, 0x00, 0x00, 0x00, 0x36, 0x00, 0x00, 0x00, 0x01, 0x00, 0x00, 0x00,
  0x35, 0x00, 0x00, 0x00, 0x2e, 0xfb, 0xff, 0xff, 0x14, 0x00, 0x00, 0x00,
  0x00, 0x00, 0x00, 0x0b, 0x10, 0x00, 0x00, 0x00, 0x14, 0x00, 0x00, 0x00,
  0x03, 0x00, 0x00, 0x00, 0xd8, 0xd5, 0xff, 0xff, 0x01, 0x00, 0x00, 0x00,
  0x35, 0x00, 0x00, 0x00, 0x02, 0x00, 0x00, 0x00, 0x34, 0x00, 0x00, 0x00,
  0x05, 0x00, 0x00, 0x00, 0x5e, 0xfb, 0xff, 0xff, 0x14, 0x00, 0x00, 0x00,
  0x00, 0x00, 0x00, 0x15, 0x10, 0x00, 0x00, 0x00, 0x14, 0x00, 0x00, 0x00,
  0x02, 0x00, 0x00, 0x00, 0x08, 0xd6, 0xff, 0xff, 0x01, 0x00, 0x00, 0x00,
  0x34, 0x00, 0x00, 0x00, 0x02, 0x00, 0x00, 0x00, 0x33, 0x00, 0x00, 0x00,
  0x06, 0x00, 0x00, 0x00, 0x8e, 0xfb, 0xff, 0xff, 0x14, 0x00, 0x00, 0x00,
  0x00, 0x00, 0x00, 0x01, 0x1c, 0x00, 0x00, 0x00, 0x20, 0x00, 0x00, 0x00,
  0x01, 0x00, 0x00, 0x00, 0x80, 0xfb, 0xff, 0xff, 0x00, 0x00, 0x00, 0x01,
  0x01, 0x00, 0x00, 0x00, 0x01, 0x00, 0x00, 0x00, 0x01, 0x00, 0x00, 0x00,
  0x33, 0x00, 0x00, 0x00, 0x03, 0x00, 0x00, 0x00, 0x32, 0x00, 0x00, 0x00,
  0x08, 0x00, 0x00, 0x00, 0x07, 0x00, 0x00, 0x00, 0xce, 0xfb, 0xff, 0xff,
  0x14, 0x00, 0x00, 0x00, 0x00, 0x00, 0x00, 0x05, 0x24, 0x00, 0x00, 0x00,
  0x28, 0x00, 0x00, 0x00, 0x04, 0x00, 0x00, 0x00, 0x7e, 0xfc, 0xff, 0xff,
  0x02, 0x00, 0x00, 0x00, 0x02, 0x00, 0x00, 0x00, 0x02, 0x00, 0x00, 0x00,
  0x02, 0x00, 0x00, 0x00, 0x00, 0x00, 0x00, 0x01, 0x01, 0x00, 0x00, 0x00,
  0x32, 0x00, 0x00, 0x00, 0x01, 0x00, 0x00, 0x00, 0x31, 0x00, 0x00, 0x00,
  0x0e, 0xfc, 0xff, 0xff, 0x14, 0x00, 0x00, 0x00, 0x00, 0x00, 0x00, 0x0b,
  0x10, 0x00, 0x00, 0x00, 0x14, 0x00, 0x00, 0x00, 0x03, 0x00, 0x00, 0x00,
  0xb8, 0xd6, 0xff, 0xff, 0x01, 0x00, 0x00, 0x00, 0x31, 0x00, 0x00, 0x00,
  0x02, 0x00, 0x00, 0x00, 0x30, 0x00, 0x00, 0x00, 0x09, 0x00, 0x00, 0x00,
  0x3e, 0xfc, 0xff, 0xff, 0x14, 0x00, 0x00, 0x00, 0x00, 0x00, 0x00, 0x15,
  0x10, 0x00, 0x00, 0x00, 0x14, 0x00, 0x00, 0x00, 0x02, 0x00, 0x00, 0x00,
  0xe8, 0xd6, 0xff, 0xff, 0x01, 0x00, 0x00, 0x00, 0x30, 0x00, 0x00, 0x00,
  0x02, 0x00, 0x00, 0x00, 0x2f, 0x00, 0x00, 0x00, 0x0a, 0x00, 0x00, 0x00,
  0x6e, 0xfc, 0xff, 0xff, 0x14, 0x00, 0x00, 0x00, 0x00, 0x00, 0x00, 0x01,
  0x1c, 0x00, 0x00, 0x00, 0x20, 0x00, 0x00, 0x00, 0x01, 0x00, 0x00, 0x00,
  0x60, 0xfc, 0xff, 0xff, 0x00, 0x00, 0x00, 0x01, 0x01, 0x00, 0x00, 0x00,
  0x01, 0x00, 0x00, 0x00, 0x01, 0x00, 0x00, 0x00, 0x2f, 0x00, 0x00, 0x00,
  0x03, 0x00, 0x00, 0x00, 0x2e, 0x00, 0x00, 0x00, 0x0c, 0x00, 0x00, 0x00,
  0x0b, 0x00, 0x00, 0x00, 0xae, 0xfc, 0xff, 0xff, 0x14, 0x00, 0x00, 0x00,
  0x00, 0x00, 0x00, 0x05, 0x24, 0x00, 0x00, 0x00, 0x28, 0x00, 0x00, 0x00,
  0x04, 0x00, 0x00, 0x00, 0x5e, 0xfd, 0xff, 0xff, 0x02, 0x00, 0x00, 0x00,
  0x02, 0x00, 0x00, 0x00, 0x02, 0x00, 0x00, 0x00, 0x02, 0x00, 0x00, 0x00,
  0x00, 0x00, 0x00, 0x01, 0x01, 0x00, 0x00, 0x00, 0x2e, 0x00, 0x00, 0x00,
  0x01, 0x00, 0x00, 0x00, 0x2d, 0x00, 0x00, 0x00, 0xee, 0xfc, 0xff, 0xff,
  0x14, 0x00, 0x00, 0x00, 0x00, 0x00, 0x00, 0x0b, 0x10, 0x00, 0x00, 0x00,
  0x14, 0x00, 0x00, 0x00, 0x03, 0x00, 0x00, 0x00, 0x98, 0xd7, 0xff, 0xff,
  0x01, 0x00, 0x00, 0x00, 0x2d, 0x00, 0x00, 0x00, 0x02, 0x00, 0x00, 0x00,
  0x2c, 0x00, 0x00, 0x00, 0x0d, 0x00, 0x00, 0x00, 0x1e, 0xfd, 0xff, 0xff,
  0x14, 0x00, 0x00, 0x00, 0x00, 0x00, 0x00, 0x15, 0x10, 0x00, 0x00, 0x00,
  0x14, 0x00, 0x00, 0x00, 0x02, 0x00, 0x00, 0x00, 0xc8, 0xd7, 0xff, 0xff,
  0x01, 0x00, 0x00, 0x00, 0x2c, 0x00, 0x00, 0x00, 0x02, 0x00, 0x00, 0x00,
  0x2b, 0x00, 0x00, 0x00, 0x0e, 0x00, 0x00, 0x00, 0x4e, 0xfd, 0xff, 0xff,
  0x14, 0x00, 0x00, 0x00, 0x00, 0x00, 0x00, 0x01, 0x1c, 0x00, 0x00, 0x00,
  0x20, 0x00, 0x00, 0x00, 0x01, 0x00, 0x00, 0x00, 0x40, 0xfd, 0xff, 0xff,
  0x00, 0x00, 0x00, 0x01, 0x01, 0x00, 0x00, 0x00, 0x01, 0x00, 0x00, 0x00,
  0x01, 0x00, 0x00, 0x00, 0x2b, 0x00, 0x00, 0x00, 0x03, 0x00, 0x00, 0x00,
  0x1d, 0x00, 0x00, 0x00, 0x10, 0x00, 0x00, 0x00, 0x0f, 0x00, 0x00, 0x00,
  0x8e, 0xfd, 0xff, 0xff, 0x14, 0x00, 0x00, 0x00, 0x00, 0x00, 0x00, 0x05,
  0x24, 0x00, 0x00, 0x00, 0x28, 0x00, 0x00, 0x00, 0x04, 0x00, 0x00, 0x00,
  0x3e, 0xfe, 0xff, 0xff, 0x02, 0x00, 0x00, 0x00, 0x02, 0x00, 0x00, 0x00,
  0x02, 0x00, 0x00, 0x00, 0x02, 0x00, 0x00, 0x00, 0x00, 0x00, 0x00, 0x01,
  0x01, 0x00, 0x00, 0x00, 0x2a, 0x00, 0x00, 0x00, 0x01, 0x00, 0x00, 0x00,
  0x29, 0x00, 0x00, 0x00, 0xce, 0xfd, 0xff, 0xff, 0x14, 0x00, 0x00, 0x00,
  0x00, 0x00, 0x00, 0x0b, 0x10, 0x00, 0x00, 0x00, 0x14, 0x00, 0x00, 0x00,
  0x03, 0x00, 0x00, 0x00, 0x78, 0xd8, 0xff, 0xff, 0x01, 0x00, 0x00, 0x00,
  0x29, 0x00, 0x00, 0x00, 0x02, 0x00, 0x00, 0x00, 0x28, 0x00, 0x00, 0x00,
  0x11, 0x00, 0x00, 0x00, 0xfe, 0xfd, 0xff, 0xff, 0x14, 0x00, 0x00, 0x00,
  0x00, 0x00, 0x00, 0x15, 0x10, 0x00, 0x00, 0x00, 0x14, 0x00, 0x00, 0x00,
  0x02, 0x00, 0x00, 0x00, 0xa8, 0xd8, 0xff, 0xff, 0x01, 0x00, 0x00, 0x00,
  0x28, 0x00, 0x00, 0x00, 0x02, 0x00, 0x00, 0x00, 0x27, 0x00, 0x00, 0x00,
  0x12, 0x00, 0x00, 0x00, 0x2e, 0xfe, 0xff, 0xff, 0x14, 0x00, 0x00, 0x00,
  0x00, 0x00, 0x00, 0x01, 0x1c, 0x00, 0x00, 0x00, 0x20, 0x00, 0x00, 0x00,
  0x01, 0x00, 0x00, 0x00, 0x20, 0xfe, 0xff, 0xff, 0x00, 0x00, 0x00, 0x01,
  0x01, 0x00, 0x00, 0x00, 0x01, 0x00, 0x00, 0x00, 0x01, 0x00, 0x00, 0x00,
  0x27, 0x00, 0x00, 0x00, 0x03, 0x00, 0x00, 0x00, 0x26, 0x00, 0x00, 0x00,
  0x14, 0x00, 0x00, 0x00, 0x13, 0x00, 0x00, 0x00, 0x6e, 0xfe, 0xff, 0xff,
  0x14, 0x00, 0x00, 0x00, 0x00, 0x00, 0x00, 0x05, 0x24, 0x00, 0x00, 0x00,
  0x28, 0x00, 0x00, 0x00, 0x04, 0x00, 0x00, 0x00, 0x1e, 0xff, 0xff, 0xff,
  0x02, 0x00, 0x00, 0x00, 0x02, 0x00, 0x00, 0x00, 0x02, 0x00, 0x00, 0x00,
  0x02, 0x00, 0x00, 0x00, 0x00, 0x00, 0x00, 0x01, 0x01, 0x00, 0x00, 0x00,
  0x26, 0x00, 0x00, 0x00, 0x01, 0x00, 0x00, 0x00, 0x25, 0x00, 0x00, 0x00,
  0xae, 0xfe, 0xff, 0xff, 0x14, 0x00, 0x00, 0x00, 0x00, 0x00, 0x00, 0x0b,
  0x10, 0x00, 0x00, 0x00, 0x14, 0x00, 0x00, 0x00, 0x03, 0x00, 0x00, 0x00,
  0x58, 0xd9, 0xff, 0xff, 0x01, 0x00, 0x00, 0x00, 0x25, 0x00, 0x00, 0x00,
  0x02, 0x00, 0x00, 0x00, 0x24, 0x00, 0x00, 0x00, 0x15, 0x00, 0x00, 0x00,
  0xde, 0xfe, 0xff, 0xff, 0x14, 0x00, 0x00, 0x00, 0x00, 0x00, 0x00, 0x15,
  0x10, 0x00, 0x00, 0x00, 0x14, 0x00, 0x00, 0x00, 0x02, 0x00, 0x00, 0x00,
  0x88, 0xd9, 0xff, 0xff, 0x01, 0x00, 0x00, 0x00, 0x24, 0x00, 0x00, 0x00,
  0x02, 0x00, 0x00, 0x00, 0x23, 0x00, 0x00, 0x00, 0x16, 0x00, 0x00, 0x00,
  0x0e, 0xff, 0xff, 0xff, 0x14, 0x00, 0x00, 0x00, 0x00, 0x00, 0x00, 0x01,
  0x1c, 0x00, 0x00, 0x00, 0x20, 0x00, 0x00, 0x00, 0x01, 0x00, 0x00, 0x00,
  0x00, 0xff, 0xff, 0xff, 0x00, 0x00, 0x00, 0x01, 0x01, 0x00, 0x00, 0x00,
  0x01, 0x00, 0x00, 0x00, 0x01, 0x00, 0x00, 0x00, 0x23, 0x00, 0x00, 0x00,
  0x03, 0x00, 0x00, 0x00, 0x22, 0x00, 0x00, 0x00, 0x18, 0x00, 0x00, 0x00,
  0x17, 0x00, 0x00, 0x00, 0x4e, 0xff, 0xff, 0xff, 0x24, 0x00, 0x00, 0x00,
  0x00, 0x00, 0x00, 0x05, 0x34, 0x00, 0x00, 0x00, 0x38, 0x00, 0x00, 0x00,
  0x04, 0x00, 0x00, 0x00, 0x00, 0x00, 0x0e, 0x00, 0x18, 0x00, 0x17, 0x00,
  0x10, 0x00, 0x0c, 0x00, 0x08, 0x00, 0x04, 0x00, 0x0e, 0x00, 0x00, 0x00,
  0x02, 0x00, 0x00, 0x00, 0x02, 0x00, 0x00, 0x00, 0x02, 0x00, 0x00, 0x00,
  0x02, 0x00, 0x00, 0x00, 0x00, 0x00, 0x00, 0x01, 0x01, 0x00, 0x00, 0x00,
  0x22, 0x00, 0x00, 0x00, 0x01, 0x00, 0x00, 0x00, 0x21, 0x00, 0x00, 0x00,
  0x9e, 0xff, 0xff, 0xff, 0x14, 0x00, 0x00, 0x00, 0x00, 0x00, 0x00, 0x0b,
  0x10, 0x00, 0x00, 0x00, 0x14, 0x00, 0x00, 0x00, 0x03, 0x00, 0x00, 0x00,
  0x48, 0xda, 0xff, 0xff, 0x01, 0x00, 0x00, 0x00, 0x21, 0x00, 0x00, 0x00,
  0x02, 0x00, 0x00, 0x00, 0x20, 0x00, 0x00, 0x00, 0x19, 0x00, 0x00, 0x00,
  0xce, 0xff, 0xff, 0xff, 0x14, 0x00, 0x00, 0x00, 0x00, 0x00, 0x00, 0x15,
  0x10, 0x00, 0x00, 0x00, 0x14, 0x00, 0x00, 0x00, 0x02, 0x00, 0x00, 0x00,
  0x78, 0xda, 0xff, 0xff, 0x01, 0x00, 0x00, 0x00, 0x20, 0x00, 0x00, 0x00,
  0x02, 0x00, 0x00, 0x00, 0x1f, 0x00, 0x00, 0x00, 0x1a, 0x00, 0x00, 0x00,
  0x00, 0x00, 0x0e, 0x00, 0x18, 0x00, 0x14, 0x00, 0x10, 0x00, 0x0c, 0x00,
  0x0b, 0x00, 0x04, 0x00, 0x0e, 0x00, 0x00, 0x00, 0x20, 0x00, 0x00, 0x00,
  0x00, 0x00, 0x00, 0x01, 0x28, 0x00, 0x00, 0x00, 0x2c, 0x00, 0x00, 0x00,
  0x01, 0x00, 0x00, 0x00, 0x0c, 0x00, 0x10, 0x00, 0x00, 0x00, 0x0c, 0x00,
  0x08, 0x00, 0x07, 0x00, 0x0c, 0x00, 0x00, 0x00, 0x00, 0x00, 0x00, 0x01,
  0x01, 0x00, 0x00, 0x00, 0x01, 0x00, 0x00, 0x00, 0x01, 0x00, 0x00, 0x00,
  0x1f, 0x00, 0x00, 0x00, 0x03, 0x00, 0x00, 0x00, 0x1e, 0x00, 0x00, 0x00,
  0x1c, 0x00, 0x00, 0x00, 0x1b, 0x00, 0x00, 0x00, 0xe2, 0xff, 0xff, 0xff,
  0x08, 0x00, 0x00, 0x00, 0x0c, 0x00, 0x00, 0x00, 0x01, 0x00, 0x00, 0x00,
  0x1e, 0x00, 0x00, 0x00, 0x01, 0x00, 0x00, 0x00, 0x01, 0x00, 0x00, 0x00,
  0x00, 0x00, 0x0a, 0x00, 0x0c, 0x00, 0x00, 0x00, 0x08, 0x00, 0x04, 0x00,
  0x0a, 0x00, 0x00, 0x00, 0x08, 0x00, 0x00, 0x00, 0x0c, 0x00, 0x00, 0x00,
  0x01, 0x00, 0x00, 0x00, 0x1d, 0x00, 0x00, 0x00, 0x01, 0x00, 0x00, 0x00,
  0x00, 0x00, 0x00, 0x00, 0x01, 0x00, 0x00, 0x00, 0x3a, 0x00, 0x00, 0x00,
  0x02, 0x00, 0x00, 0x00, 0x00, 0x00, 0x00, 0x00, 0x01, 0x00, 0x00, 0x00,
  0x3b, 0x00, 0x00, 0x00, 0x88, 0x25, 0x00, 0x00, 0xe0, 0x24, 0x00, 0x00,
  0x94, 0x24, 0x00, 0x00, 0x08, 0x24, 0x00, 0x00, 0x9c, 0x23, 0x00, 0x00,
  0x18, 0x23, 0x00, 0x00, 0x9c, 0x22, 0x00, 0x00, 0xd0, 0x21, 0x00, 0x00,
  0x04, 0x21, 0x00, 0x00, 0x80, 0x20, 0x00, 0x00, 0x04, 0x20, 0x00, 0x00,
  0x38, 0x1f, 0x00, 0x00, 0x6c, 0x1e, 0x00, 0x00, 0xe8, 0x1d, 0x00, 0x00,
  0x6c, 0x1d, 0x00, 0x00, 0xa0, 0x1c, 0x00, 0x00, 0xd4, 0x1b, 0x00, 0x00,
  0x50, 0x1b, 0x00, 0x00, 0xd4, 0x1a, 0x00, 0x00, 0x08, 0x1a, 0x00, 0x00,
  0x3c, 0x19, 0x00, 0x00, 0xb8, 0x18, 0x00, 0x00, 0x3c, 0x18, 0x00, 0x00,
  0x70, 0x17, 0x00, 0x00, 0xa4, 0x16, 0x00, 0x00, 0x20, 0x16, 0x00, 0x00,
  0xa4, 0x15, 0x00, 0x00, 0xd8, 0x14, 0x00, 0x00, 0x0c, 0x14, 0x00, 0x00,
  0x88, 0x13, 0x00, 0x00, 0x04, 0x13, 0x00, 0x00, 0x08, 0x12, 0x00, 0x00,
  0x64, 0x11, 0x00, 0x00, 0xc0, 0x10, 0x00, 0x00, 0x2c, 0x10, 0x00, 0x00,
  0x30, 0x0f, 0x00, 0x00, 0x8c, 0x0e, 0x00, 0x00, 0xe8, 0x0d, 0x00, 0x00,
  0x54, 0x0d, 0x00, 0x00, 0x58, 0x0c, 0x00, 0x00, 0xb4, 0x0b, 0x00, 0x00,
  0x10, 0x0b, 0x00, 0x00, 0x7c, 0x0a, 0x00, 0x00, 0x80, 0x09, 0x00, 0x00,
  0xdc, 0x08, 0x00, 0x00, 0x38, 0x08, 0x00, 0x00, 0xa4, 0x07, 0x00, 0x00,
  0xa8, 0x06, 0x00, 0x00, 0x04, 0x06, 0x00, 0x00, 0x60, 0x05, 0x00, 0x00,
  0xcc, 0x04, 0x00, 0x00, 0xe8, 0x03, 0x00, 0x00, 0x44, 0x03, 0x00, 0x00,
  0xa0, 0x02, 0x00, 0x00, 0x0c, 0x02, 0x00, 0x00, 0x78, 0x01, 0x00, 0x00,
  0xfc, 0x00, 0x00, 0x00, 0x80, 0x00, 0x00, 0x00, 0x04, 0x00, 0x00, 0x00,
  0x7a, 0xdb, 0xff, 0xff, 0x00, 0x00, 0x00, 0x01, 0x18, 0x00, 0x00, 0x00,
  0x20, 0x00, 0x00, 0x00, 0x3c, 0x00, 0x00, 0x00, 0x3b, 0x00, 0x00, 0x00,
  0x00, 0x00, 0x00, 0x03, 0x50, 0x00, 0x00, 0x00, 0x02, 0x00, 0x00, 0x00,
  0xff, 0xff, 0xff, 0xff, 0x07, 0x00, 0x00, 0x00, 0x5c, 0xdb, 0xff, 0xff,
  0x08, 0x00, 0x00, 0x00, 0x10, 0x00, 0x00, 0x00, 0x01, 0x00, 0x00, 0x00,
  0xa9, 0x00, 0x00, 0x00, 0x00, 0x00, 0x00, 0x00, 0x01, 0x00, 0x00, 0x00,
  0x22, 0x31, 0x0f, 0x3f, 0x19, 0x00, 0x00, 0x00, 0x53, 0x74, 0x61, 0x74,
  0x65, 0x66, 0x75, 0x6c, 0x50, 0x61, 0x72, 0x74, 0x69, 0x74, 0x69, 0x6f,
  0x6e, 0x65, 0x64, 0x43, 0x61, 0x6c, 0x6c, 0x3a, 0x30, 0x00, 0x00, 0x00,
  0x02, 0x00, 0x00, 0x00, 0x01, 0x00, 0x00, 0x00, 0x07, 0x00, 0x00, 0x00,
  0xf2, 0xdb, 0xff, 0xff, 0x00, 0x00, 0x00, 0x01, 0x18, 0x00, 0x00, 0x00,
  0x20, 0x00, 0x00, 0x00, 0x3c, 0x00, 0x00, 0x00, 0x3a, 0x00, 0x00, 0x00,
  0x00, 0x00, 0x00, 0x09, 0x50, 0x00, 0x00, 0x00, 0x02, 0x00, 0x00, 0x00,
  0xff, 0xff, 0xff, 0xff, 0x07, 0x00, 0x00, 0x00, 0xd4, 0xdb, 0xff, 0xff,
  0x08, 0x00, 0x00, 0x00, 0x10, 0x00, 0x00, 0x00, 0x01, 0x00, 0x00, 0x00,
  0x29, 0x00, 0x00, 0x00, 0x00, 0x00, 0x00, 0x00, 0x01, 0x00, 0x00, 0x00,
  0x22, 0x31, 0x0f, 0x3f, 0x1a, 0x00, 0x00, 0x00, 0x53, 0x74, 0x61, 0x74,
  0x65, 0x66, 0x75, 0x6c, 0x50, 0x61, 0x72, 0x74, 0x69, 0x74, 0x69, 0x6f,
  0x6e, 0x65, 0x64, 0x43, 0x61, 0x6c, 0x6c, 0x3a, 0x30, 0x31, 0x00, 0x00,
  0x02, 0x00, 0x00, 0x00, 0x01, 0x00, 0x00, 0x00, 0x07, 0x00, 0x00, 0x00,
  0x6a, 0xdc, 0xff, 0xff, 0x00, 0x00, 0x00, 0x01, 0x18, 0x00, 0x00, 0x00,
  0x20, 0x00, 0x00, 0x00, 0x3c, 0x00, 0x00, 0x00, 0x39, 0x00, 0x00, 0x00,
  0x00, 0x00, 0x00, 0x09, 0x50, 0x00, 0x00, 0x00, 0x02, 0x00, 0x00, 0x00,
  0xff, 0xff, 0xff, 0xff, 0x80, 0x00, 0x00, 0x00, 0x4c, 0xdc, 0xff, 0xff,
  0x08, 0x00, 0x00, 0x00, 0x10, 0x00, 0x00, 0x00, 0x01, 0x00, 0x00, 0x00,
  0x89, 0xff, 0xff, 0xff, 0xff, 0xff, 0xff, 0xff, 0x01, 0x00, 0x00, 0x00,
  0x5a, 0xd7, 0xce, 0x3d, 0x19, 0x00, 0x00, 0x00, 0x6d, 0x6f, 0x64, 0x65,
  0x6c, 0x5f, 0x33, 0x2f, 0x66, 0x6c, 0x61, 0x74, 0x74, 0x65, 0x6e, 0x5f,
  0x33, 0x2f, 0x52, 0x65, 0x73, 0x68, 0x61, 0x70, 0x65, 0x00, 0x00, 0x00,
  0x02, 0x00, 0x00, 0x00, 0x01, 0x00, 0x00, 0x00, 0x80, 0x00, 0x00, 0x00,
  0xe2, 0xdc, 0xff, 0xff, 0x00, 0x00, 0x00, 0x01, 0x18, 0x00, 0x00, 0x00,
  0x28, 0x00, 0x00, 0x00, 0x48, 0x00, 0x00, 0x00, 0x38, 0x00, 0x00, 0x00,
  0x00, 0x00, 0x00, 0x09, 0x60, 0x00, 0x00, 0x00, 0x04, 0x00, 0x00, 0x00,
  0xff, 0xff, 0xff, 0xff, 0x08, 0x00, 0x00, 0x00, 0x01, 0x00, 0x00, 0x00,
  0x10, 0x00, 0x00, 0x00, 0xcc, 0xdc, 0xff, 0xff, 0x08, 0x00, 0x00, 0x00,
  0x14, 0x00, 0x00, 0x00, 0x01, 0x00, 0x00, 0x00, 0x89, 0xff, 0xff, 0xff,
  0xff, 0xff, 0xff, 0xff, 0x00, 0x00, 0x00, 0x00, 0x01, 0x00, 0x00, 0x00,
  0x5a, 0xd7, 0xce, 0x3d, 0x1c, 0x00, 0x00, 0x00, 0x6d, 0x6f, 0x64, 0x65,
  0x6c, 0x5f, 0x33, 0x2f, 0x63, 0x6f, 0x6e, 0x63, 0x61, 0x74, 0x65, 0x6e,
  0x61, 0x74, 0x65, 0x5f, 0x33, 0x2f, 0x63, 0x6f, 0x6e, 0x63, 0x61, 0x74,
  0x00, 0x00, 0x00, 0x00, 0x04, 0x00, 0x00, 0x00, 0x01, 0x00, 0x00, 0x00,
  0x08, 0x00, 0x00, 0x00, 0x01, 0x00, 0x00, 0x00, 0x10, 0x00, 0x00, 0x00,
  0x72, 0xdd, 0xff, 0xff, 0x00, 0x00, 0x00, 0x01, 0x18, 0x00, 0x00, 0x00,
  0x28, 0x00, 0x00, 0x00, 0x44, 0x00, 0x00, 0x00, 0x37, 0x00, 0x00, 0x00,
  0x00, 0x00, 0x00, 0x09, 0x60, 0x00, 0x00, 0x00, 0x04, 0x00, 0x00, 0x00,
  0xff, 0xff, 0xff, 0xff, 0x08, 0x00, 0x00, 0x00, 0x01, 0x00, 0x00, 0x00,
  0x08, 0x00, 0x00, 0x00, 0x5c, 0xdd, 0xff, 0xff, 0x08, 0x00, 0x00, 0x00,
  0x10, 0x00, 0x00, 0x00, 0x01, 0x00, 0x00, 0x00, 0x89, 0xff, 0xff, 0xff,
  0xff, 0xff, 0xff, 0xff, 0x01, 0x00, 0x00, 0x00, 0x5a, 0xd7, 0xce, 0x3d,
  0x20, 0x00, 0x00, 0x00, 0x6d, 0x6f, 0x64, 0x65, 0x6c, 0x5f, 0x33, 0x2f,
  0x6d, 0x61, 0x78, 0x5f, 0x70, 0x6f, 0x6f, 0x6c, 0x69, 0x6e, 0x67, 0x32,
  0x64, 0x5f, 0x32, 0x33, 0x2f, 0x4d, 0x61, 0x78, 0x50, 0x6f, 0x6f, 0x6c,
  0x00, 0x00, 0x00, 0x00, 0x04, 0x00, 0x00, 0x00, 0x01, 0x00, 0x00, 0x00,
  0x08, 0x00, 0x00, 0x00, 0x01, 0x00, 0x00, 0x00, 0x08, 0x00, 0x00, 0x00,
  0x02, 0xde, 0xff, 0xff, 0x00, 0x00, 0x00, 0x01, 0x18, 0x00, 0x00, 0x00,
  0x28, 0x00, 0x00, 0x00, 0x44, 0x00, 0x00, 0x00, 0x36, 0x00, 0x00, 0x00,
  0x00, 0x00, 0x00, 0x09, 0x70, 0x00, 0x00, 0x00, 0x04, 0x00, 0x00, 0x00,
  0xff, 0xff, 0xff, 0xff, 0x10, 0x00, 0x00, 0x00, 0x03, 0x00, 0x00, 0x00,
  0x08, 0x00, 0x00, 0x00, 0xec, 0xdd, 0xff, 0xff, 0x08, 0x00, 0x00, 0x00,
  0x10, 0x00, 0x00, 0x00, 0x01, 0x00, 0x00, 0x00, 0x89, 0xff, 0xff, 0xff,
  0xff, 0xff, 0xff, 0xff, 0x01, 0x00, 0x00, 0x00, 0x5a, 0xd7, 0xce, 0x3d,
  0x30, 0x00, 0x00, 0x00, 0x6d, 0x6f, 0x64, 0x65, 0x6c, 0x5f, 0x33, 0x2f,
  0x62, 0x61, 0x74, 0x63, 0x68, 0x5f, 0x6e, 0x6f, 0x72, 0x6d, 0x61, 0x6c,
  0x69, 0x7a, 0x61, 0x74, 0x69, 0x6f, 0x6e, 0x5f, 0x32, 0x33, 0x2f, 0x46,
  0x75, 0x73, 0x65, 0x64, 0x42, 0x61, 0x74, 0x63, 0x68, 0x4e, 0x6f, 0x72,
  0x6d, 0x56, 0x33, 0x33, 0x00, 0x00, 0x00, 0x00, 0x04, 0x00, 0x00, 0x00,
  0x01, 0x00, 0x00, 0x00, 0x10, 0x00, 0x00, 0x00, 0x03, 0x00, 0x00, 0x00,
  0x08, 0x00, 0x00, 0x00, 0xa2, 0xde, 0xff, 0xff, 0x00, 0x00, 0x00, 0x01,
  0x18, 0x00, 0x00, 0x00, 0x28, 0x00, 0x00, 0x00, 0x44, 0x00, 0x00, 0x00,
  0x35, 0x00, 0x00, 0x00, 0x00, 0x00, 0x00, 0x09, 0x70, 0x00, 0x00, 0x00,
  0x04, 0x00, 0x00, 0x00, 0xff, 0xff, 0xff, 0xff, 0x10, 0x00, 0x00, 0x00,
  0x03, 0x00, 0x00, 0x00, 0x08, 0x00, 0x00, 0x00, 0x8c, 0xde, 0xff, 0xff,
  0x08, 0x00, 0x00, 0x00, 0x10, 0x00, 0x00, 0x00, 0x01, 0x00, 0x00, 0x00,
  0x89, 0xff, 0xff, 0xff, 0xff, 0xff, 0xff, 0xff, 0x01, 0x00, 0x00, 0x00,
  0xae, 0xc7, 0xd3, 0x3d, 0x30, 0x00, 0x00, 0x00, 0x6d, 0x6f, 0x64, 0x65,
  0x6c, 0x5f, 0x33, 0x2f, 0x62, 0x61, 0x74, 0x63, 0x68, 0x5f, 0x6e, 0x6f,
  0x72, 0x6d, 0x61, 0x6c, 0x69, 0x7a, 0x61, 0x74, 0x69, 0x6f, 0x6e, 0x5f,
  0x32, 0x33, 0x2f, 0x46, 0x75, 0x73, 0x65, 0x64, 0x42, 0x61, 0x74, 0x63,
  0x68, 0x4e, 0x6f, 0x72, 0x6d, 0x56, 0x33, 0x32, 0x00, 0x00, 0x00, 0x00,
  0x04, 0x00, 0x00, 0x00, 0x01, 0x00, 0x00, 0x00, 0x10, 0x00, 0x00, 0x00,
  0x03, 0x00, 0x00, 0x00, 0x08, 0x00, 0x00, 0x00, 0x42, 0xdf, 0xff, 0xff,
  0x00, 0x00, 0x00, 0x01, 0x18, 0x00, 0x00, 0x00, 0x28, 0x00, 0x00, 0x00,
  0x44, 0x00, 0x00, 0x00, 0x34, 0x00, 0x00, 0x00, 0x00, 0x00, 0x00, 0x09,
  0xb0, 0x00, 0x00, 0x00, 0x04, 0x00, 0x00, 0x00, 0xff, 0xff, 0xff, 0xff,
  0x10, 0x00, 0x00, 0x00, 0x03, 0x00, 0x00, 0x00, 0x08, 0x00, 0x00, 0x00,
  0x2c, 0xdf, 0xff, 0xff, 0x08, 0x00, 0x00, 0x00, 0x10, 0x00, 0x00, 0x00,
  0x01, 0x00, 0x00, 0x00, 0x80, 0xff, 0xff, 0xff, 0xff, 0xff, 0xff, 0xff,
  0x01, 0x00, 0x00, 0x00, 0xe7, 0x7f, 0xcc, 0x3d, 0x72, 0x00, 0x00, 0x00,
  0x6d, 0x6f, 0x64, 0x65, 0x6c, 0x5f, 0x33, 0x2f, 0x63, 0x6f, 0x6e, 0x76,
  0x32, 0x64, 0x5f, 0x32, 0x33, 0x2f, 0x52, 0x65, 0x6c, 0x75, 0x3b, 0x6d,
  0x6f, 0x64, 0x65, 0x6c, 0x5f, 0x33, 0x2f, 0x63, 0x6f, 0x6e, 0x76, 0x32,
  0x64, 0x5f, 0x32, 0x33, 0x2f, 0x42, 0x69, 0x61, 0x73, 0x41, 0x64, 0x64,
  0x3b, 0x6d, 0x6f, 0x64, 0x65, 0x6c, 0x5f, 0x33, 0x2f, 0x63, 0x6f, 0x6e,
  0x76, 0x32, 0x64, 0x5f, 0x32, 0x33, 0x2f, 0x43, 0x6f, 0x6e, 0x76, 0x32,
  0x44, 0x3b, 0x6d, 0x6f, 0x64, 0x65, 0x6c, 0x5f, 0x33, 0x2f, 0x63, 0x6f,
  0x6e, 0x76, 0x32, 0x64, 0x5f, 0x32, 0x33, 0x2f, 0x42, 0x69, 0x61, 0x73,
  0x41, 0x64, 0x64, 0x2f, 0x52, 0x65, 0x61, 0x64, 0x56, 0x61, 0x72, 0x69,
  0x61, 0x62, 0x6c, 0x65, 0x4f, 0x70, 0x00, 0x00, 0x04, 0x00, 0x00, 0x00,
  0x01, 0x00, 0x00, 0x00, 0x10, 0x00, 0x00, 0x00, 0x03, 0x00, 0x00, 0x00,
  0x08, 0x00, 0x00, 0x00, 0x22, 0xe0, 0xff, 0xff, 0x00, 0x00, 0x00, 0x01,
  0x18, 0x00, 0x00, 0x00, 0x28, 0x00, 0x00, 0x00, 0x44, 0x00, 0x00, 0x00,
  0x33, 0x00, 0x00, 0x00, 0x00, 0x00, 0x00, 0x09, 0x60, 0x00, 0x00, 0x00,
  0x04, 0x00, 0x00, 0x00, 0xff, 0xff, 0xff, 0xff, 0x10, 0x00, 0x00, 0x00,
  0x03, 0x00, 0x00, 0x00, 0x08, 0x00, 0x00, 0x00, 0x0c, 0xe0, 0xff, 0xff,
  0x08, 0x00, 0x00, 0x00, 0x10, 0x00, 0x00, 0x00, 0x01, 0x00, 0x00, 0x00,
  0x8f, 0xff, 0xff, 0xff, 0xff, 0xff, 0xff, 0xff, 0x01, 0x00, 0x00, 0x00,
  0xa4, 0xe1, 0x4d, 0x3d, 0x20, 0x00, 0x00, 0x00, 0x6d, 0x6f, 0x64, 0x65,
  0x6c, 0x5f, 0x33, 0x2f, 0x6d, 0x61, 0x78, 0x5f, 0x70, 0x6f, 0x6f, 0x6c,
  0x69, 0x6e, 0x67, 0x32, 0x64, 0x5f, 0x32, 0x32, 0x2f, 0x4d, 0x61, 0x78,
  0x50, 0x6f, 0x6f, 0x6c, 0x00, 0x00, 0x00, 0x00, 0x04, 0x00, 0x00, 0x00,
  0x01, 0x00, 0x00, 0x00, 0x10, 0x00, 0x00, 0x00, 0x03, 0x00, 0x00, 0x00,
  0x08, 0x00, 0x00, 0x00, 0xb2, 0xe0, 0xff, 0xff, 0x00, 0x00, 0x00, 0x01,
  0x18, 0x00, 0x00, 0x00, 0x28, 0x00, 0x00, 0x00, 0x44, 0x00, 0x00, 0x00,
  0x32, 0x00, 0x00, 0x00, 0x00, 0x00, 0x00, 0x09, 0x70, 0x00, 0x00, 0x00,
  0x04, 0x00, 0x00, 0x00, 0xff, 0xff, 0xff, 0xff, 0x20, 0x00, 0x00, 0x00,
  0x06, 0x00, 0x00, 0x00, 0x08, 0x00, 0x00, 0x00, 0x9c, 0xe0, 0xff, 0xff,
  0x08, 0x00, 0x00, 0x00, 0x10, 0x00, 0x00, 0x00, 0x01, 0x00, 0x00, 0x00,
  0x8f, 0xff, 0xff, 0xff, 0xff, 0xff, 0xff, 0xff, 0x01, 0x00, 0x00, 0x00,
  0xa4, 0xe1, 0x4d, 0x3d, 0x30, 0x00, 0x00, 0x00, 0x6d, 0x6f, 0x64, 0x65,
  0x6c, 0x5f, 0x33, 0x2f, 0x62, 0x61, 0x74, 0x63, 0x68, 0x5f, 0x6e, 0x6f,
  0x72, 0x6d, 0x61, 0x6c, 0x69, 0x7a, 0x61, 0x74, 0x69, 0x6f, 0x6e, 0x5f,
  0x32, 0x32, 0x2f, 0x46, 0x75, 0x73, 0x65, 0x64, 0x42, 0x61, 0x74, 0x63,
  0x68, 0x4e, 0x6f, 0x72, 0x6d, 0x56, 0x33, 0x33, 0x00, 0x00, 0x00, 0x00,
  0x04, 0x00, 0x00, 0x00, 0x01, 0x00, 0x00, 0x00, 0x20, 0x00, 0x00, 0x00,
  0x06, 0x00, 0x00, 0x00, 0x08, 0x00, 0x00, 0x00, 0x52, 0xe1, 0xff, 0xff,
  0x00, 0x00, 0x00, 0x01, 0x18, 0x00, 0x00, 0x00, 0x28, 0x00, 0x00, 0x00,
  0x44, 0x00, 0x00, 0x00, 0x31, 0x00, 0x00, 0x00, 0x00, 0x00, 0x00, 0x09,
  0x70, 0x00, 0x00, 0x00, 0x04, 0x00, 0x00, 0x00, 0xff, 0xff, 0xff, 0xff,
  0x20, 0x00, 0x00, 0x00, 0x06, 0x00, 0x00, 0x00, 0x08, 0x00, 0x00, 0x00,
  0x3c, 0xe1, 0xff, 0xff, 0x08, 0x00, 0x00, 0x00, 0x10, 0x00, 0x00, 0x00,
  0x01, 0x00, 0x00, 0x00, 0x8f, 0xff, 0xff, 0xff, 0xff, 0xff, 0xff, 0xff,
  0x01, 0x00, 0x00, 0x00, 0x44, 0xa4, 0x55, 0x3d, 0x30, 0x00, 0x00, 0x00,
  0x6d, 0x6f, 0x64, 0x65, 0x6c, 0x5f, 0x33, 0x2f, 0x62, 0x61, 0x74, 0x63,
  0x68, 0x5f, 0x6e, 0x6f, 0x72, 0x6d, 0x61, 0x6c, 0x69, 0x7a, 0x61, 0x74,
  0x69, 0x6f, 0x6e, 0x5f, 0x32, 0x32, 0x2f, 0x46, 0x75, 0x73, 0x65, 0x64,
  0x42, 0x61, 0x74, 0x63, 0x68, 0x4e, 0x6f, 0x72, 0x6d, 0x56, 0x33, 0x32,
  0x00, 0x00, 0x00, 0x00, 0x04, 0x00, 0x00, 0x00, 0x01, 0x00, 0x00, 0x00,
  0x20, 0x00, 0x00, 0x00, 0x06, 0x00, 0x00, 0x00, 0x08, 0x00, 0x00, 0x00,
  0xf2, 0xe1, 0xff, 0xff, 0x00, 0x00, 0x00, 0x01, 0x18, 0x00, 0x00, 0x00,
  0x28, 0x00, 0x00, 0x00, 0x44, 0x00, 0x00, 0x00, 0x30, 0x00, 0x00, 0x00,
  0x00, 0x00, 0x00, 0x09, 0xc8, 0x00, 0x00, 0x00, 0x04, 0x00, 0x00, 0x00,
  0xff, 0xff, 0xff, 0xff, 0x20, 0x00, 0x00, 0x00, 0x06, 0x00, 0x00, 0x00,
  0x08, 0x00, 0x00, 0x00, 0xdc, 0xe1, 0xff, 0xff, 0x08, 0x00, 0x00, 0x00,
  0x10, 0x00, 0x00, 0x00, 0x01, 0x00, 0x00, 0x00, 0x80, 0xff, 0xff, 0xff,
  0xff, 0xff, 0xff, 0xff, 0x01, 0x00, 0x00, 0x00, 0x55, 0xd5, 0x92, 0x3d,
  0x8b, 0x00, 0x00, 0x00, 0x6d, 0x6f, 0x64, 0x65, 0x6c, 0x5f, 0x33, 0x2f,
  0x63, 0x6f, 0x6e, 0x76, 0x32, 0x64, 0x5f, 0x32, 0x32, 0x2f, 0x52, 0x65,
  0x6c, 0x75, 0x3b, 0x6d, 0x6f, 0x64, 0x65, 0x6c, 0x5f, 0x33, 0x2f, 0x63,
  0x6f, 0x6e, 0x76, 0x32, 0x64, 0x5f, 0x32, 0x32, 0x2f, 0x42, 0x69, 0x61,
  0x73, 0x41, 0x64, 0x64, 0x3b, 0x6d, 0x6f, 0x64, 0x65, 0x6c, 0x5f, 0x33,
  0x2f, 0x63, 0x6f, 0x6e, 0x76, 0x32, 0x64, 0x5f, 0x32, 0x33, 0x2f, 0x43,
  0x6f, 0x6e, 0x76, 0x32, 0x44, 0x3b, 0x6d, 0x6f, 0x64, 0x65, 0x6c, 0x5f,
  0x33, 0x2f, 0x63, 0x6f, 0x6e, 0x76, 0x32, 0x64, 0x5f, 0x32, 0x32, 0x2f,
  0x43, 0x6f, 0x6e, 0x76, 0x32, 0x44, 0x3b, 0x6d, 0x6f, 0x64, 0x65, 0x6c,
  0x5f, 0x33, 0x2f, 0x63, 0x6f, 0x6e, 0x76, 0x32, 0x64, 0x5f, 0x32, 0x32,
  0x2f, 0x42, 0x69, 0x61, 0x73, 0x41, 0x64, 0x64, 0x2f, 0x52, 0x65, 0x61,
  0x64, 0x56, 0x61, 0x72, 0x69, 0x61, 0x62, 0x6c, 0x65, 0x4f, 0x70, 0x00,
  0x04, 0x00, 0x00, 0x00, 0x01, 0x00, 0x00, 0x00, 0x20, 0x00, 0x00, 0x00,
  0x06, 0x00, 0x00, 0x00, 0x08, 0x00, 0x00, 0x00, 0xea, 0xe2, 0xff, 0xff,
  0x00, 0x00, 0x00, 0x01, 0x18, 0x00, 0x00, 0x00, 0x28, 0x00, 0x00, 0x00,
  0x44, 0x00, 0x00, 0x00, 0x2f, 0x00, 0x00, 0x00, 0x00, 0x00, 0x00, 0x09,
  0x60, 0x00, 0x00, 0x00, 0x04, 0x00, 0x00, 0x00, 0xff, 0xff, 0xff, 0xff,
  0x20, 0x00, 0x00, 0x00, 0x06, 0x00, 0x00, 0x00, 0x08, 0x00, 0x00, 0x00,
  0xd4, 0xe2, 0xff, 0xff, 0x08, 0x00, 0x00, 0x00, 0x10, 0x00, 0x00, 0x00,
  0x01, 0x00, 0x00, 0x00, 0x86, 0xff, 0xff, 0xff, 0xff, 0xff, 0xff, 0xff,
  0x01, 0x00, 0x00, 0x00, 0x1f, 0x26, 0xbe, 0x3d, 0x20, 0x00, 0x00, 0x00,
  0x6d, 0x6f, 0x64, 0x65, 0x6c, 0x5f, 0x33, 0x2f, 0x6d, 0x61, 0x78, 0x5f,
  0x70, 0x6f, 0x6f, 0x6c, 0x69, 0x6e, 0x67, 0x32, 0x64, 0x5f, 0x32, 0x31,
  0x2f, 0x4d, 0x61, 0x78, 0x50, 0x6f, 0x6f, 0x6c, 0x00, 0x00, 0x00, 0x00,
  0x04, 0x00, 0x00, 0x00, 0x01, 0x00, 0x00, 0x00, 0x20, 0x00, 0x00, 0x00,
  0x06, 0x00, 0x00, 0x00, 0x08, 0x00, 0x00, 0x00, 0x7a, 0xe3, 0xff, 0xff,
  0x00, 0x00, 0x00, 0x01, 0x18, 0x00, 0x00, 0x00, 0x28, 0x00, 0x00, 0x00,
  0x44, 0x00, 0x00, 0x00, 0x2e, 0x00, 0x00, 0x00, 0x00, 0x00, 0x00, 0x09,
  0x70, 0x00, 0x00, 0x00, 0x04, 0x00, 0x00, 0x00, 0xff, 0xff, 0xff, 0xff,
  0x40, 0x00, 0x00, 0x00, 0x0d, 0x00, 0x00, 0x00, 0x08, 0x00, 0x00, 0x00,
  0x64, 0xe3, 0xff, 0xff, 0x08, 0x00, 0x00, 0x00, 0x10, 0x00, 0x00, 0x00,
  0x01, 0x00, 0x00, 0x00, 0x86, 0xff, 0xff, 0xff, 0xff, 0xff, 0xff, 0xff,
  0x01, 0x00, 0x00, 0x00, 0x1f, 0x26, 0xbe, 0x3d, 0x30, 0x00, 0x00, 0x00,
  0x6d, 0x6f, 0x64, 0x65, 0x6c, 0x5f, 0x33, 0x2f, 0x62, 0x61, 0x74, 0x63,
  0x68, 0x5f, 0x6e, 0x6f, 0x72, 0x6d, 0x61, 0x6c, 0x69, 0x7a, 0x61, 0x74,
  0x69, 0x6f, 0x6e, 0x5f, 0x32, 0x31, 0x2f, 0x46, 0x75, 0x73, 0x65, 0x64,
  0x42, 0x61, 0x74, 0x63, 0x68, 0x4e, 0x6f, 0x72, 0x6d, 0x56, 0x33, 0x33,
  0x00, 0x00, 0x00, 0x00, 0x04, 0x00, 0x00, 0x00, 0x01, 0x00, 0x00, 0x00,
  0x40, 0x00, 0x00, 0x00, 0x0d, 0x00, 0x00, 0x00, 0x08, 0x00, 0x00, 0x00,
  0x1a, 0xe4, 0xff, 0xff, 0x00, 0x00, 0x00, 0x01, 0x18, 0x00, 0x00, 0x00,
  0x28, 0x00, 0x00, 0x00, 0x44, 0x00, 0x00, 0x00, 0x2d, 0x00, 0x00, 0x00,
  0x00, 0x00, 0x00, 0x09, 0x70, 0x00, 0x00, 0x00, 0x04, 0x00, 0x00, 0x00,
  0xff, 0xff, 0xff, 0xff, 0x40, 0x00, 0x00, 0x00, 0x0d, 0x00, 0x00, 0x00,
  0x08, 0x00, 0x00, 0x00, 0x04, 0xe4, 0xff, 0xff, 0x08, 0x00, 0x00, 0x00,
  0x10, 0x00, 0x00, 0x00, 0x01, 0x00, 0x00, 0x00, 0x86, 0xff, 0xff, 0xff,
  0xff, 0xff, 0xff, 0xff, 0x01, 0x00, 0x00, 0x00, 0xbd, 0x02, 0xc1, 0x3d,
  0x30, 0x00, 0x00, 0x00, 0x6d, 0x6f, 0x64, 0x65, 0x6c, 0x5f, 0x33, 0x2f,
  0x62, 0x61, 0x74, 0x63, 0x68, 0x5f, 0x6e, 0x6f, 0x72, 0x6d, 0x61, 0x6c,
  0x69, 0x7a, 0x61, 0x74, 0x69, 0x6f, 0x6e, 0x5f, 0x32, 0x31, 0x2f, 0x46,
  0x75, 0x73, 0x65, 0x64, 0x42, 0x61, 0x74, 0x63, 0x68, 0x4e, 0x6f, 0x72,
  0x6d, 0x56, 0x33, 0x32, 0x00, 0x00, 0x00, 0x00, 0x04, 0x00, 0x00, 0x00,
  0x01, 0x00, 0x00, 0x00, 0x40, 0x00, 0x00, 0x00, 0x0d, 0x00, 0x00, 0x00,
  0x08, 0x00, 0x00, 0x00, 0xba, 0xe4, 0xff, 0xff, 0x00, 0x00, 0x00, 0x01,
  0x18, 0x00, 0x00, 0x00, 0x28, 0x00, 0x00, 0x00, 0x44, 0x00, 0x00, 0x00,
  0x2c, 0x00, 0x00, 0x00, 0x00, 0x00, 0x00, 0x09, 0xc8, 0x00, 0x00, 0x00,
  0x04, 0x00, 0x00, 0x00, 0xff, 0xff, 0xff, 0xff, 0x40, 0x00, 0x00, 0x00,
  0x0d, 0x00, 0x00, 0x00, 0x08, 0x00, 0x00, 0x00, 0xa4, 0xe4, 0xff, 0xff,
  0x08, 0x00, 0x00, 0x00, 0x10, 0x00, 0x00, 0x00, 0x01, 0x00, 0x00, 0x00,
  0x80, 0xff, 0xff, 0xff, 0xff, 0xff, 0xff, 0xff, 0x01, 0x00, 0x00, 0x00,
  0xca, 0xe0, 0x65, 0x3f, 0x8b, 0x00, 0x00, 0x00, 0x6d, 0x6f, 0x64, 0x65,
  0x6c, 0x5f, 0x33, 0x2f, 0x63, 0x6f, 0x6e, 0x76, 0x32, 0x64, 0x5f, 0x32,
  0x31, 0x2f, 0x52, 0x65, 0x6c, 0x75, 0x3b, 0x6d, 0x6f, 0x64, 0x65, 0x6c,
  0x5f, 0x33, 0x2f, 0x63, 0x6f, 0x6e, 0x76, 0x32, 0x64, 0x5f, 0x32, 0x31,
  0x2f, 0x42, 0x69, 0x61, 0x73, 0x41, 0x64, 0x64, 0x3b, 0x6d, 0x6f, 0x64,
  0x65, 0x6c, 0x5f, 0x33, 0x2f, 0x63, 0x6f, 0x6e, 0x76, 0x32, 0x64, 0x5f,
  0x32, 0x33, 0x2f, 0x43, 0x6f, 0x6e, 0x76, 0x32, 0x44, 0x3b, 0x6d, 0x6f,
  0x64, 0x65, 0x6c, 0x5f, 0x33, 0x2f, 0x63, 0x6f, 0x6e, 0x76, 0x32, 0x64,
  0x5f, 0x32, 0x31, 0x2f, 0x43, 0x6f, 0x6e, 0x76, 0x32, 0x44, 0x3b, 0x6d,
  0x6f, 0x64, 0x65, 0x6c, 0x5f, 0x33, 0x2f, 0x63, 0x6f, 0x6e, 0x76, 0x32,
  0x64, 0x5f, 0x32, 0x31, 0x2f, 0x42, 0x69, 0x61, 0x73, 0x41, 0x64, 0x64,
  0x2f, 0x52, 0x65, 0x61, 0x64, 0x56, 0x61, 0x72, 0x69, 0x61, 0x62, 0x6c,
  0x65, 0x4f, 0x70, 0x00, 0x04, 0x00, 0x00, 0x00, 0x01, 0x00, 0x00, 0x00,
  0x40, 0x00, 0x00, 0x00, 0x0d, 0x00, 0x00, 0x00, 0x08, 0x00, 0x00, 0x00,
  0xb2, 0xe5, 0xff, 0xff, 0x00, 0x00, 0x00, 0x01, 0x18, 0x00, 0x00, 0x00,
  0x28, 0x00, 0x00, 0x00, 0x44, 0x00, 0x00, 0x00, 0x2b, 0x00, 0x00, 0x00,
  0x00, 0x00, 0x00, 0x09, 0x60, 0x00, 0x00, 0x00, 0x04, 0x00, 0x00, 0x00,
  0xff, 0xff, 0xff, 0xff, 0x08, 0x00, 0x00, 0x00, 0x01, 0x00, 0x00, 0x00,
  0x08, 0x00, 0x00, 0x00, 0x9c, 0xe5, 0xff, 0xff, 0x08, 0x00, 0x00, 0x00,
  0x10, 0x00, 0x00, 0x00, 0x01, 0x00, 0x00, 0x00, 0x89, 0xff, 0xff, 0xff,
  0xff, 0xff, 0xff, 0xff, 0x01, 0x00, 0x00, 0x00, 0x5a, 0xd7, 0xce, 0x3d,
  0x20, 0x00, 0x00, 0x00, 0x6d, 0x6f, 0x64, 0x65, 0x6c, 0x5f, 0x33, 0x2f,
  0x6d, 0x61, 0x78, 0x5f, 0x70, 0x6f, 0x6f, 0x6c, 0x69, 0x6e, 0x67, 0x32,
  0x64, 0x5f, 0x32, 0x30, 0x2f, 0x4d, 0x61, 0x78, 0x50, 0x6f, 0x6f, 0x6c,
  0x00, 0x00, 0x00, 0x00, 0x04, 0x00, 0x00, 0x00, 0x01, 0x00, 0x00, 0x00,
  0x08, 0x00, 0x00, 0x00, 0x01, 0x00, 0x00, 0x00, 0x08, 0x00, 0x00, 0x00,
  0x42, 0xe6, 0xff, 0xff, 0x00, 0x00, 0x00, 0x01, 0x18, 0x00, 0x00, 0x00,
  0x28, 0x00, 0x00, 0x00, 0x44, 0x00, 0x00, 0x00, 0x2a, 0x00, 0x00, 0x00,
  0x00, 0x00, 0x00, 0x09, 0x70, 0x00, 0x00, 0x00, 0x04, 0x00, 0x00, 0x00,
  0xff, 0xff, 0xff, 0xff, 0x10, 0x00, 0x00, 0x00, 0x03, 0x00, 0x00, 0x00,
  0x08, 0x00, 0x00, 0x00, 0x2c, 0xe6, 0xff, 0xff, 0x08, 0x00, 0x00, 0x00,
  0x10, 0x00, 0x00, 0x00, 0x01, 0x00, 0x00, 0x00, 0x89, 0xff, 0xff, 0xff,
  0xff, 0xff, 0xff, 0xff, 0x01, 0x00, 0x00, 0x00, 0x5a, 0xd7, 0xce, 0x3d,
  0x30, 0x00, 0x00, 0x00, 0x6d, 0x6f, 0x64, 0x65, 0x6c, 0x5f, 0x33, 0x2f,
  0x62, 0x61, 0x74, 0x63, 0x68, 0x5f, 0x6e, 0x6f, 0x72, 0x6d, 0x61, 0x6c,
  0x69, 0x7a, 0x61, 0x74, 0x69, 0x6f, 0x6e, 0x5f, 0x32, 0x30, 0x2f, 0x46,
  0x75, 0x73, 0x65, 0x64, 0x42, 0x61, 0x74, 0x63, 0x68, 0x4e, 0x6f, 0x72,
  0x6d, 0x56, 0x33, 0x33, 0x00, 0x00, 0x00, 0x00, 0x04, 0x00, 0x00, 0x00,
  0x01, 0x00, 0x00, 0x00, 0x10, 0x00, 0x00, 0x00, 0x03, 0x00, 0x00, 0x00,
  0x08, 0x00, 0x00, 0x00, 0xe2, 0xe6, 0xff, 0xff, 0x00, 0x00, 0x00, 0x01,
  0x18, 0x00, 0x00, 0x00, 0x28, 0x00, 0x00, 0x00, 0x44, 0x00, 0x00, 0x00,
  0x29, 0x00, 0x00, 0x00, 0x00, 0x00, 0x00, 0x09, 0x70, 0x00, 0x00, 0x00,
  0x04, 0x00, 0x00, 0x00, 0xff, 0xff, 0xff, 0xff, 0x10, 0x00, 0x00, 0x00,
  0x03, 0x00, 0x00, 0x00, 0x08, 0x00, 0x00, 0x00, 0xcc, 0xe6, 0xff, 0xff,
  0x08, 0x00, 0x00, 0x00, 0x10, 0x00, 0x00, 0x00, 0x01, 0x00, 0x00, 0x00,
  0x8e, 0xff, 0xff, 0xff, 0xff, 0xff, 0xff, 0xff, 0x01, 0x00, 0x00, 0x00,
  0x93, 0x4c, 0x80, 0x3d, 0x30, 0x00, 0x00, 0x00, 0x6d, 0x6f, 0x64, 0x65,
  0x6c, 0x5f, 0x33, 0x2f, 0x62, 0x61, 0x74, 0x63, 0x68, 0x5f, 0x6e, 0x6f,
  0x72, 0x6d, 0x61, 0x6c, 0x69, 0x7a, 0x61, 0x74, 0x69, 0x6f, 0x6e, 0x5f,
  0x32, 0x30, 0x2f, 0x46, 0x75, 0x73, 0x65, 0x64, 0x42, 0x61, 0x74, 0x63,
  0x68, 0x4e, 0x6f, 0x72, 0x6d, 0x56, 0x33, 0x32, 0x00, 0x00, 0x00, 0x00,
  0x04, 0x00, 0x00, 0x00, 0x01, 0x00, 0x00, 0x00, 0x10, 0x00, 0x00, 0x00,
  0x03, 0x00, 0x00, 0x00, 0x08, 0x00, 0x00, 0x00, 0x82, 0xe7, 0xff, 0xff,
  0x00, 0x00, 0x00, 0x01, 0x18, 0x00, 0x00, 0x00, 0x28, 0x00, 0x00, 0x00,
  0x44, 0x00, 0x00, 0x00, 0x28, 0x00, 0x00, 0x00, 0x00, 0x00, 0x00, 0x09,
  0xc8, 0x00, 0x00, 0x00, 0x04, 0x00, 0x00, 0x00, 0xff, 0xff, 0xff, 0xff,
  0x10, 0x00, 0x00, 0x00, 0x03, 0x00, 0x00, 0x00, 0x08, 0x00, 0x00, 0x00,
  0x6c, 0xe7, 0xff, 0xff, 0x08, 0x00, 0x00, 0x00, 0x10, 0x00, 0x00, 0x00,
  0x01, 0x00, 0x00, 0x00, 0x80, 0xff, 0xff, 0xff, 0xff, 0xff, 0xff, 0xff,
  0x01, 0x00, 0x00, 0x00, 0x9f, 0xff, 0x72, 0x3d, 0x8b, 0x00, 0x00, 0x00,
  0x6d, 0x6f, 0x64, 0x65, 0x6c, 0x5f, 0x33, 0x2f, 0x63, 0x6f, 0x6e, 0x76,
  0x32, 0x64, 0x5f, 0x32, 0x30, 0x2f, 0x52, 0x65, 0x6c, 0x75, 0x3b, 0x6d,
  0x6f, 0x64, 0x65, 0x6c, 0x5f, 0x33, 0x2f, 0x63, 0x6f, 0x6e, 0x76, 0x32,
  0x64, 0x5f, 0x32, 0x30, 0x2f, 0x42, 0x69, 0x61, 0x73, 0x41, 0x64, 0x64,
  0x3b, 0x6d, 0x6f, 0x64, 0x65, 0x6c, 0x5f, 0x33, 0x2f, 0x63, 0x6f, 0x6e,
  0x76, 0x32, 0x64, 0x5f, 0x32, 0x33, 0x2f, 0x43, 0x6f, 0x6e, 0x76, 0x32,
  0x44, 0x3b, 0x6d, 0x6f, 0x64, 0x65, 0x6c, 0x5f, 0x33, 0x2f, 0x63, 0x6f,
  0x6e, 0x76, 0x32, 0x64, 0x5f, 0x32, 0x30, 0x2f, 0x43, 0x6f, 0x6e, 0x76,
  0x32, 0x44, 0x3b, 0x6d, 0x6f, 0x64, 0x65, 0x6c, 0x5f, 0x33, 0x2f, 0x63,
  0x6f, 0x6e, 0x76, 0x32, 0x64, 0x5f, 0x32, 0x30, 0x2f, 0x42, 0x69, 0x61,
  0x73, 0x41, 0x64, 0x64, 0x2f, 0x52, 0x65, 0x61, 0x64, 0x56, 0x61, 0x72,
  0x69, 0x61, 0x62, 0x6c, 0x65, 0x4f, 0x70, 0x00, 0x04, 0x00, 0x00, 0x00,
  0x01, 0x00, 0x00, 0x00, 0x10, 0x00, 0x00, 0x00, 0x03, 0x00, 0x00, 0x00,
  0x08, 0x00, 0x00, 0x00, 0x7a, 0xe8, 0xff, 0xff, 0x00, 0x00, 0x00, 0x01,
  0x18, 0x00, 0x00, 0x00, 0x28, 0x00, 0x00, 0x00, 0x44, 0x00, 0x00, 0x00,
  0x27, 0x00, 0x00, 0x00, 0x00, 0x00, 0x00, 0x09, 0x60, 0x00, 0x00, 0x00,
  0x04, 0x00, 0x00, 0x00, 0xff, 0xff, 0xff, 0xff, 0x10, 0x00, 0x00, 0x00,
  0x03, 0x00, 0x00, 0x00, 0x08, 0x00, 0x00, 0x00, 0x64, 0xe8, 0xff, 0xff,
  0x08, 0x00, 0x00, 0x00, 0x10, 0x00, 0x00, 0x00, 0x01, 0x00, 0x00, 0x00,
  0x8d, 0xff, 0xff, 0xff, 0xff, 0xff, 0xff, 0xff, 0x01, 0x00, 0x00, 0x00,
  0x0b, 0x59, 0x81, 0x3d, 0x20, 0x00, 0x00, 0x00, 0x6d, 0x6f, 0x64, 0x65,
  0x6c, 0x5f, 0x33, 0x2f, 0x6d, 0x61, 0x78, 0x5f, 0x70, 0x6f, 0x6f, 0x6c,
  0x69, 0x6e, 0x67, 0x32, 0x64, 0x5f, 0x31, 0x39, 0x2f, 0x4d, 0x61, 0x78,
  0x50, 0x6f, 0x6f, 0x6c, 0x00, 0x00, 0x00, 0x00, 0x04, 0x00, 0x00, 0x00,
  0x01, 0x00, 0x00, 0x00, 0x10, 0x00, 0x00, 0x00, 0x03, 0x00, 0x00, 0x00,
  0x08, 0x00, 0x00, 0x00, 0x0a, 0xe9, 0xff, 0xff, 0x00, 0x00, 0x00, 0x01,
  0x18, 0x00, 0x00, 0x00, 0x28, 0x00, 0x00, 0x00, 0x44, 0x00, 0x00, 0x00,
  0x26, 0x00, 0x00, 0x00, 0x00, 0x00, 0x00, 0x09, 0x70, 0x00, 0x00, 0x00,
  0x04, 0x00, 0x00, 0x00, 0xff, 0xff, 0xff, 0xff, 0x20, 0x00, 0x00, 0x00,
  0x06, 0x00, 0x00, 0x00, 0x08, 0x00, 0x00, 0x00, 0xf4, 0xe8, 0xff, 0xff,
  0x08, 0x00, 0x00, 0x00, 0x10, 0x00, 0x00, 0x00, 0x01, 0x00, 0x00, 0x00,
  0x8d, 0xff, 0xff, 0xff, 0xff, 0xff, 0xff, 0xff, 0x01, 0x00, 0x00, 0x00,
  0x0b, 0x59, 0x81, 0x3d, 0x30, 0x00, 0x00, 0x00, 0x6d, 0x6f, 0x64, 0x65,
  0x6c, 0x5f, 0x33, 0x2f, 0x62, 0x61, 0x74, 0x63, 0x68, 0x5f, 0x6e, 0x6f,
  0x72, 0x6d, 0x61, 0x6c, 0x69, 0x7a, 0x61, 0x74, 0x69, 0x6f, 0x6e, 0x5f,
  0x31, 0x39, 0x2f, 0x46, 0x75, 0x73, 0x65, 0x64, 0x42, 0x61, 0x74, 0x63,
  0x68, 0x4e, 0x6f, 0x72, 0x6d, 0x56, 0x33, 0x33, 0x00, 0x00, 0x00, 0x00,
  0x04, 0x00, 0x00, 0x00, 0x01, 0x00, 0x00, 0x00, 0x20, 0x00, 0x00, 0x00,
  0x06, 0x00, 0x00, 0x00, 0x08, 0x00, 0x00, 0x00, 0xaa, 0xe9, 0xff, 0xff,
  0x00, 0x00, 0x00, 0x01, 0x18, 0x00, 0x00, 0x00, 0x28, 0x00, 0x00, 0x00,
  0x44, 0x00, 0x00, 0x00, 0x25, 0x00, 0x00, 0x00, 0x00, 0x00, 0x00, 0x09,
  0x70, 0x00, 0x00, 0x00, 0x04, 0x00, 0x00, 0x00, 0xff, 0xff, 0xff, 0xff,
  0x20, 0x00, 0x00, 0x00, 0x06, 0x00, 0x00, 0x00, 0x08, 0x00, 0x00, 0x00,
  0x94, 0xe9, 0xff, 0xff, 0x08, 0x00, 0x00, 0x00, 0x10, 0x00, 0x00, 0x00,
  0x01, 0x00, 0x00, 0x00, 0x8c, 0xff, 0xff, 0xff, 0xff, 0xff, 0xff, 0xff,
  0x01, 0x00, 0x00, 0x00, 0x7d, 0xcb, 0x87, 0x3d, 0x30, 0x00, 0x00, 0x00,
  0x6d, 0x6f, 0x64, 0x65, 0x6c, 0x5f, 0x33, 0x2f, 0x62, 0x61, 0x74, 0x63,
  0x68, 0x5f, 0x6e, 0x6f, 0x72, 0x6d, 0x61, 0x6c, 0x69, 0x7a, 0x61, 0x74,
  0x69, 0x6f, 0x6e, 0x5f, 0x31, 0x39, 0x2f, 0x46, 0x75, 0x73, 0x65, 0x64,
  0x42, 0x61, 0x74, 0x63, 0x68, 0x4e, 0x6f, 0x72, 0x6d, 0x56, 0x33, 0x32,
  0x00, 0x00, 0x00, 0x00, 0x04, 0x00, 0x00, 0x00, 0x01, 0x00, 0x00, 0x00,
  0x20, 0x00, 0x00, 0x00, 0x06, 0x00, 0x00, 0x00, 0x08, 0x00, 0x00, 0x00,
  0x4a, 0xea, 0xff, 0xff, 0x00, 0x00, 0x00, 0x01, 0x18, 0x00, 0x00, 0x00,
  0x28, 0x00, 0x00, 0x00, 0x44, 0x00, 0x00, 0x00, 0x24, 0x00, 0x00, 0x00,
  0x00, 0x00, 0x00, 0x09, 0xc8, 0x00, 0x00, 0x00, 0x04, 0x00, 0x00, 0x00,
  0xff, 0xff, 0xff, 0xff, 0x20, 0x00, 0x00, 0x00, 0x06, 0x00, 0x00, 0x00,
  0x08, 0x00, 0x00, 0x00, 0x34, 0xea, 0xff, 0xff, 0x08, 0x00, 0x00, 0x00,
  0x10, 0x00, 0x00, 0x00, 0x01, 0x00, 0x00, 0x00, 0x80, 0xff, 0xff, 0xff,
  0xff, 0xff, 0xff, 0xff, 0x01, 0x00, 0x00, 0x00, 0xb5, 0x01, 0x89, 0x3d,
  0x8b, 0x00, 0x00, 0x00, 0x6d, 0x6f, 0x64, 0x65, 0x6c, 0x5f, 0x33, 0x2f,
  0x63, 0x6f, 0x6e, 0x76, 0x32, 0x64, 0x5f, 0x31, 0x39, 0x2f, 0x52, 0x65,
  0x6c, 0x75, 0x3b, 0x6d, 0x6f, 0x64, 0x65, 0x6c, 0x5f, 0x33, 0x2f, 0x63,
  0x6f, 0x6e, 0x76, 0x32, 0x64, 0x5f, 0x31, 0x39, 0x2f, 0x42, 0x69, 0x61,
  0x73, 0x41, 0x64, 0x64, 0x3b, 0x6d, 0x6f, 0x64, 0x65, 0x6c, 0x5f, 0x33,
  0x2f, 0x63, 0x6f, 0x6e, 0x76, 0x32, 0x64, 0x5f, 0x32, 0x33, 0x2f, 0x43,
  0x6f, 0x6e, 0x76, 0x32, 0x44, 0x3b, 0x6d, 0x6f, 0x64, 0x65, 0x6c, 0x5f,
  0x33, 0x2f, 0x63, 0x6f, 0x6e, 0x76, 0x32, 0x64, 0x5f, 0x31, 0x39, 0x2f,
  0x43, 0x6f, 0x6e, 0x76, 0x32, 0x44, 0x3b, 0x6d, 0x6f, 0x64, 0x65, 0x6c,
  0x5f, 0x33, 0x2f, 0x63, 0x6f, 0x6e, 0x76, 0x32, 0x64, 0x5f, 0x31, 0x39,
  0x2f, 0x42, 0x69, 0x61, 0x73, 0x41, 0x64, 0x64, 0x2f, 0x52, 0x65, 0x61,
  0x64, 0x56, 0x61, 0x72, 0x69, 0x61, 0x62, 0x6c, 0x65, 0x4f, 0x70, 0x00,
  0x04, 0x00, 0x00, 0x00, 0x01, 0x00, 0x00, 0x00, 0x20, 0x00, 0x00, 0x00,
  0x06, 0x00, 0x00, 0x00, 0x08, 0x00, 0x00, 0x00, 0x42, 0xeb, 0xff, 0xff,
  0x00, 0x00, 0x00, 0x01, 0x18, 0x00, 0x00, 0x00, 0x28, 0x00, 0x00, 0x00,
  0x44, 0x00, 0x00, 0x00, 0x23, 0x00, 0x00, 0x00, 0x00, 0x00, 0x00, 0x09,
  0x60, 0x00, 0x00, 0x00, 0x04, 0x00, 0x00, 0x00, 0xff, 0xff, 0xff, 0xff,
  0x20, 0x00, 0x00, 0x00, 0x06, 0x00, 0x00, 0x00, 0x08, 0x00, 0x00, 0x00,
  0x2c, 0xeb, 0xff, 0xff, 0x08, 0x00, 0x00, 0x00, 0x10, 0x00, 0x00, 0x00,
  0x01, 0x00, 0x00, 0x00, 0x85, 0xff, 0xff, 0xff, 0xff, 0xff, 0xff, 0xff,
  0x01, 0x00, 0x00, 0x00, 0x1f, 0xe4, 0xd4, 0x3d, 0x20, 0x00, 0x00, 0x00,
  0x6d, 0x6f, 0x64, 0x65, 0x6c, 0x5f, 0x33, 0x2f, 0x6d, 0x61, 0x78, 0x5f,
  0x70, 0x6f, 0x6f, 0x6c, 0x69, 0x6e, 0x67, 0x32, 0x64, 0x5f, 0x31, 0x38,
  0x2f, 0x4d, 0x61, 0x78, 0x50, 0x6f, 0x6f, 0x6c, 0x00, 0x00, 0x00, 0x00,
  0x04, 0x00, 0x00, 0x00, 0x01, 0x00, 0x00, 0x00, 0x20, 0x00, 0x00, 0x00,
  0x06, 0x00, 0x00, 0x00, 0x08, 0x00, 0x00, 0x00, 0xd2, 0xeb, 0xff, 0xff,
  0x00, 0x00, 0x00, 0x01, 0x18, 0x00, 0x00, 0x00, 0x28, 0x00, 0x00, 0x00,
  0x44, 0x00, 0x00, 0x00, 0x22, 0x00, 0x00, 0x00, 0x00, 0x00, 0x00, 0x09,
  0x70, 0x00, 0x00, 0x00, 0x04, 0x00, 0x00, 0x00, 0xff, 0xff, 0xff, 0xff,
  0x40, 0x00, 0x00, 0x00, 0x0d, 0x00, 0x00, 0x00, 0x08, 0x00, 0x00, 0x00,
  0xbc, 0xeb, 0xff, 0xff, 0x08, 0x00, 0x00, 0x00, 0x10, 0x00, 0x00, 0x00,
  0x01, 0x00, 0x00, 0x00, 0x85, 0xff, 0xff, 0xff, 0xff, 0xff, 0xff, 0xff,
  0x01, 0x00, 0x00, 0x00, 0x1f, 0xe4, 0xd4, 0x3d, 0x30, 0x00, 0x00, 0x00,
  0x6d, 0x6f, 0x64, 0x65, 0x6c, 0x5f, 0x33, 0x2f, 0x62, 0x61, 0x74, 0x63,
  0x68, 0x5f, 0x6e, 0x6f, 0x72, 0x6d, 0x61, 0x6c, 0x69, 0x7a, 0x61, 0x74,
  0x69, 0x6f, 0x6e, 0x5f, 0x31, 0x38, 0x2f, 0x46, 0x75, 0x73, 0x65, 0x64,
  0x42, 0x61, 0x74, 0x63, 0x68, 0x4e, 0x6f, 0x72, 0x6d, 0x56, 0x33, 0x33,
  0x00, 0x00, 0x00, 0x00, 0x04, 0x00, 0x00, 0x00, 0x01, 0x00, 0x00, 0x00,
  0x40, 0x00, 0x00, 0x00, 0x0d, 0x00, 0x00, 0x00, 0x08, 0x00, 0x00, 0x00,
  0x72, 0xec, 0xff, 0xff, 0x00, 0x00, 0x00, 0x01, 0x18, 0x00, 0x00, 0x00,
  0x28, 0x00, 0x00, 0x00, 0x44, 0x00, 0x00, 0x00, 0x21, 0x00, 0x00, 0x00,
  0x00, 0x00, 0x00, 0x09, 0x70, 0x00, 0x00, 0x00, 0x04, 0x00, 0x00, 0x00,
  0xff, 0xff, 0xff, 0xff, 0x40, 0x00, 0x00, 0x00, 0x0d, 0x00, 0x00, 0x00,
  0x08, 0x00, 0x00, 0x00, 0x5c, 0xec, 0xff, 0xff, 0x08, 0x00, 0x00, 0x00,
  0x10, 0x00, 0x00, 0x00, 0x01, 0x00, 0x00, 0x00, 0x85, 0xff, 0xff, 0xff,
  0xff, 0xff, 0xff, 0xff, 0x01, 0x00, 0x00, 0x00, 0xdc, 0x39, 0xd7, 0x3d,
  0x30, 0x00, 0x00, 0x00, 0x6d, 0x6f, 0x64, 0x65, 0x6c, 0x5f, 0x33, 0x2f,
  0x62, 0x61, 0x74, 0x63, 0x68, 0x5f, 0x6e, 0x6f, 0x72, 0x6d, 0x61, 0x6c,
  0x69, 0x7a, 0x61, 0x74, 0x69, 0x6f, 0x6e, 0x5f, 0x31, 0x38, 0x2f, 0x46,
  0x75, 0x73, 0x65, 0x64, 0x42, 0x61, 0x74, 0x63, 0x68, 0x4e, 0x6f, 0x72,
  0x6d, 0x56, 0x33, 0x32, 0x00, 0x00, 0x00, 0x00, 0x04, 0x00, 0x00, 0x00,
  0x01, 0x00, 0x00, 0x00, 0x40, 0x00, 0x00, 0x00, 0x0d, 0x00, 0x00, 0x00,
  0x08, 0x00, 0x00, 0x00, 0x12, 0xed, 0xff, 0xff, 0x00, 0x00, 0x00, 0x01,
  0x18, 0x00, 0x00, 0x00, 0x28, 0x00, 0x00, 0x00, 0x44, 0x00, 0x00, 0x00,
  0x20, 0x00, 0x00, 0x00, 0x00, 0x00, 0x00, 0x09, 0xc8, 0x00, 0x00, 0x00,
  0x04, 0x00, 0x00, 0x00, 0xff, 0xff, 0xff, 0xff, 0x40, 0x00, 0x00, 0x00,
  0x0d, 0x00, 0x00, 0x00, 0x08, 0x00, 0x00, 0x00, 0xfc, 0xec, 0xff, 0xff,
  0x08, 0x00, 0x00, 0x00, 0x10, 0x00, 0x00, 0x00, 0x01, 0x00, 0x00, 0x00,
  0x80, 0xff, 0xff, 0xff, 0xff, 0xff, 0xff, 0xff, 0x01, 0x00, 0x00, 0x00,
  0x7c, 0x6d, 0xac, 0x3f, 0x8b, 0x00, 0x00, 0x00, 0x6d, 0x6f, 0x64, 0x65,
  0x6c, 0x5f, 0x33, 0x2f, 0x63, 0x6f, 0x6e, 0x76, 0x32, 0x64, 0x5f, 0x31,
  0x38, 0x2f, 0x52, 0x65, 0x6c, 0x75, 0x3b, 0x6d, 0x6f, 0x64, 0x65, 0x6c,
  0x5f, 0x33, 0x2f, 0x63, 0x6f, 0x6e, 0x76, 0x32, 0x64, 0x5f, 0x31, 0x38,
  0x2f, 0x42, 0x69, 0x61, 0x73, 0x41, 0x64, 0x64, 0x3b, 0x6d, 0x6f, 0x64,
  0x65, 0x6c, 0x5f, 0x33, 0x2f, 0x63, 0x6f, 0x6e, 0x76, 0x32, 0x64, 0x5f,
  0x32, 0x33, 0x2f, 0x43, 0x6f, 0x6e, 0x76, 0x32, 0x44, 0x3b, 0x6d, 0x6f,
  0x64, 0x65, 0x6c, 0x5f, 0x33, 0x2f, 0x63, 0x6f, 0x6e, 0x76, 0x32, 0x64,
  0x5f, 0x31, 0x38, 0x2f, 0x43, 0x6f, 0x6e, 0x76, 0x32, 0x44, 0x3b, 0x6d,
  0x6f, 0x64, 0x65, 0x6c, 0x5f, 0x33, 0x2f, 0x63, 0x6f, 0x6e, 0x76, 0x32,
  0x64, 0x5f, 0x31, 0x38, 0x2f, 0x42, 0x69, 0x61, 0x73, 0x41, 0x64, 0x64,
  0x2f, 0x52, 0x65, 0x61, 0x64, 0x56, 0x61, 0x72, 0x69, 0x61, 0x62, 0x6c,
  0x65, 0x4f, 0x70, 0x00, 0x04, 0x00, 0x00, 0x00, 0x01, 0x00, 0x00, 0x00,
  0x40, 0x00, 0x00, 0x00, 0x0d, 0x00, 0x00, 0x00, 0x08, 0x00, 0x00, 0x00,
  0x0a, 0xee, 0xff, 0xff, 0x00, 0x00, 0x00, 0x01, 0x18, 0x00, 0x00, 0x00,
  0x28, 0x00, 0x00, 0x00, 0x48, 0x00, 0x00, 0x00, 0x1f, 0x00, 0x00, 0x00,
  0x00, 0x00, 0x00, 0x09, 0x50, 0x00, 0x00, 0x00, 0x04, 0x00, 0x00, 0x00,
  0xff, 0xff, 0xff, 0xff, 0x40, 0x00, 0x00, 0x00, 0x0d, 0x00, 0x00, 0x00,
  0x01, 0x00, 0x00, 0x00, 0xf4, 0xed, 0xff, 0xff, 0x08, 0x00, 0x00, 0x00,
  0x14, 0x00, 0x00, 0x00, 0x01, 0x00, 0x00, 0x00, 0x80, 0xff, 0xff, 0xff,
  0xff, 0xff, 0xff, 0xff, 0x00, 0x00, 0x00, 0x00, 0x01, 0x00, 0x00, 0x00,
  0x00, 0x00, 0x80, 0x3f, 0x0d, 0x00, 0x00, 0x00, 0x74, 0x66, 0x6c, 0x2e,
  0x71, 0x75, 0x61, 0x6e, 0x74, 0x69, 0x7a, 0x65, 0x31, 0x00, 0x00, 0x00,
  0x04, 0x00, 0x00, 0x00, 0x01, 0x00, 0x00, 0x00, 0x40, 0x00, 0x00, 0x00,
  0x0d, 0x00, 0x00, 0x00, 0x01, 0x00, 0x00, 0x00, 0x8a, 0xee, 0xff, 0xff,
  0x00, 0x00, 0x00, 0x01, 0x18, 0x00, 0x00, 0x00, 0x28, 0x00, 0x00, 0x00,
  0x48, 0x00, 0x00, 0x00, 0x1e, 0x00, 0x00, 0x00, 0x00, 0x00, 0x00, 0x09,
  0x50, 0x00, 0x00, 0x00, 0x04, 0x00, 0x00, 0x00, 0xff, 0xff, 0xff, 0xff,
  0x40, 0x00, 0x00, 0x00, 0x0d, 0x00, 0x00, 0x00, 0x01, 0x00, 0x00, 0x00,
  0x74, 0xee, 0xff, 0xff, 0x08, 0x00, 0x00, 0x00, 0x14, 0x00, 0x00, 0x00,
  0x01, 0x00, 0x00, 0x00, 0x80, 0xff, 0xff, 0xff, 0xff, 0xff, 0xff, 0xff,
  0x00, 0x00, 0x00, 0x00, 0x01, 0x00, 0x00, 0x00, 0x00, 0x00, 0x80, 0x3f,
  0x0c, 0x00, 0x00, 0x00, 0x74, 0x66, 0x6c, 0x2e, 0x71, 0x75, 0x61, 0x6e,
  0x74, 0x69, 0x7a, 0x65, 0x00, 0x00, 0x00, 0x00, 0x04, 0x00, 0x00, 0x00,
  0x01, 0x00, 0x00, 0x00, 0x40, 0x00, 0x00, 0x00, 0x0d, 0x00, 0x00, 0x00,
  0x01, 0x00, 0x00, 0x00, 0xf6, 0xef, 0xff, 0xff, 0x00, 0x00, 0x00, 0x01,
  0x14, 0x00, 0x00, 0x00, 0x88, 0x00, 0x00, 0x00, 0x1d, 0x00, 0x00, 0x00,
  0x00, 0x00, 0x00, 0x09, 0x9c, 0x00, 0x00, 0x00, 0xdc, 0xee, 0xff, 0xff,
  0x08, 0x00, 0x00, 0x00, 0x4c, 0x00, 0x00, 0x00, 0x08, 0x00, 0x00, 0x00,
  0x00, 0x00, 0x00, 0x00, 0x00, 0x00, 0x00, 0x00, 0x00, 0x00, 0x00, 0x00,
  0x00, 0x00, 0x00, 0x00, 0x00, 0x00, 0x00, 0x00, 0x00, 0x00, 0x00, 0x00,
  0x00, 0x00, 0x00, 0x00, 0x00, 0x00, 0x00, 0x00, 0x00, 0x00, 0x00, 0x00,
  0x00, 0x00, 0x00, 0x00, 0x00, 0x00, 0x00, 0x00, 0x00, 0x00, 0x00, 0x00,
  0x00, 0x00, 0x00, 0x00, 0x00, 0x00, 0x00, 0x00, 0x00, 0x00, 0x00, 0x00,
  0x00, 0x00, 0x00, 0x00, 0x00, 0x00, 0x00, 0x00, 0x08, 0x00, 0x00, 0x00,
  0xfe, 0x69, 0x16, 0x3b, 0xe5, 0x62, 0xfd, 0x3a, 0x73, 0x58, 0x24, 0x3b,
  0x5e, 0x35, 0x12, 0x3b, 0x11, 0xa1, 0x0b, 0x3b, 0xe8, 0x70, 0x1b, 0x3b,
  0xb1, 0xd7, 0xe0, 0x3a, 0xd6, 0x87, 0x14, 0x3b, 0x18, 0x00, 0x00, 0x00,
  0x6d, 0x6f, 0x64, 0x65, 0x6c, 0x5f, 0x33, 0x2f, 0x63, 0x6f, 0x6e, 0x76,
  0x32, 0x64, 0x5f, 0x31, 0x38, 0x2f, 0x43, 0x6f, 0x6e, 0x76, 0x32, 0x44,
  0x00, 0x00, 0x00, 0x00, 0x04, 0x00, 0x00, 0x00, 0x08, 0x00, 0x00, 0x00,
  0x07, 0x00, 0x00, 0x00, 0x07, 0x00, 0x00, 0x00, 0x01, 0x00, 0x00, 0x00,
  0xbe, 0xf0, 0xff, 0xff, 0x00, 0x00, 0x00, 0x01, 0x14, 0x00, 0x00, 0x00,
  0x84, 0x00, 0x00, 0x00, 0x1c, 0x00, 0x00, 0x00, 0x00, 0x00, 0x00, 0x02,
  0xa8, 0x00, 0x00, 0x00, 0xa4, 0xef, 0xff, 0xff, 0x08, 0x00, 0x00, 0x00,
  0x48, 0x00, 0x00, 0x00, 0x08, 0x00, 0x00, 0x00, 0x00, 0x00, 0x00, 0x00,
  0x00, 0x00, 0x00, 0x00, 0x00, 0x00, 0x00, 0x00, 0x00, 0x00, 0x00, 0x00,
  0x00, 0x00, 0x00, 0x00, 0x00, 0x00, 0x00, 0x00, 0x00, 0x00, 0x00, 0x00,
  0x00, 0x00, 0x00, 0x00, 0x00, 0x00, 0x00, 0x00, 0x00, 0x00, 0x00, 0x00,
  0x00, 0x00, 0x00, 0x00, 0x00, 0x00, 0x00, 0x00, 0x00, 0x00, 0x00, 0x00,
  0x00, 0x00, 0x00, 0x00, 0x00, 0x00, 0x00, 0x00, 0x00, 0x00, 0x00, 0x00,
  0x08, 0x00, 0x00, 0x00, 0xfe, 0x69, 0x16, 0x3b, 0xe5, 0x62, 0xfd, 0x3a,
  0x73, 0x58, 0x24, 0x3b, 0x5e, 0x35, 0x12, 0x3b, 0x11, 0xa1, 0x0b, 0x3b,
  0xe8, 0x70, 0x1b, 0x3b, 0xb1, 0xd7, 0xe0, 0x3a, 0xd6, 0x87, 0x14, 0x3b,
  0x28, 0x00, 0x00, 0x00, 0x6d, 0x6f, 0x64, 0x65, 0x6c, 0x5f, 0x33, 0x2f,
  0x63, 0x6f, 0x6e, 0x76, 0x32, 0x64, 0x5f, 0x31, 0x38, 0x2f, 0x42, 0x69,
  0x61, 0x73, 0x41, 0x64, 0x64, 0x2f, 0x52, 0x65, 0x61, 0x64, 0x56, 0x61,
  0x72, 0x69, 0x61, 0x62, 0x6c, 0x65, 0x4f, 0x70, 0x00, 0x00, 0x00, 0x00,
  0x01, 0x00, 0x00, 0x00, 0x08, 0x00, 0x00, 0x00, 0x86, 0xf1, 0xff, 0xff,
  0x00, 0x00, 0x00, 0x01, 0x14, 0x00, 0x00, 0x00, 0x30, 0x00, 0x00, 0x00,
  0x1b, 0x00, 0x00, 0x00, 0x00, 0x00, 0x00, 0x09, 0x58, 0x00, 0x00, 0x00,
  0x6c, 0xf0, 0xff, 0xff, 0x08, 0x00, 0x00, 0x00, 0x10, 0x00, 0x00, 0x00,
  0x01, 0x00, 0x00, 0x00, 0x80, 0xff, 0xff, 0xff, 0xff, 0xff, 0xff, 0xff,
  0x01, 0x00, 0x00, 0x00, 0x4a, 0xcc, 0x4f, 0x3a, 0x2f, 0x00, 0x00, 0x00,
  0x6d, 0x6f, 0x64, 0x65, 0x6c, 0x5f, 0x33, 0x2f, 0x62, 0x61, 0x74, 0x63,
  0x68, 0x5f, 0x6e, 0x6f, 0x72, 0x6d, 0x61, 0x6c, 0x69, 0x7a, 0x61, 0x74,
  0x69, 0x6f, 0x6e, 0x5f, 0x31, 0x38, 0x2f, 0x46, 0x75, 0x73, 0x65, 0x64,
  0x42, 0x61, 0x74, 0x63, 0x68, 0x4e, 0x6f, 0x72, 0x6d, 0x56, 0x33, 0x00,
  0x01, 0x00, 0x00, 0x00, 0x08, 0x00, 0x00, 0x00, 0xfe, 0xf1, 0xff, 0xff,
  0x00, 0x00, 0x00, 0x01, 0x14, 0x00, 0x00, 0x00, 0x34, 0x00, 0x00, 0x00,
  0x1a, 0x00, 0x00, 0x00, 0x00, 0x00, 0x00, 0x09, 0x60, 0x00, 0x00, 0x00,
  0xe4, 0xf0, 0xff, 0xff, 0x08, 0x00, 0x00, 0x00, 0x14, 0x00, 0x00, 0x00,
  0x01, 0x00, 0x00, 0x00, 0x7f, 0x00, 0x00, 0x00, 0x00, 0x00, 0x00, 0x00,
  0x00, 0x00, 0x00, 0x00, 0x01, 0x00, 0x00, 0x00, 0x3d, 0xb1, 0x00, 0x3b,
  0x30, 0x00, 0x00, 0x00, 0x6d, 0x6f, 0x64, 0x65, 0x6c, 0x5f, 0x33, 0x2f,
  0x62, 0x61, 0x74, 0x63, 0x68, 0x5f, 0x6e, 0x6f, 0x72, 0x6d, 0x61, 0x6c,
  0x69, 0x7a, 0x61, 0x74, 0x69, 0x6f, 0x6e, 0x5f, 0x31, 0x38, 0x2f, 0x46,
  0x75, 0x73, 0x65, 0x64, 0x42, 0x61, 0x74, 0x63, 0x68, 0x4e, 0x6f, 0x72,
  0x6d, 0x56, 0x33, 0x31, 0x00, 0x00, 0x00, 0x00, 0x01, 0x00, 0x00, 0x00,
  0x08, 0x00, 0x00, 0x00, 0x7e, 0xf2, 0xff, 0xff, 0x00, 0x00, 0x00, 0x01,
  0x14, 0x00, 0x00, 0x00, 0x88, 0x00, 0x00, 0x00, 0x19, 0x00, 0x00, 0x00,
  0x00, 0x00, 0x00, 0x09, 0x9c, 0x00, 0x00, 0x00, 0x64, 0xf1, 0xff, 0xff,
  0x08, 0x00, 0x00, 0x00, 0x4c, 0x00, 0x00, 0x00, 0x08, 0x00, 0x00, 0x00,
  0x00, 0x00, 0x00, 0x00, 0x00, 0x00, 0x00, 0x00, 0x00, 0x00, 0x00, 0x00,
  0x00, 0x00, 0x00, 0x00, 0x00, 0x00, 0x00, 0x00, 0x00, 0x00, 0x00, 0x00,
  0x00, 0x00, 0x00, 0x00, 0x00, 0x00, 0x00, 0x00, 0x00, 0x00, 0x00, 0x00,
  0x00, 0x00, 0x00, 0x00, 0x00, 0x00, 0x00, 0x00, 0x00, 0x00, 0x00, 0x00,
  0x00, 0x00, 0x00, 0x00, 0x00, 0x00, 0x00, 0x00, 0x00, 0x00, 0x00, 0x00,
  0x00, 0x00, 0x00, 0x00, 0x00, 0x00, 0x00, 0x00, 0x08, 0x00, 0x00, 0x00,
  0xef, 0x2a, 0x08, 0x3b, 0xf2, 0x61, 0x20, 0x3b, 0x04, 0x8f, 0x36, 0x3b,
  0x9a, 0x94, 0x4d, 0x3b, 0x3b, 0x58, 0x13, 0x3b, 0x69, 0x1d, 0x28, 0x3b,
  0xff, 0x16, 0x58, 0x3b, 0x1c, 0xa5, 0x10, 0x3b, 0x18, 0x00, 0x00, 0x00,
  0x6d, 0x6f, 0x64, 0x65, 0x6c, 0x5f, 0x33, 0x2f, 0x63, 0x6f, 0x6e, 0x76,
  0x32, 0x64, 0x5f, 0x31, 0x39, 0x2f, 0x43, 0x6f, 0x6e, 0x76, 0x32, 0x44,
  0x00, 0x00, 0x00, 0x00, 0x04, 0x00, 0x00, 0x00, 0x08, 0x00, 0x00, 0x00,
  0x05, 0x00, 0x00, 0x00, 0x05, 0x00, 0x00, 0x00, 0x08, 0x00, 0x00, 0x00,
  0x46, 0xf3, 0xff, 0xff, 0x00, 0x00, 0x00, 0x01, 0x14, 0x00, 0x00, 0x00,
  0x84, 0x00, 0x00, 0x00, 0x18, 0x00, 0x00, 0x00, 0x00, 0x00, 0x00, 0x02,
  0xa8, 0x00, 0x00, 0x00, 0x2c, 0xf2, 0xff, 0xff, 0x08, 0x00, 0x00, 0x00,
  0x48, 0x00, 0x00, 0x00, 0x08, 0x00, 0x00, 0x00, 0x00, 0x00, 0x00, 0x00,
  0x00, 0x00, 0x00, 0x00, 0x00, 0x00, 0x00, 0x00, 0x00, 0x00, 0x00, 0x00,
  0x00, 0x00, 0x00, 0x00, 0x00, 0x00, 0x00, 0x00, 0x00, 0x00, 0x00, 0x00,
  0x00, 0x00, 0x00, 0x00, 0x00, 0x00, 0x00, 0x00, 0x00, 0x00, 0x00, 0x00,
  0x00, 0x00, 0x00, 0x00, 0x00, 0x00, 0x00, 0x00, 0x00, 0x00, 0x00, 0x00,
  0x00, 0x00, 0x00, 0x00, 0x00, 0x00, 0x00, 0x00, 0x00, 0x00, 0x00, 0x00,
  0x08, 0x00, 0x00, 0x00, 0xc9, 0x79, 0x62, 0x39, 0x07, 0x60, 0x85, 0x39,
  0x1d, 0xd1, 0x97, 0x39, 0x41, 0xf6, 0xaa, 0x39, 0xbb, 0x10, 0x75, 0x39,
  0x2a, 0xce, 0x8b, 0x39, 0x9a, 0xb3, 0xb3, 0x39, 0x40, 0x93, 0x70, 0x39,
  0x28, 0x00, 0x00, 0x00, 0x6d, 0x6f, 0x64, 0x65, 0x6c, 0x5f, 0x33, 0x2f,
  0x63, 0x6f, 0x6e, 0x76, 0x32, 0x64, 0x5f, 0x31, 0x39, 0x2f, 0x42, 0x69,
  0x61, 0x73, 0x41, 0x64, 0x64, 0x2f, 0x52, 0x65, 0x61, 0x64, 0x56, 0x61,
  0x72, 0x69, 0x61, 0x62, 0x6c, 0x65, 0x4f, 0x70, 0x00, 0x00, 0x00, 0x00,
  0x01, 0x00, 0x00, 0x00, 0x08, 0x00, 0x00, 0x00, 0x0e, 0xf4, 0xff, 0xff,
  0x00, 0x00, 0x00, 0x01, 0x14, 0x00, 0x00, 0x00, 0x30, 0x00, 0x00, 0x00,
  0x17, 0x00, 0x00, 0x00, 0x00, 0x00, 0x00, 0x09, 0x58, 0x00, 0x00, 0x00,
  0xf4, 0xf2, 0xff, 0xff, 0x08, 0x00, 0x00, 0x00, 0x10, 0x00, 0x00, 0x00,
  0x01, 0x00, 0x00, 0x00, 0x80, 0xff, 0xff, 0xff, 0xff, 0xff, 0xff, 0xff,
  0x01, 0x00, 0x00, 0x00, 0xa8, 0xc9, 0x89, 0x3b, 0x2f, 0x00, 0x00, 0x00,
  0x6d, 0x6f, 0x64, 0x65, 0x6c, 0x5f, 0x33, 0x2f, 0x62, 0x61, 0x74, 0x63,
  0x68, 0x5f, 0x6e, 0x6f, 0x72, 0x6d, 0x61, 0x6c, 0x69, 0x7a, 0x61, 0x74,
  0x69, 0x6f, 0x6e, 0x5f, 0x31, 0x39, 0x2f, 0x46, 0x75, 0x73, 0x65, 0x64,
  0x42, 0x61, 0x74, 0x63, 0x68, 0x4e, 0x6f, 0x72, 0x6d, 0x56, 0x33, 0x00,
  0x01, 0x00, 0x00, 0x00, 0x08, 0x00, 0x00, 0x00, 0x86, 0xf4, 0xff, 0xff,
  0x00, 0x00, 0x00, 0x01, 0x14, 0x00, 0x00, 0x00, 0x34, 0x00, 0x00, 0x00,
  0x16, 0x00, 0x00, 0x00, 0x00, 0x00, 0x00, 0x09, 0x60, 0x00, 0x00, 0x00,
  0x6c, 0xf3, 0xff, 0xff, 0x08, 0x00, 0x00, 0x00, 0x14, 0x00, 0x00, 0x00,
  0x01, 0x00, 0x00, 0x00, 0x7f, 0x00, 0x00, 0x00, 0x00, 0x00, 0x00, 0x00,
  0x00, 0x00, 0x00, 0x00, 0x01, 0x00, 0x00, 0x00, 0x53, 0x4e, 0x4e, 0x3b,
  0x30, 0x00, 0x00, 0x00, 0x6d, 0x6f, 0x64, 0x65, 0x6c, 0x5f, 0x33, 0x2f,
  0x62, 0x61, 0x74, 0x63, 0x68, 0x5f, 0x6e, 0x6f, 0x72, 0x6d, 0x61, 0x6c,
  0x69, 0x7a, 0x61, 0x74, 0x69, 0x6f, 0x6e, 0x5f, 0x31, 0x39, 0x2f, 0x46,
  0x75, 0x73, 0x65, 0x64, 0x42, 0x61, 0x74, 0x63, 0x68, 0x4e, 0x6f, 0x72,
  0x6d, 0x56, 0x33, 0x31, 0x00, 0x00, 0x00, 0x00, 0x01, 0x00, 0x00, 0x00,
  0x08, 0x00, 0x00, 0x00, 0x06, 0xf5, 0xff, 0xff, 0x00, 0x00, 0x00, 0x01,
  0x14, 0x00, 0x00, 0x00, 0x88, 0x00, 0x00, 0x00, 0x15, 0x00, 0x00, 0x00,
  0x00, 0x00, 0x00, 0x09, 0x9c, 0x00, 0x00, 0x00, 0xec, 0xf3, 0xff, 0xff,
  0x08, 0x00, 0x00, 0x00, 0x4c, 0x00, 0x00, 0x00, 0x08, 0x00, 0x00, 0x00,
  0x00, 0x00, 0x00, 0x00, 0x00, 0x00, 0x00, 0x00, 0x00, 0x00, 0x00, 0x00,
  0x00, 0x00, 0x00, 0x00, 0x00, 0x00, 0x00, 0x00, 0x00, 0x00, 0x00, 0x00,
  0x00, 0x00, 0x00, 0x00, 0x00, 0x00, 0x00, 0x00, 0x00, 0x00, 0x00, 0x00,
  0x00, 0x00, 0x00, 0x00, 0x00, 0x00, 0x00, 0x00, 0x00, 0x00, 0x00, 0x00,
  0x00, 0x00, 0x00, 0x00, 0x00, 0x00, 0x00, 0x00, 0x00, 0x00, 0x00, 0x00,
  0x00, 0x00, 0x00, 0x00, 0x00, 0x00, 0x00, 0x00, 0x08, 0x00, 0x00, 0x00,
  0xf5, 0xaa, 0x2f, 0x3b, 0xc3, 0xfa, 0x5e, 0x3b, 0x7b, 0xa4, 0x22, 0x3b,
  0x52, 0x8c, 0x1f, 0x3b, 0x0a, 0x81, 0x29, 0x3b, 0x36, 0x16, 0x3c, 0x3b,
  0xad, 0x6a, 0x16, 0x3b, 0xe6, 0x91, 0x4b, 0x3b, 0x18, 0x00, 0x00, 0x00,
  0x6d, 0x6f, 0x64, 0x65, 0x6c, 0x5f, 0x33, 0x2f, 0x63, 0x6f, 0x6e, 0x76,
  0x32, 0x64, 0x5f, 0x32, 0x30, 0x2f, 0x43, 0x6f, 0x6e, 0x76, 0x32, 0x44,
  0x00, 0x00, 0x00, 0x00, 0x04, 0x00, 0x00, 0x00, 0x08, 0x00, 0x00, 0x00,
  0x03, 0x00, 0x00, 0x00, 0x03, 0x00, 0x00, 0x00, 0x08, 0x00, 0x00, 0x00,
  0xce, 0xf5, 0xff, 0xff, 0x00, 0x00, 0x00, 0x01, 0x14, 0x00, 0x00, 0x00,
  0x84, 0x00, 0x00, 0x00, 0x14, 0x00, 0x00, 0x00, 0x00, 0x00, 0x00, 0x02,
  0xa8, 0x00, 0x00, 0x00, 0xb4, 0xf4, 0xff, 0xff, 0x08, 0x00, 0x00, 0x00,
  0x48, 0x00, 0x00, 0x00, 0x08, 0x00, 0x00, 0x00, 0x00, 0x00, 0x00, 0x00,
  0x00, 0x00, 0x00, 0x00, 0x00, 0x00, 0x00, 0x00, 0x00, 0x00, 0x00, 0x00,
  0x00, 0x00, 0x00, 0x00, 0x00, 0x00, 0x00, 0x00, 0x00, 0x00, 0x00, 0x00,
  0x00, 0x00, 0x00, 0x00, 0x00, 0x00, 0x00, 0x00, 0x00, 0x00, 0x00, 0x00,
  0x00, 0x00, 0x00, 0x00, 0x00, 0x00, 0x00, 0x00, 0x00, 0x00, 0x00, 0x00,
  0x00, 0x00, 0x00, 0x00, 0x00, 0x00, 0x00, 0x00, 0x00, 0x00, 0x00, 0x00,
