const unsigned char output_spectrum_painting_model_tflite[] = {
  0x20, 0x00, 0x00, 0x00, 0x54, 0x46, 0x4c, 0x33, 0x00, 0x00, 0x00, 0x00,
  0x14, 0x00, 0x20, 0x00, 0x1c, 0x00, 0x18, 0x00, 0x14, 0x00, 0x10, 0x00,
  0x0c, 0x00, 0x00, 0x00, 0x08, 0x00, 0x04, 0x00, 0x14, 0x00, 0x00, 0x00,
  0x1c, 0x00, 0x00, 0x00, 0x9c, 0x00, 0x00, 0x00, 0xf4, 0x00, 0x00, 0x00,
  0x08, 0x1d, 0x00, 0x00, 0x18, 0x1d, 0x00, 0x00, 0x30, 0x4a, 0x00, 0x00,
  0x03, 0x00, 0x00, 0x00, 0x01, 0x00, 0x00, 0x00, 0x04, 0x00, 0x00, 0x00,
  0xf2, 0xe1, 0xff, 0xff, 0x0c, 0x00, 0x00, 0x00, 0x1c, 0x00, 0x00, 0x00,
  0x38, 0x00, 0x00, 0x00, 0x0f, 0x00, 0x00, 0x00, 0x73, 0x65, 0x72, 0x76,
  0x69, 0x6e, 0x67, 0x5f, 0x64, 0x65, 0x66, 0x61, 0x75, 0x6c, 0x74, 0x00,
  0x01, 0x00, 0x00, 0x00, 0x04, 0x00, 0x00, 0x00, 0x80, 0xff, 0xff, 0xff,
  0x3a, 0x00, 0x00, 0x00, 0x04, 0x00, 0x00, 0x00, 0x07, 0x00, 0x00, 0x00,
  0x64, 0x65, 0x6e, 0x73, 0x65, 0x5f, 0x31, 0x00, 0x02, 0x00, 0x00, 0x00,
  0x1c, 0x00, 0x00, 0x00, 0x04, 0x00, 0x00, 0x00, 0xfa, 0xe1, 0xff, 0xff,
  0x04, 0x00, 0x00, 0x00, 0x07, 0x00, 0x00, 0x00, 0x69, 0x6e, 0x70, 0x75,
  0x74, 0x5f, 0x34, 0x00, 0xb8, 0xff, 0xff, 0xff, 0x01, 0x00, 0x00, 0x00,
  0x04, 0x00, 0x00, 0x00, 0x07, 0x00, 0x00, 0x00, 0x69, 0x6e, 0x70, 0x75,
  0x74, 0x5f, 0x33, 0x00, 0x02, 0x00, 0x00, 0x00, 0x34, 0x00, 0x00, 0x00,
  0x04, 0x00, 0x00, 0x00, 0xdc, 0xff, 0xff, 0xff, 0x3d, 0x00, 0x00, 0x00,
  0x04, 0x00, 0x00, 0x00, 0x13, 0x00, 0x00, 0x00, 0x43, 0x4f, 0x4e, 0x56,
  0x45, 0x52, 0x53, 0x49, 0x4f, 0x4e, 0x5f, 0x4d, 0x45, 0x54, 0x41, 0x44,
  0x41, 0x54, 0x41, 0x00, 0x08, 0x00, 0x0c, 0x00, 0x08, 0x00, 0x04, 0x00,
  0x08, 0x00, 0x00, 0x00, 0x3c, 0x00, 0x00, 0x00, 0x04, 0x00, 0x00, 0x00,
  0x13, 0x00, 0x00, 0x00, 0x6d, 0x69, 0x6e, 0x5f, 0x72, 0x75, 0x6e, 0x74,
  0x69, 0x6d, 0x65, 0x5f, 0x76, 0x65, 0x72, 0x73, 0x69, 0x6f, 0x6e, 0x00,
  0x3e, 0x00, 0x00, 0x00, 0x10, 0x1c, 0x00, 0x00, 0x08, 0x1c, 0x00, 0x00,
  0x00, 0x1c, 0x00, 0x00, 0xe8, 0x1b, 0x00, 0x00, 0xbc, 0x1b, 0x00, 0x00,
  0x2c, 0x18, 0x00, 0x00, 0x14, 0x18, 0x00, 0x00, 0xfc, 0x17, 0x00, 0x00,
  0xcc, 0x17, 0x00, 0x00, 0x7c, 0x15, 0x00, 0x00, 0x64, 0x15, 0x00, 0x00,
  0x4c, 0x15, 0x00, 0x00, 0x1c, 0x15, 0x00, 0x00, 0xcc, 0x0e, 0x00, 0x00,
  0xb4, 0x0e, 0x00, 0x00, 0x9c, 0x0e, 0x00, 0x00, 0x6c, 0x0e, 0x00, 0x00,
  0xd4, 0x0c, 0x00, 0x00, 0xbc, 0x0c, 0x00, 0x00, 0xa4, 0x0c, 0x00, 0x00,
  0x74, 0x0c, 0x00, 0x00, 0x24, 0x0a, 0x00, 0x00, 0x0c, 0x0a, 0x00, 0x00,
  0xf4, 0x09, 0x00, 0x00, 0xc4, 0x09, 0x00, 0x00, 0x74, 0x03, 0x00, 0x00,
  0x5c, 0x03, 0x00, 0x00, 0x44, 0x03, 0x00, 0x00, 0x14, 0x03, 0x00, 0x00,
  0x7c, 0x01, 0x00, 0x00, 0x74, 0x01, 0x00, 0x00, 0x6c, 0x01, 0x00, 0x00,
  0x64, 0x01, 0x00, 0x00, 0x5c, 0x01, 0x00, 0x00, 0x54, 0x01, 0x00, 0x00,
  0x4c, 0x01, 0x00, 0x00, 0x44, 0x01, 0x00, 0x00, 0x3c, 0x01, 0x00, 0x00,
  0x34, 0x01, 0x00, 0x00, 0x2c, 0x01, 0x00, 0x00, 0x24, 0x01, 0x00, 0x00,
  0x1c, 0x01, 0x00, 0x00, 0x14, 0x01, 0x00, 0x00, 0x0c, 0x01, 0x00, 0x00,
  0x04, 0x01, 0x00, 0x00, 0xfc, 0x00, 0x00, 0x00, 0xf4, 0x00, 0x00, 0x00,
  0xec, 0x00, 0x00, 0x00, 0xe4, 0x00, 0x00, 0x00, 0xdc, 0x00, 0x00, 0x00,
  0xd4, 0x00, 0x00, 0x00, 0xcc, 0x00, 0x00, 0x00, 0xc4, 0x00, 0x00, 0x00,
  0xbc, 0x00, 0x00, 0x00, 0xb4, 0x00, 0x00, 0x00, 0xac, 0x00, 0x00, 0x00,
  0xa4, 0x00, 0x00, 0x00, 0x9c, 0x00, 0x00, 0x00, 0x94, 0x00, 0x00, 0x00,
  0x8c, 0x00, 0x00, 0x00, 0x6c, 0x00, 0x00, 0x00, 0x04, 0x00, 0x00, 0x00,
  0x7e, 0xe3, 0xff, 0xff, 0x04, 0x00, 0x00, 0x00, 0x58, 0x00, 0x00, 0x00,
  0x0c, 0x00, 0x00, 0x00, 0x08, 0x00, 0x0e, 0x00, 0x08, 0x00, 0x04, 0x00,
  0x08, 0x00, 0x00, 0x00, 0x10, 0x00, 0x00, 0x00, 0x28, 0x00, 0x00, 0x00,
  0x00, 0x00, 0x06, 0x00, 0x08, 0x00, 0x04, 0x00, 0x06, 0x00, 0x00, 0x00,
  0x04, 0x00, 0x00, 0x00, 0x01, 0x00, 0x00, 0x00, 0xeb, 0x03, 0x00, 0x00,
  0x00, 0x00, 0x0a, 0x00, 0x10, 0x00, 0x0c, 0x00, 0x08, 0x00, 0x04, 0x00,
  0x0a, 0x00, 0x00, 0x00, 0x02, 0x00, 0x00, 0x00, 0x02, 0x00, 0x00, 0x00,
  0x04, 0x00, 0x00, 0x00, 0x06, 0x00, 0x00, 0x00, 0x32, 0x2e, 0x31, 0x34,
  0x2e, 0x30, 0x00, 0x00, 0xe2, 0xe3, 0xff, 0xff, 0x04, 0x00, 0x00, 0x00,
  0x10, 0x00, 0x00, 0x00, 0x31, 0x2e, 0x31, 0x34, 0x2e, 0x30, 0x00, 0x00,
  0x00, 0x00, 0x00, 0x00, 0x00, 0x00, 0x00, 0x00, 0x9c, 0xb9, 0xff, 0xff,
  0xa0, 0xb9, 0xff, 0xff, 0xa4, 0xb9, 0xff, 0xff, 0xa8, 0xb9, 0xff, 0xff,
  0xac, 0xb9, 0xff, 0xff, 0xb0, 0xb9, 0xff, 0xff, 0xb4, 0xb9, 0xff, 0xff,
  0xb8, 0xb9, 0xff, 0xff, 0xbc, 0xb9, 0xff, 0xff, 0xc0, 0xb9, 0xff, 0xff,
  0xc4, 0xb9, 0xff, 0xff, 0xc8, 0xb9, 0xff, 0xff, 0xcc, 0xb9, 0xff, 0xff,
  0xd0, 0xb9, 0xff, 0xff, 0xd4, 0xb9, 0xff, 0xff, 0xd8, 0xb9, 0xff, 0xff,
  0xdc, 0xb9, 0xff, 0xff, 0xe0, 0xb9, 0xff, 0xff, 0xe4, 0xb9, 0xff, 0xff,
  0xe8, 0xb9, 0xff, 0xff, 0xec, 0xb9, 0xff, 0xff, 0xf0, 0xb9, 0xff, 0xff,
  0xf4, 0xb9, 0xff, 0xff, 0xf8, 0xb9, 0xff, 0xff, 0xfc, 0xb9, 0xff, 0xff,
  0x00, 0xba, 0xff, 0xff, 0x04, 0xba, 0xff, 0xff, 0x08, 0xba, 0xff, 0xff,
  0x0c, 0xba, 0xff, 0xff, 0x10, 0xba, 0xff, 0xff, 0x76, 0xe4, 0xff, 0xff,
  0x04, 0x00, 0x00, 0x00, 0x88, 0x01, 0x00, 0x00, 0x1b, 0x46, 0xa7, 0xcf,
  0x39, 0x09, 0x3c, 0x2b, 0xb3, 0x1e, 0xd7, 0xe6, 0x17, 0x9d, 0x43, 0x58,
  0x39, 0xb7, 0xf6, 0xd4, 0xb7, 0x10, 0x25, 0xb8, 0xa5, 0xca, 0xe2, 0x29,
  0x94, 0xef, 0x81, 0x02, 0xf4, 0x0e, 0x28, 0xce, 0x2d, 0xd3, 0x63, 0x3d,
  0x38, 0xd6, 0x91, 0xc0, 0xe6, 0x6b, 0x6c, 0x35, 0x1d, 0xeb, 0xec, 0x96,
  0x8d, 0x53, 0x31, 0xff, 0x12, 0xdd, 0xc9, 0x8d, 0x81, 0xa1, 0xc0, 0xfe,
  0x05, 0xbd, 0xcb, 0xf6, 0xe6, 0xb9, 0x01, 0xff, 0xf0, 0xf0, 0x4d, 0x08,
  0x00, 0x2b, 0xc2, 0x19, 0x33, 0x7b, 0x3f, 0x1e, 0x1b, 0xd0, 0xcd, 0x38,
  0x56, 0xb4, 0xf0, 0xd5, 0x28, 0xc0, 0x27, 0xfe, 0x24, 0xdb, 0x1b, 0x71,
  0x68, 0x2a, 0x23, 0xcc, 0x0e, 0x19, 0x0c, 0xdf, 0x13, 0x4e, 0xb8, 0x36,
  0x16, 0x2a, 0x19, 0x23, 0xc0, 0xa7, 0x0b, 0xe7, 0x47, 0xc6, 0xe7, 0xd6,
  0xd2, 0x57, 0x1a, 0x12, 0xa9, 0xed, 0xf5, 0xe5, 0x2b, 0xd5, 0x00, 0x07,
  0xc3, 0xf3, 0x81, 0x88, 0x12, 0x45, 0xce, 0xf1, 0xec, 0x4a, 0xed, 0xd0,
  0x0a, 0xe0, 0xa5, 0xe8, 0x9e, 0x98, 0xe8, 0xf9, 0x01, 0xe9, 0xba, 0x33,
  0x81, 0x09, 0x2d, 0xa1, 0x2a, 0x92, 0x96, 0xe4, 0x5f, 0x1d, 0x69, 0xe8,
  0x61, 0x65, 0x95, 0x39, 0x10, 0xdd, 0x50, 0x73, 0x24, 0xc9, 0xa9, 0xad,
  0xa1, 0xf3, 0xf2, 0x3f, 0xf4, 0x5e, 0xe5, 0x9f, 0x5e, 0x69, 0x57, 0xda,
  0xfd, 0x1c, 0xc2, 0x60, 0x5a, 0x3b, 0x6e, 0x60, 0xff, 0xd6, 0x01, 0x7f,
  0xff, 0x35, 0x15, 0x57, 0xfb, 0xe2, 0x3d, 0x01, 0x0e, 0xe3, 0x04, 0x3e,
  0xe0, 0x4d, 0xef, 0xdb, 0x0a, 0x9e, 0xf7, 0x04, 0x57, 0xbd, 0xe0, 0x1c,
  0x3b, 0x09, 0x4f, 0x68, 0xd5, 0x59, 0xdd, 0x9f, 0x18, 0x55, 0x4e, 0xfa,
  0x72, 0x0c, 0x21, 0xbf, 0x9f, 0x60, 0x7d, 0x5a, 0x3f, 0x3b, 0xd1, 0xe9,
  0x4e, 0x06, 0xe7, 0x1d, 0x0d, 0x0f, 0xd1, 0xc5, 0x02, 0xe3, 0x32, 0xc8,
  0xdd, 0x1d, 0xc5, 0x4e, 0xe0, 0x36, 0xa3, 0x03, 0xfd, 0xde, 0x14, 0x27,
  0xe7, 0x81, 0xe5, 0xf0, 0xf4, 0x0c, 0x8f, 0xf3, 0x3f, 0x00, 0x03, 0xe9,
  0xc0, 0x64, 0xfa, 0x24, 0xee, 0x4b, 0x12, 0xf2, 0x27, 0x52, 0xf2, 0xb9,
  0x92, 0x85, 0xbb, 0x20, 0x1a, 0x9b, 0xe6, 0x15, 0xac, 0x52, 0x2b, 0x17,
  0xd0, 0xdd, 0x85, 0x81, 0xee, 0xf6, 0x5f, 0xc8, 0xcd, 0xec, 0xcd, 0xbc,
  0x02, 0x30, 0xed, 0x1d, 0xe1, 0x43, 0x13, 0x73, 0x64, 0x0e, 0xcf, 0xa6,
  0xb3, 0x1b, 0xcd, 0xf4, 0xff, 0x21, 0xbf, 0x99, 0x3c, 0x85, 0x02, 0xb3,
  0xc3, 0xb4, 0x85, 0x81, 0xc9, 0x5c, 0x78, 0x01, 0xda, 0x11, 0x2b, 0xe5,
  0x21, 0xef, 0xe9, 0x1c, 0x4e, 0xe0, 0x28, 0x51, 0x4d, 0x3c, 0x33, 0xe5,
  0x14, 0xaa, 0x6f, 0x46, 0x76, 0x2d, 0x38, 0xd4, 0x01, 0x1a, 0x30, 0x0a,
  0x4b, 0xbe, 0xa3, 0x1a, 0x0a, 0xe6, 0xff, 0xff, 0x04, 0x00, 0x00, 0x00,
  0x20, 0x00, 0x00, 0x00, 0xb2, 0xff, 0xff, 0xff, 0x13, 0x00, 0x00, 0x00,
  0xff, 0xff, 0xff, 0xff, 0x40, 0xff, 0xff, 0xff, 0x69, 0x00, 0x00, 0x00,
  0xf3, 0xff, 0xff, 0xff, 0x6a, 0xff, 0xff, 0xff, 0x06, 0x00, 0x00, 0x00,
  0x36, 0xe6, 0xff, 0xff, 0x04, 0x00, 0x00, 0x00, 0x08, 0x00, 0x00, 0x00,
  0xe1, 0xcd, 0xb9, 0xd4, 0xa5, 0xdf, 0x7f, 0xa9, 0x4a, 0xe6, 0xff, 0xff,
  0x04, 0x00, 0x00, 0x00, 0x08, 0x00, 0x00, 0x00, 0xf6, 0x0e, 0x08, 0xad,
  0x80, 0xe7, 0xed, 0xca, 0x5e, 0xe6, 0xff, 0xff, 0x04, 0x00, 0x00, 0x00,
  0x40, 0x06, 0x00, 0x00, 0xa3, 0x23, 0xa9, 0x2f, 0xb9, 0x11, 0x7e, 0x3f,
  0x49, 0x29, 0x1b, 0xf6, 0x23, 0xa2, 0x2b, 0x23, 0x3a, 0x4f, 0x28, 0x59,
  0xfe, 0xb5, 0x9c, 0x33, 0x48, 0x15, 0xfe, 0x31, 0x10, 0x3a, 0xf9, 0x4d,
  0xb2, 0xe6, 0xd2, 0xe6, 0xaa, 0xef, 0xfb, 0xaf, 0x3f, 0x2e, 0x5c, 0x19,
  0xd9, 0x51, 0x76, 0xf5, 0x04, 0xfa, 0xa9, 0x2b, 0xc0, 0xc6, 0xea, 0x0b,
  0x81, 0x0a, 0x15, 0x53, 0xba, 0xb4, 0x15, 0x56, 0xf3, 0xb7, 0x3e, 0xe9,
  0xf4, 0x0e, 0x1f, 0x37, 0x26, 0xff, 0xd3, 0xcb, 0x20, 0x3e, 0x58, 0x19,
  0x1e, 0x95, 0x07, 0x30, 0xc9, 0xc2, 0xe7, 0x42, 0xea, 0xc2, 0xff, 0xe8,
  0xb5, 0x4c, 0x12, 0x59, 0xb4, 0xa0, 0xe6, 0xf9, 0xc7, 0xda, 0xd9, 0xd3,
  0xe1, 0x12, 0x4c, 0xf9, 0x98, 0x35, 0x2c, 0x26, 0x30, 0xe6, 0xb4, 0x29,
  0x03, 0x21, 0xd3, 0xec, 0x0e, 0x48, 0x42, 0xfd, 0xae, 0x1f, 0x2e, 0xf1,
  0xfd, 0x26, 0xb2, 0xc3, 0x2b, 0x48, 0x1e, 0xe2, 0x15, 0xf9, 0xd2, 0x13,
  0xb6, 0xbf, 0xdd, 0x1a, 0xf5, 0x9f, 0x0d, 0xe6, 0xeb, 0xf5, 0xf7, 0xea,
  0x20, 0x63, 0x93, 0x4d, 0xfd, 0x96, 0x0d, 0xab, 0x48, 0xc7, 0xfc, 0x1c,
  0x0e, 0xcc, 0xdf, 0x34, 0xb0, 0x1e, 0xbd, 0x24, 0xad, 0x04, 0xd6, 0x64,
  0x1b, 0x4c, 0x1b, 0x00, 0x22, 0x22, 0x4a, 0xd7, 0x24, 0x98, 0xd4, 0x23,
  0x93, 0xa6, 0x4a, 0xaa, 0xb8, 0xba, 0x99, 0x9d, 0x13, 0x57, 0x28, 0xae,
  0xfd, 0xc6, 0x29, 0xf3, 0xf6, 0x23, 0xd2, 0xba, 0x48, 0xe9, 0x10, 0xc8,
  0xd9, 0x03, 0xbf, 0x29, 0xe6, 0x19, 0x31, 0xcd, 0x1a, 0xe0, 0x0f, 0xda,
  0xc5, 0x28, 0xdc, 0xb4, 0xee, 0x14, 0x2c, 0x03, 0x1f, 0xcb, 0x1a, 0x10,
  0x43, 0x18, 0xe6, 0xd8, 0xd8, 0x19, 0xe6, 0x09, 0x09, 0xb9, 0x39, 0x0c,
  0x37, 0xea, 0xf5, 0x37, 0x2b, 0xd1, 0xc7, 0x3c, 0xf2, 0x11, 0x0a, 0x36,
  0xe9, 0x19, 0x12, 0x12, 0x2d, 0xc4, 0xe0, 0xd4, 0x1a, 0xe4, 0xf7, 0xec,
  0xe1, 0x37, 0xe7, 0x49, 0xff, 0xf8, 0xf1, 0x42, 0xd9, 0xdb, 0x16, 0x06,
  0xe4, 0x2b, 0x81, 0x1c, 0xf3, 0xf8, 0xf1, 0x21, 0x08, 0x05, 0x10, 0xcc,
  0xfc, 0xf0, 0x38, 0x28, 0x24, 0x0f, 0x0f, 0xda, 0xc7, 0x0e, 0xe0, 0xf8,
  0x4a, 0x3d, 0x30, 0xda, 0x1c, 0xc3, 0x4c, 0xf0, 0x2e, 0x21, 0xc1, 0x09,
  0x60, 0x3c, 0xc2, 0xf4, 0xdb, 0xf2, 0xe1, 0x21, 0xdd, 0x23, 0xd0, 0x18,
  0x38, 0x25, 0x21, 0xf9, 0xc9, 0xe0, 0xd8, 0xf7, 0x06, 0x01, 0xb9, 0xd2,
  0x11, 0x42, 0x0e, 0x2d, 0x25, 0xec, 0x11, 0x2a, 0xe8, 0x35, 0x14, 0x1b,
  0x09, 0x34, 0x27, 0xbe, 0x1e, 0x16, 0xc1, 0x6a, 0x06, 0xca, 0x2a, 0x6d,
  0xff, 0xf6, 0xb3, 0xe7, 0xdd, 0x22, 0xda, 0x50, 0xcc, 0x1d, 0x0f, 0xff,
  0x38, 0xdd, 0xfa, 0xe8, 0x25, 0x27, 0x0c, 0x28, 0x00, 0xd7, 0xda, 0x16,
  0xdf, 0x34, 0x04, 0x00, 0x2b, 0x01, 0xd3, 0x54, 0x2d, 0x35, 0xec, 0x2c,
  0xea, 0xbd, 0xc7, 0xc6, 0x3b, 0x2d, 0x0b, 0x27, 0x60, 0x12, 0xd4, 0xd2,
  0x15, 0x0b, 0x07, 0xb8, 0x55, 0x6b, 0x10, 0xcb, 0xcb, 0x95, 0xea, 0xc5,
  0x34, 0xfa, 0xb1, 0xd6, 0x16, 0x9d, 0xf8, 0xe5, 0x3b, 0xc1, 0x45, 0x02,
  0xfd, 0x2c, 0x3c, 0x48, 0xed, 0xef, 0x05, 0x2a, 0xb4, 0x08, 0xf9, 0xea,
  0x20, 0x06, 0xdc, 0xe7, 0xe6, 0xcd, 0x29, 0x03, 0xef, 0xf8, 0x35, 0xfc,
  0x0c, 0x2d, 0xd2, 0x24, 0x35, 0xde, 0xb9, 0x44, 0xba, 0x0c, 0xfb, 0xdb,
  0x2e, 0x1e, 0x91, 0x0e, 0xbd, 0x07, 0xee, 0xcb, 0x0e, 0xf5, 0xe3, 0xd5,
  0x3a, 0xee, 0xf7, 0x55, 0x2c, 0x24, 0xdd, 0x38, 0x5a, 0x2a, 0x38, 0x97,
  0xd8, 0x11, 0xfc, 0x1f, 0x00, 0xdc, 0x0f, 0xa0, 0x37, 0x2c, 0xfe, 0xee,
  0x55, 0xe8, 0x22, 0x1b, 0xb8, 0x16, 0x2e, 0x0a, 0xc0, 0x88, 0xe5, 0xb3,
  0x3d, 0xaf, 0x10, 0x21, 0x6a, 0x6a, 0x4a, 0x1f, 0x22, 0x4a, 0xda, 0xa8,
  0x40, 0x2a, 0xd8, 0xce, 0x1a, 0x12, 0xb3, 0xfd, 0xff, 0xcd, 0xcf, 0xe6,
  0xf0, 0x0b, 0x0b, 0x16, 0xf2, 0xc9, 0x1a, 0x44, 0x21, 0xd8, 0x54, 0xcd,
  0xe8, 0x8c, 0xd0, 0x41, 0x2d, 0x7a, 0xfc, 0xde, 0x1d, 0x0b, 0xf6, 0xe2,
  0x39, 0x00, 0x0f, 0x12, 0x5c, 0x35, 0xea, 0x43, 0x17, 0xcd, 0x81, 0x14,
  0xb9, 0xd3, 0x00, 0xc9, 0xf9, 0x23, 0x13, 0x3d, 0xf5, 0x36, 0x3a, 0x50,
  0x2d, 0x35, 0xe0, 0x1b, 0x05, 0x87, 0xce, 0xe5, 0xbe, 0x0a, 0xe9, 0x2c,
  0xda, 0x2f, 0x85, 0xf4, 0xf7, 0xc4, 0x98, 0x87, 0x0c, 0x24, 0x0d, 0xed,
  0x04, 0x04, 0xa8, 0x0c, 0x07, 0x8b, 0x0e, 0x07, 0xda, 0x4d, 0x67, 0x28,
  0xdf, 0x20, 0x50, 0xd2, 0xd9, 0xa0, 0x5c, 0xba, 0x59, 0x0f, 0x46, 0xd6,
  0x3c, 0xcd, 0x39, 0xc8, 0x5e, 0x40, 0xcd, 0xb1, 0x15, 0x1b, 0x3c, 0x16,
  0xa2, 0x3e, 0xe5, 0xec, 0xca, 0xee, 0xc9, 0xf2, 0xa8, 0xb3, 0xa7, 0xb3,
  0x9c, 0xa0, 0xd7, 0x5c, 0xde, 0xa5, 0x29, 0x06, 0x1d, 0xfa, 0xf0, 0xa8,
  0xef, 0xd8, 0xdd, 0x07, 0xc3, 0xac, 0x0f, 0xd3, 0x0f, 0xd7, 0x81, 0x08,
  0x17, 0x1d, 0xca, 0xcf, 0x15, 0x38, 0x33, 0x26, 0xd1, 0xa2, 0xa9, 0xf3,
  0xf6, 0xf4, 0x02, 0x22, 0x04, 0x1b, 0xc9, 0x1a, 0x20, 0xf1, 0x2a, 0x05,
  0xbc, 0xec, 0x5d, 0xe9, 0x28, 0xf6, 0x0d, 0xee, 0xfb, 0xc9, 0x35, 0x40,
  0xf2, 0x00, 0x2c, 0x1b, 0x1b, 0x56, 0xa6, 0xe9, 0x09, 0x1d, 0x09, 0xf5,
  0xec, 0xb0, 0xfc, 0x25, 0xde, 0xa4, 0xdc, 0xa9, 0x85, 0xf7, 0xfd, 0xb4,
  0xdb, 0xb2, 0xa7, 0xd1, 0xa9, 0xa7, 0xdc, 0x38, 0xc9, 0x24, 0x22, 0x2d,
  0x02, 0xfc, 0x0e, 0xba, 0xd7, 0x34, 0x3e, 0x22, 0xef, 0x27, 0x1b, 0xca,
  0x1d, 0x1a, 0xfc, 0x73, 0x0e, 0xbf, 0x1a, 0xe8, 0x36, 0x96, 0x05, 0x25,
  0xce, 0x07, 0xdd, 0xc1, 0x46, 0xac, 0xea, 0xb9, 0x38, 0xff, 0xa6, 0xf9,
  0xdf, 0x18, 0x1a, 0x01, 0x42, 0x37, 0x3e, 0x19, 0x06, 0x1a, 0x51, 0x20,
  0xe2, 0x55, 0xfc, 0xcd, 0xfa, 0x32, 0x39, 0xd9, 0x22, 0xf0, 0x60, 0x9f,
  0xe9, 0xe9, 0xf9, 0x1f, 0x12, 0xfe, 0xda, 0x1f, 0x1e, 0x01, 0xe9, 0x3a,
  0xf5, 0xd1, 0xf4, 0x39, 0xfc, 0x13, 0x49, 0x27, 0xe4, 0x16, 0xd8, 0x5a,
  0x0e, 0xfa, 0x18, 0xfa, 0xaa, 0x28, 0xf2, 0xf8, 0xdb, 0x6d, 0x0d, 0x30,
  0xc5, 0xd7, 0xd9, 0x0d, 0xb4, 0x72, 0x52, 0x5a, 0xf8, 0xe0, 0x1a, 0xfb,
  0x08, 0xf3, 0x91, 0x06, 0xb8, 0x81, 0xe7, 0x19, 0xf2, 0xf7, 0xe6, 0x46,
  0x23, 0xaa, 0x1d, 0x2e, 0x23, 0x43, 0xed, 0x4a, 0x16, 0xbb, 0xb7, 0x32,
  0xf1, 0xe0, 0xc7, 0x3f, 0xe8, 0x20, 0x28, 0x05, 0xc5, 0xec, 0xe4, 0x03,
  0x19, 0x2f, 0x0a, 0x11, 0x05, 0xf6, 0xe1, 0x08, 0xe1, 0x4f, 0x0d, 0x00,
  0x32, 0xdd, 0xfe, 0x13, 0x30, 0x41, 0x5e, 0x29, 0xed, 0x42, 0x33, 0x1e,
  0x63, 0x70, 0x65, 0x34, 0x2b, 0x0f, 0x0c, 0x5c, 0x46, 0x6c, 0x37, 0x11,
  0x1b, 0x07, 0x56, 0x45, 0x23, 0x32, 0x00, 0xe1, 0xd6, 0x2a, 0x31, 0x14,
  0x19, 0xf8, 0xb0, 0xf8, 0xf8, 0x0e, 0x34, 0x24, 0x04, 0x46, 0xde, 0x46,
  0xb2, 0xca, 0xda, 0x43, 0xe9, 0x08, 0xcc, 0x10, 0xe7, 0x0d, 0xc5, 0x43,
  0xc8, 0x0f, 0x2c, 0x39, 0x86, 0x02, 0xeb, 0xf5, 0x1c, 0xcb, 0x13, 0xc2,
  0xee, 0x00, 0x0c, 0x55, 0xcf, 0xe8, 0xfa, 0x01, 0x11, 0xb1, 0x37, 0x0d,
  0xff, 0x0b, 0x46, 0xad, 0xff, 0x1f, 0x27, 0x9c, 0xd2, 0x26, 0x31, 0x18,
  0x02, 0x3d, 0x01, 0xa8, 0x08, 0x7f, 0xc9, 0xec, 0xce, 0x45, 0x3a, 0xd1,
  0x7b, 0xeb, 0xd5, 0xd9, 0x12, 0xfb, 0x03, 0x34, 0x1c, 0x50, 0x0b, 0xdf,
  0x03, 0x32, 0x4d, 0x37, 0x15, 0x10, 0x47, 0x49, 0x1e, 0xf7, 0xa8, 0x22,
  0x19, 0x27, 0x0c, 0x40, 0xda, 0x05, 0x45, 0x00, 0x53, 0x74, 0xc2, 0xfa,
  0xf5, 0xf5, 0xc5, 0x2f, 0xd9, 0x30, 0x09, 0x2c, 0xd8, 0x0b, 0x69, 0xfb,
  0x13, 0xf9, 0x01, 0xfe, 0xd7, 0x4a, 0x07, 0xed, 0xc9, 0x1a, 0x22, 0x0e,
  0x34, 0x37, 0x17, 0x17, 0xed, 0xbd, 0xcb, 0x33, 0x1c, 0xe9, 0x0f, 0xa2,
  0x44, 0x4a, 0xa7, 0x42, 0xbe, 0xbc, 0xc2, 0xd1, 0xdd, 0x32, 0x8a, 0xd1,
  0xd2, 0xfc, 0xe2, 0xfd, 0xf0, 0x2f, 0xa0, 0xcd, 0x54, 0x59, 0x62, 0xf7,
  0x41, 0x7f, 0x15, 0xc9, 0xd3, 0xee, 0x56, 0x9f, 0x47, 0x4c, 0x17, 0xa7,
  0xbe, 0xf3, 0xdd, 0x02, 0x5a, 0x6b, 0x52, 0xd1, 0x0f, 0xdb, 0xd0, 0x0d,
  0x32, 0xd3, 0xea, 0xfd, 0xbb, 0xb7, 0x47, 0xb5, 0xcc, 0xc7, 0x31, 0xad,
  0x63, 0x4d, 0xf8, 0x2d, 0x14, 0x0c, 0x45, 0x26, 0x0b, 0x31, 0xf0, 0x4b,
  0xda, 0x07, 0x74, 0xbb, 0xee, 0xe5, 0xda, 0x20, 0x38, 0xcf, 0x64, 0x43,
  0x19, 0x15, 0xd2, 0x3a, 0xff, 0x38, 0xd1, 0xdd, 0x78, 0xb9, 0xe7, 0x3a,
  0xf1, 0xfd, 0xc6, 0x38, 0x14, 0x45, 0x1a, 0xe7, 0xc1, 0x81, 0xf8, 0xda,
  0xd7, 0x18, 0xd8, 0x11, 0x03, 0x0c, 0x9d, 0x54, 0x36, 0xdf, 0xdb, 0x19,
  0xf7, 0x22, 0xc2, 0xe0, 0x56, 0xf7, 0x81, 0xd9, 0x26, 0xeb, 0xab, 0xfb,
  0xf7, 0xd2, 0xb2, 0x0f, 0x0d, 0xc3, 0xa6, 0x3f, 0xf0, 0x3a, 0xe2, 0xda,
  0x38, 0x1c, 0x4d, 0x02, 0x37, 0x48, 0xe6, 0xea, 0x10, 0xde, 0x46, 0x19,
  0x0b, 0x1a, 0x2c, 0x2b, 0xeb, 0xdf, 0xda, 0x2d, 0x5e, 0x0c, 0xf9, 0xe5,
  0x3a, 0x31, 0x21, 0xf5, 0x0a, 0x31, 0xe6, 0x08, 0x1f, 0x55, 0x08, 0x36,
  0xdb, 0xd9, 0xf6, 0x50, 0x12, 0xde, 0x78, 0x17, 0x15, 0x4e, 0x3e, 0x24,
  0xc0, 0xec, 0x3a, 0x12, 0xf7, 0xf7, 0x01, 0x3d, 0x0a, 0xc2, 0xf9, 0x4c,
  0x1e, 0xd6, 0xd6, 0x5b, 0xfb, 0x07, 0x0f, 0x2c, 0xe0, 0x06, 0xdf, 0x2f,
  0x3e, 0x1b, 0x3a, 0x07, 0xe0, 0xe3, 0x5d, 0xe8, 0x0a, 0x2c, 0x28, 0x08,
  0xac, 0x21, 0x3f, 0x17, 0xe9, 0xed, 0xf6, 0x22, 0xfa, 0xc9, 0x28, 0x0f,
  0xed, 0xd0, 0xe9, 0x11, 0xfa, 0xf1, 0x08, 0xe1, 0x0b, 0xd5, 0x5b, 0xfa,
  0x43, 0xd3, 0xe4, 0x45, 0x34, 0x37, 0x19, 0xf2, 0xe1, 0x9a, 0x1f, 0xab,
  0x03, 0xd2, 0xb9, 0xaf, 0xe0, 0x02, 0x25, 0xea, 0x13, 0x2c, 0xee, 0xec,
  0xf6, 0x93, 0x49, 0xe1, 0x19, 0x08, 0xfa, 0xa9, 0xce, 0x3c, 0x41, 0xc4,
  0xd5, 0xf6, 0xef, 0x15, 0xa3, 0xed, 0xfd, 0xc7, 0x10, 0xc9, 0xe4, 0xe0,
  0x15, 0x1e, 0xb6, 0xdf, 0x08, 0x1d, 0xbd, 0xea, 0x3f, 0x42, 0xc6, 0xd3,
  0x1f, 0xcb, 0xd3, 0x38, 0xea, 0x23, 0x1f, 0xd5, 0xc9, 0x05, 0x34, 0x07,
  0xe9, 0xdd, 0x0f, 0x08, 0xde, 0x08, 0x07, 0x35, 0xdc, 0xb2, 0xda, 0xe8,
  0xcb, 0xc4, 0x42, 0xc1, 0xc3, 0xfa, 0x0c, 0xe0, 0x16, 0xf3, 0x15, 0xca,
  0x6c, 0x5b, 0xdf, 0x58, 0x1e, 0x2d, 0x13, 0x2d, 0x21, 0xe1, 0xd6, 0x08,
  0xe7, 0x13, 0xe9, 0x1d, 0x11, 0xc2, 0x5c, 0xd3, 0xd5, 0x9f, 0xea, 0xbe,
  0x4f, 0x31, 0xfc, 0x08, 0x11, 0xd3, 0x08, 0xf5, 0x0d, 0x0a, 0x26, 0x12,
  0xee, 0x1d, 0x19, 0xe9, 0xba, 0xf4, 0x27, 0xd9, 0xb2, 0xbe, 0x0a, 0xcb,
  0x15, 0x03, 0xc1, 0x2b, 0xb3, 0xf7, 0xee, 0xc5, 0x4d, 0xcd, 0x1a, 0xee,
  0x16, 0xac, 0xce, 0xdb, 0x58, 0x43, 0xb4, 0x17, 0xf0, 0x32, 0x26, 0x3c,
  0x23, 0x05, 0xe9, 0xab, 0xb6, 0xca, 0x3e, 0x05, 0x9f, 0xc2, 0x04, 0xa0,
  0x04, 0x18, 0x1c, 0x06, 0xa1, 0xd0, 0x19, 0xf1, 0xc5, 0xd1, 0x5c, 0xab,
  0x4b, 0x07, 0x5e, 0x27, 0xf0, 0xcb, 0xf6, 0xe8, 0x4c, 0x1f, 0x36, 0x30,
  0xfd, 0x03, 0x14, 0x13, 0xcb, 0x0f, 0xc7, 0x4f, 0xee, 0xb2, 0x05, 0xf1,
  0x28, 0xd0, 0xbf, 0xfa, 0xde, 0xe4, 0x45, 0x34, 0xf6, 0x81, 0x34, 0xc8,
  0xea, 0xc1, 0x65, 0x02, 0xcb, 0xf6, 0xe0, 0xf5, 0xc4, 0xee, 0x1c, 0xd2,
  0xae, 0xf7, 0x2c, 0xdb, 0xd7, 0x06, 0xfb, 0x9c, 0xaa, 0xec, 0xff, 0xff,
  0x04, 0x00, 0x00, 0x00, 0x20, 0x00, 0x00, 0x00, 0x4d, 0xf7, 0xff, 0xff,
  0xb3, 0xfd, 0xff, 0xff, 0x8f, 0x01, 0x00, 0x00, 0xf6, 0xfe, 0xff, 0xff,
  0x51, 0x03, 0x00, 0x00, 0x2d, 0x01, 0x00, 0x00, 0x12, 0xfe, 0xff, 0xff,
  0xa1, 0x03, 0x00, 0x00, 0xd6, 0xec, 0xff, 0xff, 0x04, 0x00, 0x00, 0x00,
  0x08, 0x00, 0x00, 0x00, 0x77, 0x00, 0x0a, 0x7f, 0xce, 0xd9, 0xe2, 0x43,
  0xea, 0xec, 0xff, 0xff, 0x04, 0x00, 0x00, 0x00, 0x08, 0x00, 0x00, 0x00,
  0xe6, 0xe6, 0xc2, 0xbf, 0x84, 0x80, 0xc9, 0xbb, 0xfe, 0xec, 0xff, 0xff,
  0x04, 0x00, 0x00, 0x00, 0x40, 0x02, 0x00, 0x00, 0xf2, 0xcb, 0xb6, 0x18,
  0xdb, 0x2c, 0xd5, 0x1e, 0x4d, 0xea, 0x28, 0x1d, 0xcf, 0xd3, 0x61, 0x69,
  0xcd, 0xc8, 0x05, 0xa4, 0xff, 0xfb, 0x17, 0xe2, 0x1d, 0xac, 0xf3, 0xd4,
  0xb0, 0xe4, 0xd6, 0x3d, 0x7f, 0xe7, 0xbc, 0x26, 0xd8, 0xc5, 0x44, 0xfc,
  0x36, 0xbc, 0x5b, 0x53, 0xbb, 0x12, 0xff, 0x52, 0xcf, 0x66, 0xef, 0x59,
  0xea, 0x9d, 0xe0, 0xdb, 0x34, 0xd1, 0x36, 0xe5, 0xda, 0x34, 0x06, 0xd4,
  0x6a, 0x12, 0x34, 0x3f, 0x14, 0xab, 0x36, 0x39, 0xd4, 0x12, 0x11, 0x19,
  0xe1, 0xcd, 0x0f, 0xd6, 0xcd, 0xd6, 0x00, 0x32, 0x2a, 0xbe, 0xcc, 0xe2,
  0x15, 0xeb, 0xd2, 0xe2, 0x4e, 0xd8, 0x26, 0x05, 0xdf, 0xd4, 0x4c, 0x5b,
  0xf2, 0x09, 0xfc, 0xd6, 0xdd, 0xd6, 0xef, 0x04, 0x17, 0x0f, 0xca, 0xde,
  0x16, 0xd0, 0xfb, 0xf2, 0x1d, 0xe6, 0xea, 0xb1, 0xf1, 0xde, 0x7f, 0xb9,
  0x1d, 0xfd, 0x24, 0xb6, 0xce, 0x50, 0xe1, 0xb9, 0x30, 0x45, 0x0d, 0xd7,
  0x2d, 0xfb, 0xe3, 0xc9, 0xff, 0xd9, 0xd2, 0xf5, 0x40, 0xe2, 0x16, 0xb8,
  0xc5, 0x7c, 0xda, 0xaf, 0x21, 0xfe, 0x9c, 0xe5, 0xea, 0xac, 0x29, 0x03,
  0x5c, 0xef, 0xaa, 0x4c, 0xb8, 0x8a, 0x41, 0x34, 0xcf, 0x22, 0xac, 0x60,
  0xd1, 0x16, 0x7f, 0x29, 0x82, 0xc3, 0x16, 0xf3, 0xfa, 0xa6, 0x14, 0xe8,
  0x56, 0xe7, 0xe0, 0x5b, 0x91, 0xa6, 0x4f, 0x47, 0xa7, 0xff, 0xc0, 0xc8,
  0x1c, 0x14, 0xaf, 0x19, 0x5e, 0xb4, 0x1d, 0xee, 0xde, 0xc4, 0x14, 0xed,
  0xc3, 0x35, 0xd7, 0xce, 0xba, 0xac, 0xe2, 0x58, 0x3d, 0xa5, 0xc3, 0xeb,
  0xd4, 0xfa, 0xf1, 0xca, 0x1d, 0x2f, 0xbf, 0xd6, 0x2a, 0xbe, 0x16, 0xf0,
  0xb9, 0x01, 0x56, 0xb6, 0x0c, 0x7f, 0xb9, 0xf7, 0x77, 0x38, 0xf1, 0xf1,
  0x5f, 0xa8, 0xcb, 0xec, 0xf5, 0x1b, 0x5b, 0x1c, 0xeb, 0xba, 0xea, 0xc6,
  0xe1, 0x60, 0xd2, 0x0b, 0xb2, 0x3e, 0x3f, 0x99, 0xcf, 0xc9, 0xf5, 0xfa,
  0x3e, 0x10, 0xd1, 0xbe, 0xf8, 0x1a, 0x02, 0xf4, 0x01, 0x14, 0x0e, 0x1f,
  0xa0, 0x3f, 0xcb, 0xb9, 0x44, 0x9b, 0x18, 0xc9, 0xc8, 0xc7, 0xf0, 0x38,
  0xd8, 0x2a, 0xd8, 0x53, 0xc3, 0x00, 0x9b, 0x0f, 0x3b, 0x3e, 0x1e, 0xdf,
  0x52, 0xc5, 0xe4, 0xcb, 0x22, 0x61, 0xfa, 0xfa, 0xdc, 0xca, 0x0a, 0xa8,
  0x50, 0xc4, 0x9b, 0x37, 0x8b, 0xaa, 0xc0, 0x2b, 0x17, 0x22, 0x53, 0xa8,
  0xc2, 0x7c, 0xed, 0x75, 0x30, 0x18, 0xe0, 0x01, 0xfc, 0x27, 0xa1, 0x81,
  0x44, 0xdc, 0x32, 0xe4, 0xe5, 0xb8, 0x01, 0xcb, 0x4b, 0x23, 0x3d, 0x04,
  0xdb, 0x24, 0xfc, 0x64, 0xec, 0x1e, 0x3e, 0x2c, 0xe5, 0x0b, 0x2a, 0xb5,
  0x11, 0x34, 0xc8, 0xcd, 0xce, 0xa6, 0xbd, 0xa1, 0x22, 0xfd, 0xef, 0xcf,
  0xc9, 0x06, 0x31, 0x08, 0xbb, 0xfd, 0xcb, 0x18, 0xe9, 0xd0, 0x6d, 0xd1,
  0x5b, 0x22, 0x16, 0xca, 0xcf, 0x60, 0xfc, 0xae, 0xef, 0x3b, 0xca, 0xa5,
  0x8b, 0x2b, 0x11, 0x38, 0x1f, 0xcc, 0x4b, 0xa5, 0x2c, 0xe3, 0xc0, 0x25,
  0xe0, 0xef, 0x59, 0x24, 0x3e, 0xc3, 0x42, 0x16, 0xde, 0xfb, 0x5c, 0xf3,
  0x32, 0xdc, 0x02, 0xe7, 0x79, 0x10, 0xfb, 0x81, 0x44, 0xf1, 0x7f, 0xd4,
  0xbb, 0xb7, 0xdc, 0x47, 0xcc, 0xf1, 0xde, 0xc4, 0x56, 0x4d, 0xd8, 0xfb,
  0x29, 0x4d, 0xea, 0xed, 0x5a, 0x38, 0x30, 0x93, 0xde, 0x51, 0x68, 0x2d,
  0x0f, 0xed, 0xc0, 0x45, 0x26, 0x19, 0x27, 0x3b, 0xe1, 0x15, 0x4b, 0x0b,
  0x34, 0xd2, 0x28, 0xa7, 0x59, 0x03, 0xb2, 0xdf, 0xd0, 0x0d, 0x26, 0xca,
  0xe3, 0xac, 0xd5, 0xfd, 0x35, 0xe8, 0x33, 0xde, 0x4e, 0x40, 0xec, 0xb1,
  0x3d, 0x12, 0xdb, 0x0e, 0x05, 0x53, 0xfa, 0xb7, 0x2b, 0xc1, 0x15, 0x7f,
  0x3b, 0x3f, 0xf7, 0xd9, 0x21, 0x2a, 0xf0, 0xc0, 0xde, 0x50, 0xd4, 0xaa,
  0xec, 0xcf, 0x07, 0x00, 0x05, 0x22, 0x14, 0xec, 0x00, 0x24, 0xef, 0x16,
  0x22, 0xbb, 0xfc, 0x04, 0x21, 0x2a, 0xfd, 0xa3, 0xd7, 0xb1, 0xb5, 0x07,
  0x5f, 0xf0, 0xdf, 0xfd, 0x11, 0x4f, 0x49, 0xd2, 0xc4, 0x2a, 0x4a, 0x6d,
  0xb0, 0xea, 0xe1, 0x23, 0x06, 0x2d, 0x2f, 0xf9, 0x3c, 0x29, 0x00, 0x4a,
  0x5a, 0xff, 0x0f, 0x62, 0xe6, 0x6e, 0x44, 0xd8, 0x4a, 0xef, 0xff, 0xff,
  0x04, 0x00, 0x00, 0x00, 0x20, 0x00, 0x00, 0x00, 0xc0, 0xfc, 0xff, 0xff,
  0xd9, 0xfe, 0xff, 0xff, 0x3c, 0x01, 0x00, 0x00, 0x0a, 0x02, 0x00, 0x00,
  0x55, 0xfe, 0xff, 0xff, 0x92, 0x00, 0x00, 0x00, 0x82, 0x00, 0x00, 0x00,
  0xfa, 0x01, 0x00, 0x00, 0x76, 0xef, 0xff, 0xff, 0x04, 0x00, 0x00, 0x00,
  0x08, 0x00, 0x00, 0x00, 0x3f, 0x5f, 0x75, 0x73, 0x7f, 0x30, 0xe6, 0x32,
  0x8a, 0xef, 0xff, 0xff, 0x04, 0x00, 0x00, 0x00, 0x08, 0x00, 0x00, 0x00,
  0xb6, 0xfe, 0xfa, 0x09, 0xee, 0xf0, 0x92, 0x80, 0x9e, 0xef, 0xff, 0xff,
  0x04, 0x00, 0x00, 0x00, 0x88, 0x01, 0x00, 0x00, 0xf3, 0xd6, 0x81, 0x32,
  0xd4, 0x2c, 0x22, 0xc0, 0xfe, 0x09, 0xd0, 0xf9, 0x03, 0x2f, 0x2e, 0xf9,
  0xca, 0x5b, 0x20, 0xce, 0xbe, 0x68, 0x43, 0x49, 0x9f, 0xef, 0x43, 0xae,
  0x5b, 0x34, 0x31, 0x25, 0xfb, 0x18, 0xbd, 0xaf, 0x1d, 0x0b, 0xe2, 0xab,
  0x2a, 0xe1, 0x0b, 0xd6, 0x49, 0x01, 0x06, 0xc5, 0x1e, 0x2a, 0xfc, 0xf4,
  0x63, 0xfc, 0x0f, 0xd0, 0xc5, 0xdb, 0x2f, 0x0a, 0xe2, 0x7f, 0x05, 0x6a,
  0x1c, 0x02, 0x99, 0x1e, 0x0c, 0xd4, 0x1c, 0x05, 0x05, 0xec, 0x03, 0xfc,
  0xe0, 0x4f, 0xde, 0x1c, 0x33, 0xdb, 0xb3, 0xe8, 0xfc, 0xbd, 0xc5, 0xe7,
  0x0a, 0x24, 0x29, 0x47, 0xcd, 0x3d, 0x3a, 0xc1, 0xbd, 0xb9, 0xca, 0x1d,
  0xd9, 0x19, 0x03, 0xc2, 0x38, 0x86, 0x1b, 0xf1, 0xd8, 0xfb, 0x03, 0x0a,
  0x0e, 0xb2, 0x30, 0x31, 0x1c, 0xe7, 0x08, 0x00, 0x1e, 0x2d, 0xe5, 0xac,
  0xf1, 0x40, 0x2e, 0x3a, 0xda, 0xa5, 0x1d, 0x19, 0xcd, 0xd8, 0xd2, 0xd3,
  0xd6, 0xcb, 0xae, 0x21, 0xe4, 0x15, 0xf7, 0x20, 0xcc, 0x81, 0x11, 0x93,
  0xcb, 0xbc, 0xc5, 0xe2, 0xde, 0x15, 0x28, 0xb6, 0x25, 0xe1, 0xed, 0xfa,
  0x1e, 0xec, 0x35, 0x12, 0x57, 0x18, 0x02, 0xd7, 0x81, 0x35, 0x1b, 0xab,
  0xa9, 0xe3, 0xff, 0xc0, 0xdf, 0x48, 0xc1, 0xb4, 0xd9, 0x19, 0xed, 0xef,
  0xee, 0x41, 0xe1, 0xb2, 0x33, 0x0e, 0x15, 0x10, 0x2d, 0x03, 0xc4, 0x1c,
  0x42, 0xa1, 0x50, 0x2e, 0x0c, 0xf6, 0x81, 0x37, 0xa7, 0x4b, 0x40, 0xd4,
  0xfc, 0x97, 0xf1, 0xac, 0x75, 0x09, 0x00, 0xc3, 0x89, 0xd8, 0x20, 0x3e,
  0xfb, 0x38, 0xbb, 0xf9, 0xd5, 0xe4, 0x1e, 0xf0, 0xfb, 0x8c, 0xe6, 0x10,
  0x2a, 0xb1, 0x88, 0x1c, 0x31, 0x85, 0xbc, 0x88, 0x18, 0xf3, 0xff, 0x16,
  0xa4, 0x92, 0x0d, 0x0b, 0xd4, 0xb3, 0xed, 0xf6, 0xf7, 0xd5, 0xe6, 0x0e,
  0x34, 0x40, 0xd7, 0x11, 0xb0, 0xf5, 0x32, 0xd5, 0xb0, 0x81, 0xfc, 0xdd,
  0x14, 0x05, 0xc7, 0xdf, 0x00, 0x3a, 0xfa, 0x20, 0x1e, 0xe7, 0x05, 0x23,
  0x2f, 0xf0, 0x04, 0xfd, 0xfb, 0xd5, 0xe3, 0x0b, 0xf9, 0xfa, 0xf3, 0x2c,
  0x07, 0x0a, 0x16, 0xe7, 0x38, 0x3c, 0x15, 0x3c, 0x11, 0x81, 0xd7, 0xc4,
  0xa7, 0xfe, 0xc8, 0x3f, 0x1e, 0xe5, 0xc4, 0xa2, 0x09, 0x41, 0x36, 0xfa,
  0xb4, 0xc4, 0xf4, 0xa8, 0xc0, 0x18, 0xf0, 0xd1, 0xde, 0x16, 0xff, 0xd8,
  0x17, 0x53, 0xfb, 0xf0, 0xc4, 0x3b, 0x57, 0xfa, 0x2b, 0xe1, 0x1d, 0x9a,
  0xb2, 0xd9, 0xd5, 0xcd, 0x81, 0x28, 0x37, 0xdf, 0xfc, 0xc1, 0x03, 0xdb,
  0xbf, 0x2c, 0x14, 0x22, 0x01, 0x13, 0xd5, 0xe6, 0x15, 0x34, 0x13, 0x2b,
  0x0f, 0xe5, 0xc2, 0xee, 0xd8, 0xe8, 0x15, 0x34, 0xf8, 0xc0, 0xd1, 0xcd,
  0xdd, 0xc8, 0x0d, 0xb4, 0xef, 0xa6, 0x0b, 0x29, 0x27, 0xdb, 0x2b, 0xee,
  0xf2, 0xd1, 0x11, 0x2e, 0x32, 0xf1, 0xff, 0xff, 0x04, 0x00, 0x00, 0x00,
  0x20, 0x00, 0x00, 0x00, 0x95, 0x00, 0x00, 0x00, 0x11, 0x00, 0x00, 0x00,
  0x84, 0x00, 0x00, 0x00, 0x40, 0x00, 0x00, 0x00, 0x7c, 0xff, 0xff, 0xff,
  0x9f, 0x00, 0x00, 0x00, 0xba, 0xff, 0xff, 0xff, 0x01, 0x00, 0x00, 0x00,
  0x5e, 0xf1, 0xff, 0xff, 0x04, 0x00, 0x00, 0x00, 0x08, 0x00, 0x00, 0x00,
  0xc6, 0xe8, 0x7f, 0x70, 0x15, 0x14, 0xf5, 0x24, 0x72, 0xf1, 0xff, 0xff,
  0x04, 0x00, 0x00, 0x00, 0x08, 0x00, 0x00, 0x00, 0x1d, 0xcb, 0xc7, 0xa8,
  0xd5, 0x25, 0x80, 0xdc, 0x86, 0xf1, 0xff, 0xff, 0x04, 0x00, 0x00, 0x00,
  0x40, 0x06, 0x00, 0x00, 0xb7, 0xdc, 0x28, 0x3c, 0x1f, 0x0f, 0xfc, 0x01,
  0x1b, 0x1a, 0xf4, 0xe6, 0xb9, 0xc5, 0xd8, 0x19, 0xc2, 0xce, 0x24, 0x0a,
  0xa2, 0x1f, 0xb3, 0x06, 0x4a, 0xd1, 0x51, 0x27, 0xb9, 0xd7, 0x17, 0xb6,
  0x41, 0x20, 0x17, 0xe8, 0xd0, 0x19, 0x14, 0x17, 0x0d, 0x22, 0xf0, 0xfc,
  0xca, 0x06, 0xe3, 0x1a, 0xf6, 0x23, 0x0a, 0x06, 0xd6, 0xcb, 0x07, 0x0b,
  0x34, 0xf2, 0x3b, 0xe4, 0xee, 0x32, 0xe1, 0xec, 0x2b, 0x16, 0x33, 0x30,
  0x12, 0xa7, 0xe9, 0x9e, 0xd8, 0x34, 0x0c, 0xbf, 0x1e, 0x0e, 0x99, 0x24,
  0x30, 0x0c, 0xf1, 0xfa, 0xea, 0x05, 0x16, 0xbf, 0xeb, 0x25, 0xde, 0x08,
  0xf9, 0x22, 0x25, 0x81, 0x09, 0x1f, 0xb8, 0x19, 0xe8, 0x07, 0xfb, 0xc1,
  0xc9, 0x14, 0x01, 0x35, 0xdd, 0x1e, 0xea, 0xbb, 0xd1, 0x30, 0x0c, 0xd8,
  0x33, 0xb5, 0xf7, 0xc1, 0xfd, 0x37, 0xec, 0xd4, 0xee, 0xc9, 0xd6, 0x21,
  0xbd, 0xc7, 0xe7, 0xda, 0xd4, 0xc1, 0xe0, 0xeb, 0x1b, 0x05, 0x01, 0x0a,
  0xf9, 0xf4, 0xcb, 0xa2, 0x59, 0x38, 0x5b, 0xf5, 0x27, 0x0b, 0x10, 0x13,
  0x0f, 0x1f, 0x2d, 0xe9, 0x07, 0xcb, 0x1b, 0xcc, 0x24, 0x1b, 0xeb, 0xed,
  0x10, 0x0f, 0x56, 0x0e, 0xfe, 0x39, 0x1e, 0xdd, 0xd2, 0xb5, 0x06, 0xbc,
  0x08, 0x10, 0xdb, 0x35, 0x4d, 0xef, 0xff, 0xca, 0xd2, 0x48, 0x3f, 0x36,
  0xce, 0xe9, 0xbf, 0xe1, 0xc5, 0x2c, 0xf4, 0x3e, 0x50, 0xdb, 0xb4, 0xa9,
  0xee, 0x2a, 0x20, 0xef, 0xd0, 0xcb, 0xf3, 0x17, 0x0f, 0xf9, 0xfb, 0xb0,
  0xc3, 0x0f, 0x02, 0xed, 0xf8, 0xe4, 0xe8, 0x13, 0x2c, 0x0b, 0x47, 0xdd,
  0x38, 0x0f, 0xff, 0x16, 0x2b, 0x12, 0x1e, 0xe2, 0x36, 0x21, 0x13, 0x33,
  0xc3, 0xd7, 0xed, 0x1d, 0x19, 0x06, 0xef, 0x17, 0xf3, 0x06, 0x14, 0x40,
  0x06, 0x1c, 0xee, 0x7f, 0x0b, 0xe2, 0x11, 0x40, 0xda, 0xc2, 0xd1, 0x17,
  0x14, 0x04, 0xc2, 0x81, 0x28, 0xf6, 0x01, 0xd5, 0xdc, 0xde, 0xd2, 0xb7,
  0x39, 0x04, 0xf5, 0xb6, 0xe8, 0xf9, 0xd3, 0xc7, 0x0e, 0xea, 0xdf, 0x3f,
  0xed, 0x50, 0x2e, 0x24, 0x41, 0xbb, 0xcb, 0xbf, 0x39, 0x2a, 0x32, 0xc1,
  0x0f, 0x12, 0x24, 0xfa, 0x29, 0xfc, 0xe0, 0xc9, 0x35, 0x0f, 0x3b, 0x17,
  0xfe, 0xf9, 0xb1, 0x0c, 0xdf, 0x35, 0xe8, 0xe8, 0xd6, 0x05, 0xf0, 0x2c,
  0x43, 0x4b, 0xee, 0x01, 0xfc, 0xf6, 0xc1, 0x3d, 0x19, 0x22, 0x2e, 0x2b,
  0x03, 0xc1, 0xff, 0xc9, 0xf2, 0x3b, 0x05, 0xac, 0xfe, 0xd9, 0xfd, 0x08,
  0xce, 0xe9, 0xc1, 0xda, 0xe4, 0xf6, 0x1c, 0xdb, 0xf2, 0x0b, 0x12, 0xa8,
  0x14, 0x02, 0x27, 0xf6, 0xf9, 0x42, 0xf7, 0xed, 0x05, 0xe5, 0x10, 0x15,
  0xc4, 0x13, 0xba, 0x15, 0xd2, 0xde, 0x0a, 0xac, 0xc5, 0x16, 0x21, 0xf0,
  0xa1, 0xf4, 0x0a, 0xfd, 0xd1, 0x27, 0x47, 0x0b, 0xec, 0x1c, 0x01, 0x2d,
  0xdc, 0x38, 0xf9, 0x0e, 0x42, 0xf5, 0x35, 0x35, 0x1a, 0x06, 0x16, 0xe0,
  0x12, 0x05, 0xbc, 0xfe, 0xf2, 0xf4, 0xf7, 0xd0, 0xed, 0x27, 0x06, 0x1b,
  0xd5, 0xe2, 0xe4, 0xb9, 0xb9, 0xec, 0xc7, 0xb1, 0xf0, 0xe3, 0x10, 0x55,
  0x39, 0xd3, 0xbd, 0x1f, 0xf2, 0xd1, 0xc3, 0xfa, 0xc8, 0xe9, 0xc9, 0xff,
  0xe6, 0xee, 0x27, 0x1e, 0x0e, 0xf2, 0xff, 0x39, 0xf5, 0x03, 0xf3, 0x3b,
  0xd1, 0x2a, 0x01, 0xfb, 0xcd, 0x3f, 0x1a, 0xef, 0xeb, 0xe7, 0xe1, 0x17,
  0x33, 0xca, 0xf0, 0x31, 0xf9, 0x12, 0xe5, 0xb7, 0xfc, 0xdd, 0x31, 0x01,
  0x1b, 0x04, 0x19, 0xed, 0xd7, 0xb1, 0xae, 0xe8, 0xf9, 0xc7, 0xdf, 0xf1,
  0xd7, 0xe8, 0xda, 0x3e, 0x3a, 0xda, 0xf2, 0x2f, 0x19, 0x08, 0x22, 0x26,
  0xf2, 0x53, 0xff, 0x1e, 0xdc, 0xc0, 0x21, 0xfe, 0x2f, 0xd0, 0xd0, 0xc8,
  0xc3, 0x0f, 0x09, 0xda, 0xef, 0x39, 0xde, 0x1d, 0xde, 0xe7, 0xca, 0x8a,
  0xf1, 0xe7, 0x31, 0xe3, 0xa8, 0x47, 0x31, 0x1a, 0x24, 0xf3, 0xeb, 0x05,
  0x00, 0xed, 0x24, 0x20, 0x35, 0xd6, 0x17, 0xd6, 0xdd, 0xd0, 0x41, 0xe3,
  0x18, 0xba, 0x04, 0xba, 0x0b, 0x2b, 0x18, 0xc6, 0xd2, 0x14, 0xf2, 0xf7,
  0x19, 0xe3, 0xcb, 0xf7, 0xd1, 0xeb, 0x00, 0xc8, 0xe8, 0xea, 0xf3, 0x3a,
  0x10, 0xfb, 0xff, 0xf1, 0x10, 0x31, 0x09, 0xfc, 0x26, 0xe4, 0x28, 0xe5,
  0xd4, 0x15, 0xef, 0x41, 0x46, 0x0f, 0xf3, 0xe7, 0xd9, 0xe2, 0xa8, 0x0c,
  0x07, 0x20, 0x3b, 0x81, 0xd2, 0xeb, 0x4d, 0x08, 0x18, 0x11, 0x43, 0xf9,
  0x36, 0xf7, 0xed, 0x52, 0x29, 0xde, 0x28, 0xce, 0x1d, 0xa9, 0x64, 0x9f,
  0x84, 0xb9, 0xe0, 0x24, 0x18, 0x59, 0xee, 0xbe, 0xdb, 0xbe, 0x7f, 0x31,
  0x44, 0xd5, 0x4d, 0x5b, 0xc2, 0x43, 0x31, 0x3c, 0xf2, 0xda, 0x35, 0x2c,
  0x25, 0xbb, 0x1d, 0xeb, 0x25, 0xde, 0xd4, 0xd8, 0xb5, 0x0a, 0x16, 0x27,
  0x33, 0x48, 0x3e, 0x4e, 0xbf, 0x04, 0xcb, 0xc5, 0xe2, 0xf4, 0xc2, 0xab,
  0x00, 0xcd, 0x19, 0x0b, 0xef, 0xd9, 0xd6, 0xe5, 0xf8, 0xe8, 0x33, 0xb1,
  0xd9, 0xc5, 0x36, 0xcf, 0xb5, 0x14, 0x0d, 0xca, 0x3a, 0xda, 0x4e, 0xcd,
  0x26, 0x06, 0x17, 0xd4, 0xe9, 0xbf, 0x30, 0x9d, 0x4f, 0xd8, 0x15, 0x13,
  0x19, 0xa1, 0x16, 0x14, 0x09, 0xbf, 0xe1, 0x37, 0xd1, 0xf1, 0x2b, 0x18,
  0xd0, 0x0d, 0xd7, 0xc5, 0xba, 0x25, 0xf9, 0x21, 0xe8, 0x37, 0x27, 0x48,
  0x0f, 0xdc, 0xdc, 0x14, 0x0c, 0xf3, 0xad, 0x9e, 0x1d, 0xe2, 0xbc, 0xbe,
  0x12, 0x17, 0x51, 0x0e, 0xe1, 0x1e, 0x02, 0x24, 0xac, 0xfc, 0xf5, 0x33,
  0x22, 0xc7, 0x05, 0x2f, 0xe4, 0xed, 0x0c, 0x4b, 0x35, 0x20, 0x1a, 0xf5,
  0xe9, 0xfc, 0x26, 0xd7, 0x32, 0xfe, 0x2f, 0x1d, 0x4e, 0x03, 0x4b, 0x3a,
  0x39, 0xe1, 0x17, 0x2a, 0xcd, 0xf7, 0x9d, 0x1c, 0x42, 0xaf, 0x17, 0xd5,
  0x15, 0x00, 0x46, 0x5c, 0x4c, 0xeb, 0x1b, 0xdd, 0xbd, 0xd9, 0xfe, 0x34,
  0x95, 0xe3, 0x02, 0xe8, 0xda, 0xef, 0xee, 0xca, 0x55, 0x3d, 0x01, 0xde,
  0x65, 0xa0, 0x0d, 0x51, 0xcf, 0xe4, 0x2f, 0x09, 0x38, 0xda, 0xcc, 0xa6,
  0xcc, 0xf1, 0x39, 0xbc, 0xcc, 0xe3, 0x23, 0x33, 0xe7, 0x32, 0xcc, 0xd9,
  0x32, 0x06, 0xd1, 0x0b, 0x36, 0xff, 0xf5, 0x49, 0xb8, 0x1a, 0xfd, 0xda,
  0xeb, 0xee, 0xed, 0xb5, 0xf9, 0xf0, 0xf0, 0x0e, 0xf9, 0x0f, 0xe9, 0xe2,
  0xd8, 0xcd, 0x15, 0xb7, 0xdc, 0xf5, 0x2d, 0x53, 0x19, 0xb4, 0x12, 0xe8,
  0xdd, 0xc2, 0xc1, 0x04, 0x50, 0xd6, 0xfc, 0x52, 0x06, 0x06, 0x0a, 0xe9,
  0xf3, 0xa4, 0xcf, 0x20, 0xc4, 0x0b, 0x10, 0xdc, 0xfd, 0xdc, 0xcf, 0x13,
  0x08, 0xf9, 0x2e, 0x41, 0x2b, 0xe9, 0xdb, 0x1a, 0xf5, 0x15, 0x5a, 0x07,
  0x3f, 0xca, 0x3c, 0xff, 0xea, 0xec, 0xcb, 0xde, 0x41, 0x07, 0xcc, 0xf7,
  0x14, 0x02, 0x28, 0xe4, 0x19, 0x9e, 0x16, 0xba, 0xcd, 0x16, 0xec, 0x37,
  0x27, 0xe2, 0xbf, 0xe6, 0x14, 0x12, 0x93, 0x0d, 0x12, 0x27, 0x10, 0xad,
  0x2c, 0xf7, 0x28, 0x06, 0x44, 0xcb, 0x2a, 0x13, 0xef, 0xe3, 0x81, 0xdf,
  0x3d, 0xdc, 0xf7, 0xf8, 0xdc, 0xcc, 0x85, 0xc7, 0xee, 0xec, 0x40, 0xa4,
  0xf4, 0xea, 0xe3, 0xe9, 0x0e, 0xd5, 0xc5, 0x05, 0x2a, 0x02, 0x0d, 0xfe,
  0x07, 0x3f, 0xd0, 0xd6, 0x63, 0x0c, 0x3f, 0x6b, 0xe4, 0xf9, 0x01, 0x12,
  0xd0, 0x18, 0xcb, 0xdd, 0x33, 0xdf, 0x16, 0x3d, 0x24, 0xd4, 0xbb, 0xe3,
  0x35, 0x35, 0x1c, 0x14, 0xb8, 0xf1, 0xec, 0xbe, 0xdd, 0x1d, 0xef, 0x0d,
  0xef, 0xd2, 0xe2, 0xd1, 0x23, 0x16, 0x19, 0xeb, 0x28, 0x15, 0x10, 0xac,
  0x1d, 0xf6, 0xc4, 0xbe, 0x15, 0xe6, 0xed, 0xc7, 0x1a, 0xf7, 0x17, 0x40,
  0x07, 0x37, 0x11, 0x4e, 0x19, 0xe5, 0x08, 0x39, 0xea, 0xd7, 0xcc, 0x19,
  0x13, 0x05, 0xfa, 0x1f, 0x09, 0x11, 0x28, 0x20, 0xf0, 0xd7, 0xf0, 0xfc,
  0xef, 0xf7, 0x0d, 0xdf, 0x21, 0x66, 0x37, 0x30, 0xc3, 0xee, 0x07, 0x0b,
  0xe4, 0xec, 0x1a, 0xe9, 0xf2, 0xc5, 0xb2, 0x1f, 0x11, 0xef, 0xf3, 0xb3,
  0xc8, 0xef, 0xc5, 0xc0, 0xd9, 0xc2, 0xcf, 0xe9, 0x1b, 0xef, 0x48, 0xf4,
  0x7f, 0x23, 0x06, 0x33, 0xec, 0x24, 0x17, 0x12, 0xfe, 0x1b, 0xed, 0x40,
  0x2c, 0xf5, 0xef, 0xa5, 0xf8, 0x0a, 0x12, 0x2a, 0xd4, 0xdc, 0xc5, 0x11,
  0x0c, 0x0e, 0xe7, 0xc1, 0x20, 0xe5, 0xc7, 0xdc, 0xfe, 0xc6, 0xc3, 0xfe,
  0x13, 0x2d, 0x02, 0x19, 0x43, 0xdf, 0xde, 0x3c, 0xe8, 0x00, 0x29, 0x1d,
  0xff, 0xd6, 0xdc, 0x13, 0xe0, 0xba, 0xbe, 0xf1, 0x0f, 0x40, 0x16, 0x41,
  0xdd, 0xda, 0x61, 0x30, 0xcc, 0xeb, 0x19, 0xf6, 0xc0, 0xcf, 0xfb, 0x02,
  0xe9, 0x9b, 0xb8, 0x2a, 0xe6, 0x0f, 0xcd, 0x01, 0xe1, 0x01, 0xe1, 0x1c,
  0x07, 0xea, 0xe3, 0x06, 0xc0, 0x15, 0xd3, 0xfa, 0xf7, 0xfd, 0xf6, 0xb3,
  0x06, 0xe9, 0x13, 0xf4, 0x54, 0xf3, 0xf2, 0xc7, 0xe1, 0xdb, 0xea, 0xcd,
  0x08, 0x23, 0xd9, 0x1b, 0xfd, 0x21, 0xfd, 0x3a, 0xe4, 0xd6, 0xdd, 0x10,
  0x0d, 0xfe, 0xfd, 0xc3, 0xcf, 0x0a, 0x13, 0xe1, 0xe7, 0x32, 0xf7, 0x14,
  0x06, 0xdc, 0x28, 0xd7, 0xe4, 0x12, 0xd2, 0x0a, 0xfc, 0x02, 0xd4, 0xcf,
  0x17, 0x1e, 0x2d, 0x2d, 0xf2, 0x16, 0x17, 0x2c, 0x0c, 0xe1, 0x0d, 0x20,
  0xf3, 0xee, 0xca, 0x09, 0xfd, 0x04, 0x04, 0xe0, 0x12, 0xfc, 0xb0, 0x0c,
  0x24, 0x13, 0xee, 0xbb, 0x2d, 0x38, 0xfa, 0xf1, 0xdc, 0xf9, 0xda, 0x45,
  0x1a, 0x24, 0xc8, 0x14, 0xf9, 0xfe, 0x08, 0x38, 0x15, 0xf3, 0x12, 0x28,
  0xea, 0xd3, 0x1d, 0x31, 0x12, 0xfd, 0xcf, 0x0b, 0xd8, 0x2d, 0xda, 0x2a,
  0x0f, 0x2d, 0xf4, 0x01, 0x43, 0x28, 0x24, 0xf1, 0x1a, 0x01, 0x28, 0xdc,
  0x10, 0x21, 0xf3, 0xfc, 0x10, 0xf4, 0xf7, 0x0c, 0x1c, 0xee, 0xfc, 0x0e,
  0x1c, 0x20, 0x19, 0xc2, 0x18, 0x00, 0xc9, 0x39, 0xde, 0xd2, 0xbb, 0xf1,
  0xdc, 0x19, 0xe8, 0x42, 0xb9, 0xcb, 0x05, 0x13, 0x0d, 0x18, 0xe5, 0xdb,
  0x25, 0xd8, 0xea, 0x20, 0x1b, 0x21, 0xc5, 0x10, 0x3f, 0xf5, 0x0f, 0xa9,
  0x06, 0x28, 0xe8, 0xde, 0xe2, 0x20, 0x0e, 0xa1, 0xfc, 0x22, 0xec, 0x41,
  0xf6, 0xfa, 0xd3, 0x12, 0xe3, 0x26, 0xec, 0xd3, 0xc0, 0xeb, 0xd8, 0x40,
  0x51, 0xc9, 0xf7, 0x81, 0x2f, 0xf6, 0x1b, 0x04, 0xf6, 0xf0, 0xc3, 0x03,
  0xda, 0x03, 0xa4, 0x18, 0xfe, 0x2e, 0x19, 0x3f, 0x2f, 0xda, 0x43, 0x28,
  0x55, 0x0a, 0xb6, 0x10, 0x3d, 0x06, 0xe7, 0x16, 0xb2, 0x41, 0xe8, 0x1e,
  0x13, 0x02, 0x0a, 0x4a, 0x42, 0xff, 0xf9, 0x08, 0xea, 0x1d, 0x13, 0x1c,
  0x23, 0xfb, 0xd6, 0x0d, 0x8b, 0x0a, 0x5a, 0xe3, 0xef, 0x60, 0x3d, 0xeb,
  0xb8, 0x0d, 0xfe, 0xc9, 0x26, 0xec, 0x1b, 0x1e, 0x41, 0x3b, 0x91, 0xe9,
  0x30, 0x44, 0x57, 0xde, 0xe6, 0xd0, 0xf8, 0xd0, 0x49, 0x13, 0x65, 0xf1,
  0x06, 0xfe, 0xee, 0x10, 0xff, 0xd0, 0x21, 0xf9, 0xb0, 0xdb, 0xac, 0xf9,
  0xc7, 0xb0, 0x03, 0x44, 0x02, 0xbb, 0x1d, 0xd7, 0xcd, 0xc5, 0x34, 0x36,
  0x3c, 0xe3, 0x2d, 0x08, 0x29, 0xef, 0xb4, 0xa4, 0xff, 0xeb, 0x1e, 0xfd,
  0x4b, 0xe0, 0xf2, 0xc1, 0xc3, 0xef, 0x46, 0x8e, 0xed, 0x28, 0xe1, 0xfd,
  0xbd, 0x8d, 0xcd, 0xf2, 0xef, 0x21, 0x7f, 0x21, 0x01, 0x46, 0x25, 0x64,
  0x17, 0x5f, 0x49, 0x32, 0x1d, 0x3a, 0xcc, 0x17, 0x63, 0x45, 0xfd, 0xd5,
  0x00, 0xf4, 0x23, 0x1b, 0xd7, 0xcb, 0x5c, 0x22, 0x09, 0xf2, 0x23, 0xfe,
  0xb7, 0xf7, 0xfd, 0x50, 0x25, 0xda, 0x13, 0x0c, 0x0c, 0xc1, 0xd8, 0x3d,
  0xdb, 0xc6, 0x14, 0xd9, 0x39, 0xc5, 0x28, 0x19, 0xda, 0xfd, 0xd6, 0xff,
  0x61, 0x34, 0x27, 0xd0, 0x14, 0xae, 0xb3, 0x1d, 0xe9, 0x2e, 0xe6, 0xa1,
  0xca, 0x98, 0x0c, 0x16, 0xd2, 0xb8, 0x2b, 0xd4, 0xd2, 0xf7, 0xff, 0xff,
  0x04, 0x00, 0x00, 0x00, 0x20, 0x00, 0x00, 0x00, 0x88, 0xff, 0xff, 0xff,
  0xa3, 0x02, 0x00, 0x00, 0x1b, 0x02, 0x00, 0x00, 0xbd, 0xfc, 0xff, 0xff,
  0xdd, 0xff, 0xff, 0xff, 0xd1, 0x00, 0x00, 0x00, 0x23, 0xff, 0xff, 0xff,
  0xcb, 0xfa, 0xff, 0xff, 0xfe, 0xf7, 0xff, 0xff, 0x04, 0x00, 0x00, 0x00,
  0x08, 0x00, 0x00, 0x00, 0x49, 0x0a, 0x7f, 0x30, 0x62, 0x71, 0x2e, 0xe2,
  0x12, 0xf8, 0xff, 0xff, 0x04, 0x00, 0x00, 0x00, 0x08, 0x00, 0x00, 0x00,
  0x85, 0x97, 0x80, 0xbc, 0x8f, 0xb7, 0x8f, 0xe9, 0x26, 0xf8, 0xff, 0xff,
  0x04, 0x00, 0x00, 0x00, 0x40, 0x02, 0x00, 0x00, 0x1b, 0xd9, 0xdd, 0x12,
  0xe4, 0xce, 0x14, 0xf5, 0xbc, 0xe7, 0xfb, 0xaf, 0x7f, 0x27, 0xd1, 0xf6,
  0x30, 0xe0, 0x09, 0xe0, 0xe5, 0x3b, 0x1e, 0x07, 0x35, 0xc1, 0x5f, 0xf4,
  0xfa, 0x23, 0xb3, 0xb9, 0x27, 0x00, 0xb9, 0xc0, 0xfa, 0x08, 0x4b, 0xd8,
  0xed, 0xa2, 0x1e, 0xf4, 0xd1, 0xb8, 0x10, 0x22, 0x0f, 0xdf, 0x45, 0x25,
  0x0e, 0x3e, 0xbb, 0xe2, 0x27, 0x3e, 0xe6, 0xbe, 0x32, 0xff, 0xf0, 0x07,
  0xc9, 0xf7, 0xc4, 0xe2, 0x0f, 0x13, 0x2b, 0x0f, 0x32, 0xf9, 0x0f, 0x12,
  0x4f, 0xdc, 0x37, 0x1d, 0xfa, 0x02, 0xa0, 0x0c, 0x36, 0xb6, 0xb6, 0xcf,
  0x50, 0x23, 0xb7, 0xdc, 0x3f, 0x09, 0xfd, 0x53, 0xb5, 0x13, 0xbc, 0xdc,
  0xde, 0xf9, 0x55, 0xf7, 0x3a, 0xc1, 0xf5, 0xea, 0x24, 0xf0, 0x06, 0x2c,
  0xc8, 0x58, 0x8c, 0x73, 0xf3, 0x14, 0xd5, 0xaf, 0xf3, 0x9e, 0x4a, 0x3e,
  0x02, 0xf5, 0xc8, 0x2d, 0xeb, 0x72, 0x23, 0x2d, 0x53, 0xe8, 0xfd, 0xb0,
  0x7f, 0x4b, 0xe5, 0xf8, 0x2f, 0x04, 0x1d, 0xf7, 0xdc, 0x0c, 0xe8, 0x28,
  0x2a, 0x7f, 0x1f, 0xf6, 0x0d, 0x4e, 0xee, 0x02, 0x4b, 0xdf, 0xd3, 0xb3,
  0xd9, 0xe5, 0x01, 0xee, 0xb8, 0x01, 0x35, 0xec, 0xfd, 0x9f, 0x1b, 0xec,
  0x09, 0xe7, 0xf5, 0xf4, 0x55, 0xbd, 0x0a, 0xd4, 0x5b, 0xbf, 0xc7, 0x03,
  0xd1, 0x18, 0x0c, 0x2f, 0x83, 0xe7, 0x30, 0xed, 0xde, 0x07, 0xde, 0x10,
  0x11, 0xfe, 0x0e, 0xc1, 0xf2, 0x2b, 0x01, 0x21, 0x2b, 0x20, 0xe3, 0xe0,
  0xe2, 0xf2, 0xe9, 0xd7, 0xfd, 0x0a, 0x44, 0xb8, 0x16, 0xfb, 0x18, 0x1f,
  0x26, 0xdd, 0x11, 0xa7, 0xbb, 0x1f, 0xce, 0xea, 0xf4, 0xff, 0x03, 0xbe,
  0x5d, 0xfa, 0xd0, 0xb9, 0xe7, 0xdf, 0xf7, 0x05, 0xee, 0xe1, 0xd5, 0xd2,
  0x12, 0x3d, 0xfb, 0xd9, 0x14, 0x08, 0xcc, 0xf7, 0x25, 0x19, 0xf0, 0xdd,
  0x3c, 0x2b, 0xb9, 0xc1, 0xe6, 0xbe, 0xf9, 0xf6, 0x94, 0x1b, 0x9b, 0x10,
  0x09, 0xae, 0x81, 0xe4, 0x3d, 0x17, 0xe4, 0xfe, 0xfa, 0xe1, 0x04, 0xfa,
  0x3d, 0x2c, 0x0a, 0xdc, 0xfb, 0x2d, 0xdd, 0xeb, 0xc0, 0x1a, 0xf0, 0x28,
  0x08, 0xfb, 0x2e, 0xbd, 0x47, 0x2b, 0xb4, 0xc4, 0x1c, 0x14, 0x2f, 0x0f,
  0xf9, 0x2e, 0x15, 0xe8, 0x22, 0x8a, 0xc4, 0xcd, 0x15, 0x2f, 0xb9, 0x68,
  0x90, 0xf6, 0xc7, 0xea, 0x64, 0xc9, 0xe4, 0x0c, 0x9b, 0x9a, 0x2a, 0xfd,
  0xfc, 0x75, 0x22, 0xd0, 0x90, 0xae, 0xb9, 0xbf, 0xaa, 0x0e, 0xfb, 0xc3,
  0xf8, 0x25, 0xfc, 0x94, 0x73, 0x23, 0xec, 0x34, 0xf2, 0x81, 0x22, 0xe2,
  0xf6, 0x19, 0x29, 0xee, 0x62, 0xe3, 0x9e, 0x0d, 0x3b, 0x04, 0x7f, 0xca,
  0x14, 0x43, 0xdb, 0x4d, 0xde, 0x35, 0xf9, 0xad, 0x5b, 0xfa, 0x25, 0xdf,
  0xbd, 0xa4, 0xc4, 0x5e, 0xc7, 0x51, 0xf2, 0x50, 0x22, 0x0b, 0x39, 0xe9,
  0xff, 0xf8, 0xe5, 0xd4, 0x27, 0xdd, 0x11, 0x3c, 0x32, 0xe0, 0xfa, 0xf6,
  0xf9, 0xcf, 0xe8, 0xde, 0xdb, 0x4c, 0xf8, 0xce, 0xd3, 0xfb, 0xc4, 0x83,
  0x07, 0xde, 0xc6, 0xcb, 0x08, 0x39, 0xed, 0x2e, 0x21, 0xe1, 0x07, 0xee,
  0xd9, 0x3b, 0x4d, 0xc5, 0xfb, 0x0a, 0xc3, 0xca, 0xb0, 0x9e, 0x8d, 0x3a,
  0x22, 0x15, 0xcd, 0xb9, 0xfe, 0xf4, 0xee, 0x1b, 0xfe, 0xe3, 0xcc, 0xe7,
  0x3d, 0x02, 0xdb, 0xe3, 0x33, 0xd7, 0x12, 0x20, 0xf1, 0xb8, 0xf9, 0x43,
  0xa9, 0xca, 0xab, 0xb6, 0x29, 0xed, 0xc9, 0xc8, 0x34, 0xea, 0x0e, 0x3e,
  0xf7, 0x3b, 0x81, 0x0e, 0x26, 0x03, 0x37, 0xae, 0x39, 0x28, 0xfe, 0x22,
  0xc6, 0xfb, 0x9c, 0xef, 0x81, 0x11, 0x31, 0x02, 0x4b, 0x4c, 0xc8, 0xb6,
  0x36, 0xc9, 0x18, 0x94, 0xfe, 0xe4, 0x05, 0xfc, 0xc1, 0xcb, 0x8f, 0x19,
  0x0e, 0x05, 0x03, 0x44, 0x43, 0x1b, 0x0c, 0xc1, 0xd0, 0x81, 0x40, 0xf1,
  0x17, 0x0f, 0x1d, 0x1f, 0x04, 0xe7, 0x8d, 0x0a, 0xd1, 0x3c, 0xc0, 0x52,
  0xe0, 0x37, 0xaf, 0xb7, 0x43, 0x0b, 0xb7, 0xeb, 0xe6, 0x9e, 0xdc, 0x19,
  0xe2, 0x35, 0xf1, 0x2c, 0xfe, 0xe8, 0xdc, 0x1b, 0xfd, 0x71, 0x1e, 0xeb,
  0x15, 0xdc, 0x42, 0xf8, 0xf2, 0xd8, 0x95, 0xd0, 0xe0, 0x01, 0xc1, 0x0f,
  0x49, 0xec, 0x44, 0x18, 0xc6, 0xae, 0x37, 0x43, 0x72, 0xfa, 0xff, 0xff,
  0x04, 0x00, 0x00, 0x00, 0x20, 0x00, 0x00, 0x00, 0x02, 0xff, 0xff, 0xff,
  0xef, 0xfc, 0xff, 0xff, 0x1f, 0xfc, 0xff, 0xff, 0x32, 0xff, 0xff, 0xff,
  0xca, 0xf8, 0xff, 0xff, 0xa5, 0x00, 0x00, 0x00, 0x94, 0x00, 0x00, 0x00,
  0x12, 0xfd, 0xff, 0xff, 0x9e, 0xfa, 0xff, 0xff, 0x04, 0x00, 0x00, 0x00,
  0x08, 0x00, 0x00, 0x00, 0x0f, 0xd6, 0x4a, 0x7f, 0xf7, 0x20, 0x38, 0x07,
  0xb2, 0xfa, 0xff, 0xff, 0x04, 0x00, 0x00, 0x00, 0x08, 0x00, 0x00, 0x00,
  0xad, 0xc1, 0x80, 0xda, 0xe9, 0xa4, 0xb3, 0xec, 0xc6, 0xfa, 0xff, 0xff,
  0x04, 0x00, 0x00, 0x00, 0x80, 0x03, 0x00, 0x00, 0x19, 0xf7, 0x1a, 0xea,
  0x09, 0xc7, 0xee, 0xcd, 0xf2, 0x18, 0xb9, 0xf8, 0x1a, 0xbe, 0x1c, 0x06,
  0x0c, 0xef, 0x12, 0x09, 0x08, 0xed, 0xd8, 0xf6, 0xe9, 0x17, 0xac, 0x05,
  0x0c, 0xe9, 0x05, 0x1d, 0x13, 0x0c, 0xfd, 0xf1, 0x2d, 0xec, 0xef, 0xf3,
  0xe5, 0x18, 0xd5, 0x04, 0x15, 0xe9, 0x05, 0x11, 0xf0, 0xf3, 0xfb, 0xcf,
  0x05, 0x0c, 0xea, 0xd6, 0xe8, 0xf6, 0xca, 0xf0, 0x1e, 0xd9, 0xff, 0x0d,
  0xfb, 0xdf, 0x05, 0xe2, 0x29, 0x04, 0xc4, 0x0c, 0xf5, 0x22, 0xc8, 0x0f,
  0x03, 0xc9, 0x0d, 0x2e, 0x0e, 0xfa, 0x15, 0xee, 0x1f, 0xda, 0xe8, 0xf6,
  0xf3, 0xef, 0xab, 0x07, 0x01, 0xb1, 0x05, 0xfa, 0xf4, 0xcb, 0x1a, 0xd4,
  0xea, 0xfb, 0xde, 0xe7, 0x0e, 0x04, 0xa6, 0x05, 0x23, 0xdd, 0x14, 0x0e,
  0xf6, 0x0b, 0x1d, 0xca, 0x0f, 0xe1, 0xdb, 0xf5, 0xd4, 0x11, 0xc2, 0xeb,
  0x12, 0xb9, 0xf9, 0x06, 0xfa, 0xd6, 0x21, 0xeb, 0xdc, 0xf5, 0xed, 0x14,
  0x0b, 0x00, 0x31, 0xef, 0xf8, 0x00, 0xdf, 0xd5, 0x25, 0xef, 0x21, 0xdf,
  0x01, 0xf0, 0x09, 0x0d, 0x11, 0x00, 0x18, 0xf0, 0xe4, 0x34, 0xfb, 0xf7,
  0x2b, 0xea, 0x14, 0x12, 0xee, 0xdf, 0x09, 0xeb, 0x0d, 0xf0, 0x27, 0xee,
  0xbf, 0x20, 0x00, 0xe8, 0x28, 0x13, 0x01, 0xf9, 0xc4, 0x0d, 0xf4, 0xe8,
  0x12, 0xf2, 0x1f, 0xce, 0xc2, 0x22, 0xf8, 0xcb, 0x26, 0xdc, 0xf3, 0xcd,
  0xc7, 0x04, 0x1a, 0xf3, 0x2d, 0xf1, 0x13, 0xe6, 0xc9, 0x38, 0xe7, 0xdc,
  0x11, 0xe1, 0x1d, 0xe9, 0xba, 0x0a, 0xfd, 0xeb, 0x1b, 0xda, 0x3c, 0xdc,
  0xb7, 0x1f, 0xea, 0xad, 0x23, 0xbe, 0x10, 0xd0, 0xc2, 0xe2, 0x12, 0x13,
  0x1a, 0xe2, 0x26, 0xd8, 0xd1, 0x19, 0x00, 0xdf, 0x2e, 0x14, 0x16, 0x06,
  0xe8, 0xcb, 0xe0, 0x04, 0x0d, 0xdb, 0x1f, 0xed, 0xc9, 0x1a, 0xf2, 0xc8,
  0x1d, 0x1c, 0x1f, 0xf3, 0x17, 0x17, 0x13, 0x08, 0xd3, 0x09, 0xba, 0xb9,
  0xfe, 0xea, 0xb0, 0xf0, 0x13, 0x00, 0xf5, 0x23, 0x10, 0x03, 0x1b, 0x0a,
  0xc7, 0xfa, 0xd0, 0xd0, 0xdd, 0x06, 0xeb, 0x17, 0xe4, 0xeb, 0x17, 0xff,
  0x04, 0x08, 0x1d, 0x21, 0xe1, 0xdd, 0xb3, 0xbf, 0xdc, 0x2c, 0xe2, 0x01,
  0xf9, 0x01, 0x22, 0x0c, 0x1e, 0xff, 0x00, 0x0b, 0xe0, 0xdd, 0xc7, 0xc1,
  0xdd, 0x22, 0xc1, 0x02, 0x1a, 0xf9, 0x0e, 0x09, 0x1b, 0x13, 0x03, 0x21,
  0xc6, 0x03, 0xd7, 0xab, 0xe3, 0x1c, 0x98, 0xfb, 0xf2, 0x0b, 0x15, 0x02,
  0x19, 0x0d, 0xf8, 0x24, 0xed, 0xdf, 0xc6, 0xda, 0xcf, 0x32, 0x9e, 0xff,
  0xf4, 0x14, 0x1a, 0xff, 0x11, 0x11, 0x06, 0x1c, 0xc7, 0x03, 0xc0, 0xed,
  0xfc, 0x33, 0xbb, 0xda, 0x03, 0xe3, 0x1b, 0x06, 0x2a, 0x07, 0x20, 0xf9,
  0xb2, 0xf9, 0xae, 0xca, 0xd6, 0x38, 0xd4, 0x03, 0xf7, 0x1e, 0x0e, 0x02,
  0x07, 0x1d, 0x04, 0x13, 0xea, 0x0a, 0x3b, 0xe2, 0xd7, 0x12, 0x17, 0xe0,
  0xd5, 0x03, 0xd3, 0xf7, 0x20, 0x04, 0xf8, 0x11, 0x18, 0xfd, 0x29, 0xd1,
  0xf2, 0x26, 0xe6, 0xf6, 0xf6, 0xf4, 0xf9, 0x17, 0x11, 0x06, 0x1c, 0xec,
  0x18, 0xfd, 0x29, 0xfa, 0xde, 0xf3, 0xea, 0xcb, 0x0b, 0xf4, 0xd0, 0x0d,
  0x23, 0xf1, 0x03, 0xec, 0x1b, 0xec, 0x19, 0xd3, 0xbd, 0x19, 0xfe, 0xb8,
  0x07, 0x0a, 0x09, 0x18, 0x1f, 0x28, 0x1c, 0x11, 0x01, 0xfb, 0x23, 0xb2,
  0xb3, 0x13, 0x12, 0xb8, 0x01, 0x1b, 0xe1, 0x0d, 0x17, 0xeb, 0xeb, 0x07,
  0xf1, 0xe6, 0x2c, 0xba, 0xe6, 0x1a, 0x1a, 0xc9, 0xd6, 0xe4, 0xd6, 0x07,
  0x1f, 0xf4, 0xef, 0xf2, 0x13, 0x0c, 0x28, 0xbb, 0xdc, 0x0c, 0x09, 0xe7,
  0xe4, 0x04, 0x0f, 0x0b, 0xf4, 0xf9, 0x14, 0x24, 0x30, 0xd8, 0x30, 0xf0,
  0xf1, 0xf2, 0x0f, 0x9f, 0x0c, 0xe7, 0xe4, 0xc6, 0xf5, 0xf5, 0xf6, 0x0f,
  0x12, 0xfb, 0x24, 0x18, 0x1c, 0x0b, 0xf9, 0xf5, 0x19, 0xef, 0x04, 0xe1,
  0x03, 0xe0, 0xd9, 0xfe, 0x15, 0x11, 0x1d, 0x0a, 0x1a, 0xfe, 0x26, 0x14,
  0x03, 0xc7, 0x13, 0xc8, 0x02, 0xe5, 0xfc, 0x0e, 0x1a, 0x16, 0x07, 0x05,
  0x16, 0x0f, 0x0d, 0x1a, 0x00, 0xfb, 0xee, 0xbc, 0x19, 0xf2, 0xfb, 0xfa,
  0x04, 0x06, 0x2e, 0x00, 0x26, 0x0f, 0x10, 0x13, 0xff, 0xd4, 0xf3, 0xc1,
  0xf7, 0xfb, 0xea, 0x00, 0xfe, 0x27, 0x1f, 0x1f, 0xf8, 0x02, 0x25, 0xf5,
  0x0b, 0xe0, 0x09, 0xd2, 0x0e, 0xe5, 0xda, 0xf1, 0xf4, 0x23, 0x18, 0x11,
  0xff, 0x0c, 0x0d, 0x04, 0xf2, 0xdc, 0xf4, 0xbf, 0xfd, 0xd0, 0x06, 0xf2,
  0xfd, 0x07, 0x2f, 0x0c, 0x0e, 0xfc, 0x21, 0x12, 0x1e, 0x14, 0x02, 0xea,
  0x07, 0x10, 0xfc, 0xeb, 0x22, 0x15, 0x1f, 0x16, 0x03, 0x19, 0xff, 0xf5,
  0x06, 0x0c, 0xde, 0xe7, 0x0a, 0xf3, 0x1c, 0x19, 0x18, 0xe9, 0xb3, 0xf6,
  0x0e, 0xd0, 0xf9, 0xff, 0x00, 0xf2, 0xe0, 0x1a, 0x0c, 0xed, 0x06, 0x08,
  0x01, 0xf5, 0x89, 0x26, 0x2a, 0xd9, 0x00, 0x06, 0xdf, 0xf8, 0x00, 0xfd,
  0x11, 0x05, 0x20, 0x02, 0xea, 0xd4, 0xa0, 0x29, 0x10, 0xee, 0xf4, 0x01,
  0xdb, 0xfd, 0xf5, 0xf5, 0xe9, 0xf6, 0x07, 0x11, 0x29, 0xdf, 0xa9, 0x2e,
  0x2c, 0xe0, 0xed, 0x1f, 0x0a, 0x13, 0xe4, 0xfe, 0x0a, 0xf4, 0xf3, 0x16,
  0xf7, 0xe9, 0x96, 0x1b, 0xfa, 0xaf, 0xf6, 0x02, 0xed, 0x0a, 0xe8, 0x06,
  0xe8, 0x17, 0x1e, 0xe7, 0xf1, 0xef, 0xb3, 0x21, 0x10, 0xd0, 0xf9, 0x20,
  0x00, 0x22, 0xf0, 0x0e, 0xdd, 0x15, 0xf2, 0xfd, 0xdf, 0x05, 0xc0, 0x0d,
  0x29, 0x00, 0x0d, 0xf9, 0x02, 0x03, 0x0d, 0x06, 0xf7, 0xfd, 0x19, 0x16,
  0xbb, 0xe4, 0x81, 0xf0, 0x17, 0xf2, 0xeb, 0x24, 0xce, 0x06, 0x03, 0xf5,
  0xee, 0x06, 0xea, 0xfe, 0x2a, 0xf5, 0x1f, 0x10, 0x22, 0xed, 0xfa, 0xe9,
  0xe6, 0xf0, 0xf5, 0x14, 0x17, 0x07, 0x19, 0x08, 0x06, 0xf2, 0x26, 0x1c,
  0x01, 0x01, 0x17, 0x0c, 0xe9, 0xf3, 0xec, 0xf2, 0xee, 0x10, 0x1c, 0xf4,
  0x1e, 0xfe, 0x0c, 0x17, 0xfb, 0x24, 0x12, 0x17, 0xf2, 0x05, 0xf0, 0x01,
  0xf8, 0x00, 0xe9, 0xf3, 0xe5, 0x16, 0x0b, 0x12, 0x10, 0xf8, 0x1e, 0x12,
  0xfa, 0x15, 0xe5, 0x1e, 0xea, 0x18, 0x1a, 0x0d, 0x10, 0x0a, 0x14, 0x23,
  0xeb, 0x1a, 0x30, 0xec, 0xed, 0x00, 0x07, 0x05, 0xed, 0x17, 0xe8, 0xdc,
  0xf5, 0x15, 0x06, 0x24, 0x11, 0x15, 0x1b, 0xf2, 0xe2, 0x02, 0x06, 0xfd,
  0xef, 0x27, 0x16, 0x07, 0x01, 0x1d, 0x2e, 0xf1, 0xf6, 0xed, 0x1b, 0x14,
  0xd8, 0x08, 0xcb, 0xfb, 0xdc, 0x04, 0x0f, 0x14, 0x35, 0xec, 0x28, 0x17,
  0xec, 0xe5, 0x24, 0x29, 0x52, 0xfe, 0xff, 0xff, 0x04, 0x00, 0x00, 0x00,
  0x1c, 0x00, 0x00, 0x00, 0x4f, 0x00, 0x00, 0x00, 0x1d, 0x00, 0x00, 0x00,
  0x9d, 0x00, 0x00, 0x00, 0xe1, 0xff, 0xff, 0xff, 0x87, 0xff, 0xff, 0xff,
  0xe6, 0xff, 0xff, 0xff, 0xed, 0xff, 0xff, 0xff, 0x7a, 0xfe, 0xff, 0xff,
  0x04, 0x00, 0x00, 0x00, 0x08, 0x00, 0x00, 0x00, 0xff, 0xff, 0xff, 0xff,
  0x80, 0x00, 0x00, 0x00, 0x2c, 0xd4, 0xff, 0xff, 0x30, 0xd4, 0xff, 0xff,
  0x34, 0xd4, 0xff, 0xff, 0x0f, 0x00, 0x00, 0x00, 0x4d, 0x4c, 0x49, 0x52,
  0x20, 0x43, 0x6f, 0x6e, 0x76, 0x65, 0x72, 0x74, 0x65, 0x64, 0x2e, 0x00,
  0x01, 0x00, 0x00, 0x00, 0x14, 0x00, 0x00, 0x00, 0x00, 0x00, 0x0e, 0x00,
  0x18, 0x00, 0x14, 0x00, 0x10, 0x00, 0x0c, 0x00, 0x08, 0x00, 0x04, 0x00,
  0x0e, 0x00, 0x00, 0x00, 0x14, 0x00, 0x00, 0x00, 0x1c, 0x00, 0x00, 0x00,
  0x00, 0x07, 0x00, 0x00, 0x04, 0x07, 0x00, 0x00, 0x0c, 0x07, 0x00, 0x00,
  0x04, 0x00, 0x00, 0x00, 0x6d, 0x61, 0x69, 0x6e, 0x00, 0x00, 0x00, 0x00,
  0x1e, 0x00, 0x00, 0x00, 0xc8, 0x06, 0x00, 0x00, 0x9c, 0x06, 0x00, 0x00,
  0x4c, 0x06, 0x00, 0x00, 0x08, 0x06, 0x00, 0x00, 0xd4, 0x05, 0x00, 0x00,
  0x80, 0x05, 0x00, 0x00, 0x3c, 0x05, 0x00, 0x00, 0x08, 0x05, 0x00, 0x00,
  0xd4, 0x04, 0x00, 0x00, 0x90, 0x04, 0x00, 0x00, 0x4c, 0x04, 0x00, 0x00,
  0x18, 0x04, 0x00, 0x00, 0xe4, 0x03, 0x00, 0x00, 0xa0, 0x03, 0x00, 0x00,
  0x5c, 0x03, 0x00, 0x00, 0x28, 0x03, 0x00, 0x00, 0xf4, 0x02, 0x00, 0x00,
  0xb0, 0x02, 0x00, 0x00, 0x6c, 0x02, 0x00, 0x00, 0x38, 0x02, 0x00, 0x00,
  0x04, 0x02, 0x00, 0x00, 0xc0, 0x01, 0x00, 0x00, 0x7c, 0x01, 0x00, 0x00,
  0x48, 0x01, 0x00, 0x00, 0x14, 0x01, 0x00, 0x00, 0xd0, 0x00, 0x00, 0x00,
  0x90, 0x00, 0x00, 0x00, 0x68, 0x00, 0x00, 0x00, 0x24, 0x00, 0x00, 0x00,
  0x04, 0x00, 0x00, 0x00, 0xba, 0xf9, 0xff, 0xff, 0x08, 0x00, 0x00, 0x00,
  0x0c, 0x00, 0x00, 0x00, 0x01, 0x00, 0x00, 0x00, 0x3a, 0x00, 0x00, 0x00,
  0x01, 0x00, 0x00, 0x00, 0x39, 0x00, 0x00, 0x00, 0x4e, 0xfa, 0xff, 0xff,
  0x14, 0x00, 0x00, 0x00, 0x00, 0x00, 0x00, 0x08, 0x10, 0x00, 0x00, 0x00,
  0x14, 0x00, 0x00, 0x00, 0x07, 0x00, 0x00, 0x00, 0x38, 0xd5, 0xff, 0xff,
  0x01, 0x00, 0x00, 0x00, 0x39, 0x00, 0x00, 0x00, 0x03, 0x00, 0x00, 0x00,
  0x38, 0x00, 0x00, 0x00, 0x04, 0x00, 0x00, 0x00, 0x03, 0x00, 0x00, 0x00,
  0x00, 0x00, 0x0a, 0x00, 0x10, 0x00, 0x0c, 0x00, 0x08, 0x00, 0x04, 0x00,
  0x0a, 0x00, 0x00, 0x00, 0x0c, 0x00, 0x00, 0x00, 0x10, 0x00, 0x00, 0x00,
  0x06, 0x00, 0x00, 0x00, 0x01, 0x00, 0x00, 0x00, 0x38, 0x00, 0x00, 0x00,
  0x02, 0x00, 0x00, 0x00, 0x37, 0x00, 0x00, 0x00, 0x02, 0x00, 0x00, 0x00,
  0xb2, 0xfa, 0xff, 0xff, 0x1c, 0x00, 0x00, 0x00, 0x00, 0x00, 0x00, 0x0a,
  0x1c, 0x00, 0x00, 0x00, 0x20, 0x00, 0x00, 0x00, 0x05, 0x00, 0x00, 0x00,
  0x00, 0x00, 0x06, 0x00, 0x08, 0x00, 0x04, 0x00, 0x06, 0x00, 0x00, 0x00,
  0x03, 0x00, 0x00, 0x00, 0x01, 0x00, 0x00, 0x00, 0x37, 0x00, 0x00, 0x00,
  0x02, 0x00, 0x00, 0x00, 0x2a, 0x00, 0x00, 0x00, 0x36, 0x00, 0x00, 0x00,
  0xee, 0xfa, 0xff, 0xff, 0x14, 0x00, 0x00, 0x00, 0x00, 0x00, 0x00, 0x05,
  0x24, 0x00, 0x00, 0x00, 0x28, 0x00, 0x00, 0x00, 0x04, 0x00, 0x00, 0x00,
  0x9e, 0xfb, 0xff, 0xff, 0x02, 0x00, 0x00, 0x00, 0x02, 0x00, 0x00, 0x00,
  0x02, 0x00, 0x00, 0x00, 0x02, 0x00, 0x00, 0x00, 0x00, 0x00, 0x00, 0x01,
  0x01, 0x00, 0x00, 0x00, 0x36, 0x00, 0x00, 0x00, 0x01, 0x00, 0x00, 0x00,
  0x35, 0x00, 0x00, 0x00, 0x2e, 0xfb, 0xff, 0xff, 0x14, 0x00, 0x00, 0x00,
  0x00, 0x00, 0x00, 0x0b, 0x10, 0x00, 0x00, 0x00, 0x14, 0x00, 0x00, 0x00,
  0x03, 0x00, 0x00, 0x00, 0x18, 0xd6, 0xff, 0xff, 0x01, 0x00, 0x00, 0x00,
  0x35, 0x00, 0x00, 0x00, 0x02, 0x00, 0x00, 0x00, 0x34, 0x00, 0x00, 0x00,
  0x05, 0x00, 0x00, 0x00, 0x5e, 0xfb, 0xff, 0xff, 0x14, 0x00, 0x00, 0x00,
  0x00, 0x00, 0x00, 0x15, 0x10, 0x00, 0x00, 0x00, 0x14, 0x00, 0x00, 0x00,
  0x02, 0x00, 0x00, 0x00, 0x48, 0xd6, 0xff, 0xff, 0x01, 0x00, 0x00, 0x00,
  0x34, 0x00, 0x00, 0x00, 0x02, 0x00, 0x00, 0x00, 0x33, 0x00, 0x00, 0x00,
  0x06, 0x00, 0x00, 0x00, 0x8e, 0xfb, 0xff, 0xff, 0x14, 0x00, 0x00, 0x00,
  0x00, 0x00, 0x00, 0x01, 0x1c, 0x00, 0x00, 0x00, 0x20, 0x00, 0x00, 0x00,
  0x01, 0x00, 0x00, 0x00, 0x80, 0xfb, 0xff, 0xff, 0x00, 0x00, 0x00, 0x01,
  0x01, 0x00, 0x00, 0x00, 0x01, 0x00, 0x00, 0x00, 0x01, 0x00, 0x00, 0x00,
  0x33, 0x00, 0x00, 0x00, 0x03, 0x00, 0x00, 0x00, 0x32, 0x00, 0x00, 0x00,
  0x08, 0x00, 0x00, 0x00, 0x07, 0x00, 0x00, 0x00, 0xce, 0xfb, 0xff, 0xff,
  0x14, 0x00, 0x00, 0x00, 0x00, 0x00, 0x00, 0x05, 0x24, 0x00, 0x00, 0x00,
  0x28, 0x00, 0x00, 0x00, 0x04, 0x00, 0x00, 0x00, 0x7e, 0xfc, 0xff, 0xff,
  0x02, 0x00, 0x00, 0x00, 0x02, 0x00, 0x00, 0x00, 0x02, 0x00, 0x00, 0x00,
  0x02, 0x00, 0x00, 0x00, 0x00, 0x00, 0x00, 0x01, 0x01, 0x00, 0x00, 0x00,
  0x32, 0x00, 0x00, 0x00, 0x01, 0x00, 0x00, 0x00, 0x31, 0x00, 0x00, 0x00,
  0x0e, 0xfc, 0xff, 0xff, 0x14, 0x00, 0x00, 0x00, 0x00, 0x00, 0x00, 0x0b,
  0x10, 0x00, 0x00, 0x00, 0x14, 0x00, 0x00, 0x00, 0x03, 0x00, 0x00, 0x00,
  0xf8, 0xd6, 0xff, 0xff, 0x01, 0x00, 0x00, 0x00, 0x31, 0x00, 0x00, 0x00,
  0x02, 0x00, 0x00, 0x00, 0x30, 0x00, 0x00, 0x00, 0x09, 0x00, 0x00, 0x00,
  0x3e, 0xfc, 0xff, 0xff, 0x14, 0x00, 0x00, 0x00, 0x00, 0x00, 0x00, 0x15,
  0x10, 0x00, 0x00, 0x00, 0x14, 0x00, 0x00, 0x00, 0x02, 0x00, 0x00, 0x00,
  0x28, 0xd7, 0xff, 0xff, 0x01, 0x00, 0x00, 0x00, 0x30, 0x00, 0x00, 0x00,
  0x02, 0x00, 0x00, 0x00, 0x2f, 0x00, 0x00, 0x00, 0x0a, 0x00, 0x00, 0x00,
  0x6e, 0xfc, 0xff, 0xff, 0x14, 0x00, 0x00, 0x00, 0x00, 0x00, 0x00, 0x01,
  0x1c, 0x00, 0x00, 0x00, 0x20, 0x00, 0x00, 0x00, 0x01, 0x00, 0x00, 0x00,
  0x60, 0xfc, 0xff, 0xff, 0x00, 0x00, 0x00, 0x01, 0x01, 0x00, 0x00, 0x00,
  0x01, 0x00, 0x00, 0x00, 0x01, 0x00, 0x00, 0x00, 0x2f, 0x00, 0x00, 0x00,
  0x03, 0x00, 0x00, 0x00, 0x2e, 0x00, 0x00, 0x00, 0x0c, 0x00, 0x00, 0x00,
  0x0b, 0x00, 0x00, 0x00, 0xae, 0xfc, 0xff, 0xff, 0x14, 0x00, 0x00, 0x00,
  0x00, 0x00, 0x00, 0x05, 0x24, 0x00, 0x00, 0x00, 0x28, 0x00, 0x00, 0x00,
  0x04, 0x00, 0x00, 0x00, 0x5e, 0xfd, 0xff, 0xff, 0x02, 0x00, 0x00, 0x00,
  0x02, 0x00, 0x00, 0x00, 0x02, 0x00, 0x00, 0x00, 0x02, 0x00, 0x00, 0x00,
  0x00, 0x00, 0x00, 0x01, 0x01, 0x00, 0x00, 0x00, 0x2e, 0x00, 0x00, 0x00,
  0x01, 0x00, 0x00, 0x00, 0x2d, 0x00, 0x00, 0x00, 0xee, 0xfc, 0xff, 0xff,
  0x14, 0x00, 0x00, 0x00, 0x00, 0x00, 0x00, 0x0b, 0x10, 0x00, 0x00, 0x00,
  0x14, 0x00, 0x00, 0x00, 0x03, 0x00, 0x00, 0x00, 0xd8, 0xd7, 0xff, 0xff,
  0x01, 0x00, 0x00, 0x00, 0x2d, 0x00, 0x00, 0x00, 0x02, 0x00, 0x00, 0x00,
  0x2c, 0x00, 0x00, 0x00, 0x0d, 0x00, 0x00, 0x00, 0x1e, 0xfd, 0xff, 0xff,
  0x14, 0x00, 0x00, 0x00, 0x00, 0x00, 0x00, 0x15, 0x10, 0x00, 0x00, 0x00,
  0x14, 0x00, 0x00, 0x00, 0x02, 0x00, 0x00, 0x00, 0x08, 0xd8, 0xff, 0xff,
  0x01, 0x00, 0x00, 0x00, 0x2c, 0x00, 0x00, 0x00, 0x02, 0x00, 0x00, 0x00,
  0x2b, 0x00, 0x00, 0x00, 0x0e, 0x00, 0x00, 0x00, 0x4e, 0xfd, 0xff, 0xff,
  0x14, 0x00, 0x00, 0x00, 0x00, 0x00, 0x00, 0x01, 0x1c, 0x00, 0x00, 0x00,
  0x20, 0x00, 0x00, 0x00, 0x01, 0x00, 0x00, 0x00, 0x40, 0xfd, 0xff, 0xff,
  0x00, 0x00, 0x00, 0x01, 0x01, 0x00, 0x00, 0x00, 0x01, 0x00, 0x00, 0x00,
  0x01, 0x00, 0x00, 0x00, 0x2b, 0x00, 0x00, 0x00, 0x03, 0x00, 0x00, 0x00,
  0x1d, 0x00, 0x00, 0x00, 0x10, 0x00, 0x00, 0x00, 0x0f, 0x00, 0x00, 0x00,
  0x8e, 0xfd, 0xff, 0xff, 0x14, 0x00, 0x00, 0x00, 0x00, 0x00, 0x00, 0x05,
  0x24, 0x00, 0x00, 0x00, 0x28, 0x00, 0x00, 0x00, 0x04, 0x00, 0x00, 0x00,
  0x3e, 0xfe, 0xff, 0xff, 0x02, 0x00, 0x00, 0x00, 0x02, 0x00, 0x00, 0x00,
  0x02, 0x00, 0x00, 0x00, 0x02, 0x00, 0x00, 0x00, 0x00, 0x00, 0x00, 0x01,
  0x01, 0x00, 0x00, 0x00, 0x2a, 0x00, 0x00, 0x00, 0x01, 0x00, 0x00, 0x00,
  0x29, 0x00, 0x00, 0x00, 0xce, 0xfd, 0xff, 0xff, 0x14, 0x00, 0x00, 0x00,
  0x00, 0x00, 0x00, 0x0b, 0x10, 0x00, 0x00, 0x00, 0x14, 0x00, 0x00, 0x00,
  0x03, 0x00, 0x00, 0x00, 0xb8, 0xd8, 0xff, 0xff, 0x01, 0x00, 0x00, 0x00,
  0x29, 0x00, 0x00, 0x00, 0x02, 0x00, 0x00, 0x00, 0x28, 0x00, 0x00, 0x00,
  0x11, 0x00, 0x00, 0x00, 0xfe, 0xfd, 0xff, 0xff, 0x14, 0x00, 0x00, 0x00,
  0x00, 0x00, 0x00, 0x15, 0x10, 0x00, 0x00, 0x00, 0x14, 0x00, 0x00, 0x00,
  0x02, 0x00, 0x00, 0x00, 0xe8, 0xd8, 0xff, 0xff, 0x01, 0x00, 0x00, 0x00,
  0x28, 0x00, 0x00, 0x00, 0x02, 0x00, 0x00, 0x00, 0x27, 0x00, 0x00, 0x00,
  0x12, 0x00, 0x00, 0x00, 0x2e, 0xfe, 0xff, 0xff, 0x14, 0x00, 0x00, 0x00,
  0x00, 0x00, 0x00, 0x01, 0x1c, 0x00, 0x00, 0x00, 0x20, 0x00, 0x00, 0x00,
  0x01, 0x00, 0x00, 0x00, 0x20, 0xfe, 0xff, 0xff, 0x00, 0x00, 0x00, 0x01,
  0x01, 0x00, 0x00, 0x00, 0x01, 0x00, 0x00, 0x00, 0x01, 0x00, 0x00, 0x00,
  0x27, 0x00, 0x00, 0x00, 0x03, 0x00, 0x00, 0x00, 0x26, 0x00, 0x00, 0x00,
  0x14, 0x00, 0x00, 0x00, 0x13, 0x00, 0x00, 0x00, 0x6e, 0xfe, 0xff, 0xff,
  0x14, 0x00, 0x00, 0x00, 0x00, 0x00, 0x00, 0x05, 0x24, 0x00, 0x00, 0x00,
  0x28, 0x00, 0x00, 0x00, 0x04, 0x00, 0x00, 0x00, 0x1e, 0xff, 0xff, 0xff,
  0x02, 0x00, 0x00, 0x00, 0x02, 0x00, 0x00, 0x00, 0x02, 0x00, 0x00, 0x00,
  0x02, 0x00, 0x00, 0x00, 0x00, 0x00, 0x00, 0x01, 0x01, 0x00, 0x00, 0x00,
  0x26, 0x00, 0x00, 0x00, 0x01, 0x00, 0x00, 0x00, 0x25, 0x00, 0x00, 0x00,
  0xae, 0xfe, 0xff, 0xff, 0x14, 0x00, 0x00, 0x00, 0x00, 0x00, 0x00, 0x0b,
  0x10, 0x00, 0x00, 0x00, 0x14, 0x00, 0x00, 0x00, 0x03, 0x00, 0x00, 0x00,
  0x98, 0xd9, 0xff, 0xff, 0x01, 0x00, 0x00, 0x00, 0x25, 0x00, 0x00, 0x00,
  0x02, 0x00, 0x00, 0x00, 0x24, 0x00, 0x00, 0x00, 0x15, 0x00, 0x00, 0x00,
  0xde, 0xfe, 0xff, 0xff, 0x14, 0x00, 0x00, 0x00, 0x00, 0x00, 0x00, 0x15,
  0x10, 0x00, 0x00, 0x00, 0x14, 0x00, 0x00, 0x00, 0x02, 0x00, 0x00, 0x00,
  0xc8, 0xd9, 0xff, 0xff, 0x01, 0x00, 0x00, 0x00, 0x24, 0x00, 0x00, 0x00,
  0x02, 0x00, 0x00, 0x00, 0x23, 0x00, 0x00, 0x00, 0x16, 0x00, 0x00, 0x00,
  0x0e, 0xff, 0xff, 0xff, 0x14, 0x00, 0x00, 0x00, 0x00, 0x00, 0x00, 0x01,
  0x1c, 0x00, 0x00, 0x00, 0x20, 0x00, 0x00, 0x00, 0x01, 0x00, 0x00, 0x00,
  0x00, 0xff, 0xff, 0xff, 0x00, 0x00, 0x00, 0x01, 0x01, 0x00, 0x00, 0x00,
  0x01, 0x00, 0x00, 0x00, 0x01, 0x00, 0x00, 0x00, 0x23, 0x00, 0x00, 0x00,
  0x03, 0x00, 0x00, 0x00, 0x22, 0x00, 0x00, 0x00, 0x18, 0x00, 0x00, 0x00,
  0x17, 0x00, 0x00, 0x00, 0x4e, 0xff, 0xff, 0xff, 0x24, 0x00, 0x00, 0x00,
  0x00, 0x00, 0x00, 0x05, 0x34, 0x00, 0x00, 0x00, 0x38, 0x00, 0x00, 0x00,
  0x04, 0x00, 0x00, 0x00, 0x00, 0x00, 0x0e, 0x00, 0x18, 0x00, 0x17, 0x00,
  0x10, 0x00, 0x0c, 0x00, 0x08, 0x00, 0x04, 0x00, 0x0e, 0x00, 0x00, 0x00,
  0x02, 0x00, 0x00, 0x00, 0x02, 0x00, 0x00, 0x00, 0x02, 0x00, 0x00, 0x00,
  0x02, 0x00, 0x00, 0x00, 0x00, 0x00, 0x00, 0x01, 0x01, 0x00, 0x00, 0x00,
  0x22, 0x00, 0x00, 0x00, 0x01, 0x00, 0x00, 0x00, 0x21, 0x00, 0x00, 0x00,
  0x9e, 0xff, 0xff, 0xff, 0x14, 0x00, 0x00, 0x00, 0x00, 0x00, 0x00, 0x0b,
  0x10, 0x00, 0x00, 0x00, 0x14, 0x00, 0x00, 0x00, 0x03, 0x00, 0x00, 0x00,
  0x88, 0xda, 0xff, 0xff, 0x01, 0x00, 0x00, 0x00, 0x21, 0x00, 0x00, 0x00,
  0x02, 0x00, 0x00, 0x00, 0x20, 0x00, 0x00, 0x00, 0x19, 0x00, 0x00, 0x00,
  0xce, 0xff, 0xff, 0xff, 0x14, 0x00, 0x00, 0x00, 0x00, 0x00, 0x00, 0x15,
  0x10, 0x00, 0x00, 0x00, 0x14, 0x00, 0x00, 0x00, 0x02, 0x00, 0x00, 0x00,
  0xb8, 0xda, 0xff, 0xff, 0x01, 0x00, 0x00, 0x00, 0x20, 0x00, 0x00, 0x00,
  0x02, 0x00, 0x00, 0x00, 0x1f, 0x00, 0x00, 0x00, 0x1a, 0x00, 0x00, 0x00,
  0x00, 0x00, 0x0e, 0x00, 0x18, 0x00, 0x14, 0x00, 0x10, 0x00, 0x0c, 0x00,
  0x0b, 0x00, 0x04, 0x00, 0x0e, 0x00, 0x00, 0x00, 0x20, 0x00, 0x00, 0x00,
  0x00, 0x00, 0x00, 0x01, 0x28, 0x00, 0x00, 0x00, 0x2c, 0x00, 0x00, 0x00,
  0x01, 0x00, 0x00, 0x00, 0x0c, 0x00, 0x10, 0x00, 0x00, 0x00, 0x0c, 0x00,
  0x08, 0x00, 0x07, 0x00, 0x0c, 0x00, 0x00, 0x00, 0x00, 0x00, 0x00, 0x01,
  0x01, 0x00, 0x00, 0x00, 0x01, 0x00, 0x00, 0x00, 0x01, 0x00, 0x00, 0x00,
  0x1f, 0x00, 0x00, 0x00, 0x03, 0x00, 0x00, 0x00, 0x1e, 0x00, 0x00, 0x00,
  0x1c, 0x00, 0x00, 0x00, 0x1b, 0x00, 0x00, 0x00, 0xe2, 0xff, 0xff, 0xff,
  0x08, 0x00, 0x00, 0x00, 0x0c, 0x00, 0x00, 0x00, 0x01, 0x00, 0x00, 0x00,
  0x1e, 0x00, 0x00, 0x00, 0x01, 0x00, 0x00, 0x00, 0x01, 0x00, 0x00, 0x00,
  0x00, 0x00, 0x0a, 0x00, 0x0c, 0x00, 0x00, 0x00, 0x08, 0x00, 0x04, 0x00,
  0x0a, 0x00, 0x00, 0x00, 0x08, 0x00, 0x00, 0x00, 0x0c, 0x00, 0x00, 0x00,
  0x01, 0x00, 0x00, 0x00, 0x1d, 0x00, 0x00, 0x00, 0x01, 0x00, 0x00, 0x00,
  0x00, 0x00, 0x00, 0x00, 0x01, 0x00, 0x00, 0x00, 0x3a, 0x00, 0x00, 0x00,
  0x02, 0x00, 0x00, 0x00, 0x00, 0x00, 0x00, 0x00, 0x01, 0x00, 0x00, 0x00,
  0x3b, 0x00, 0x00, 0x00, 0x48, 0x25, 0x00, 0x00, 0xa0, 0x24, 0x00, 0x00,
  0x54, 0x24, 0x00, 0x00, 0xc8, 0x23, 0x00, 0x00, 0x5c, 0x23, 0x00, 0x00,
  0xd8, 0x22, 0x00, 0x00, 0x5c, 0x22, 0x00, 0x00, 0x90, 0x21, 0x00, 0x00,
  0xc4, 0x20, 0x00, 0x00, 0x40, 0x20, 0x00, 0x00, 0xc4, 0x1f, 0x00, 0x00,
  0xf8, 0x1e, 0x00, 0x00, 0x2c, 0x1e, 0x00, 0x00, 0xb0, 0x1d, 0x00, 0x00,
  0x34, 0x1d, 0x00, 0x00, 0x68, 0x1c, 0x00, 0x00, 0xa4, 0x1b, 0x00, 0x00,
  0x28, 0x1b, 0x00, 0x00, 0xac, 0x1a, 0x00, 0x00, 0xe0, 0x19, 0x00, 0x00,
  0x1c, 0x19, 0x00, 0x00, 0xa0, 0x18, 0x00, 0x00, 0x24, 0x18, 0x00, 0x00,
  0x58, 0x17, 0x00, 0x00, 0x94, 0x16, 0x00, 0x00, 0x18, 0x16, 0x00, 0x00,
  0x9c, 0x15, 0x00, 0x00, 0xd0, 0x14, 0x00, 0x00, 0x0c, 0x14, 0x00, 0x00,
  0x88, 0x13, 0x00, 0x00, 0x04, 0x13, 0x00, 0x00, 0x08, 0x12, 0x00, 0x00,
  0x64, 0x11, 0x00, 0x00, 0xc0, 0x10, 0x00, 0x00, 0x2c, 0x10, 0x00, 0x00,
  0x30, 0x0f, 0x00, 0x00, 0x8c, 0x0e, 0x00, 0x00, 0xe8, 0x0d, 0x00, 0x00,
  0x54, 0x0d, 0x00, 0x00, 0x58, 0x0c, 0x00, 0x00, 0xb4, 0x0b, 0x00, 0x00,
  0x10, 0x0b, 0x00, 0x00, 0x7c, 0x0a, 0x00, 0x00, 0x80, 0x09, 0x00, 0x00,
  0xdc, 0x08, 0x00, 0x00, 0x38, 0x08, 0x00, 0x00, 0xa4, 0x07, 0x00, 0x00,
  0xa8, 0x06, 0x00, 0x00, 0x04, 0x06, 0x00, 0x00, 0x60, 0x05, 0x00, 0x00,
  0xcc, 0x04, 0x00, 0x00, 0xe8, 0x03, 0x00, 0x00, 0x44, 0x03, 0x00, 0x00,
  0xa0, 0x02, 0x00, 0x00, 0x0c, 0x02, 0x00, 0x00, 0x78, 0x01, 0x00, 0x00,
  0xfc, 0x00, 0x00, 0x00, 0x80, 0x00, 0x00, 0x00, 0x04, 0x00, 0x00, 0x00,
  0xba, 0xdb, 0xff, 0xff, 0x00, 0x00, 0x00, 0x01, 0x18, 0x00, 0x00, 0x00,
  0x20, 0x00, 0x00, 0x00, 0x3c, 0x00, 0x00, 0x00, 0x3b, 0x00, 0x00, 0x00,
  0x00, 0x00, 0x00, 0x03, 0x50, 0x00, 0x00, 0x00, 0x02, 0x00, 0x00, 0x00,
  0xff, 0xff, 0xff, 0xff, 0x07, 0x00, 0x00, 0x00, 0x9c, 0xdb, 0xff, 0xff,
  0x08, 0x00, 0x00, 0x00, 0x10, 0x00, 0x00, 0x00, 0x01, 0x00, 0x00, 0x00,
  0xa3, 0x00, 0x00, 0x00, 0x00, 0x00, 0x00, 0x00, 0x01, 0x00, 0x00, 0x00,
  0x03, 0x25, 0xd7, 0x3e, 0x19, 0x00, 0x00, 0x00, 0x53, 0x74, 0x61, 0x74,
  0x65, 0x66, 0x75, 0x6c, 0x50, 0x61, 0x72, 0x74, 0x69, 0x74, 0x69, 0x6f,
  0x6e, 0x65, 0x64, 0x43, 0x61, 0x6c, 0x6c, 0x3a, 0x30, 0x00, 0x00, 0x00,
  0x02, 0x00, 0x00, 0x00, 0x01, 0x00, 0x00, 0x00, 0x07, 0x00, 0x00, 0x00,
  0x32, 0xdc, 0xff, 0xff, 0x00, 0x00, 0x00, 0x01, 0x18, 0x00, 0x00, 0x00,
  0x20, 0x00, 0x00, 0x00, 0x3c, 0x00, 0x00, 0x00, 0x3a, 0x00, 0x00, 0x00,
  0x00, 0x00, 0x00, 0x09, 0x50, 0x00, 0x00, 0x00, 0x02, 0x00, 0x00, 0x00,
  0xff, 0xff, 0xff, 0xff, 0x07, 0x00, 0x00, 0x00, 0x14, 0xdc, 0xff, 0xff,
  0x08, 0x00, 0x00, 0x00, 0x10, 0x00, 0x00, 0x00, 0x01, 0x00, 0x00, 0x00,
  0x23, 0x00, 0x00, 0x00, 0x00, 0x00, 0x00, 0x00, 0x01, 0x00, 0x00, 0x00,
  0x03, 0x25, 0xd7, 0x3e, 0x1a, 0x00, 0x00, 0x00, 0x53, 0x74, 0x61, 0x74,
  0x65, 0x66, 0x75, 0x6c, 0x50, 0x61, 0x72, 0x74, 0x69, 0x74, 0x69, 0x6f,
  0x6e, 0x65, 0x64, 0x43, 0x61, 0x6c, 0x6c, 0x3a, 0x30, 0x31, 0x00, 0x00,
  0x02, 0x00, 0x00, 0x00, 0x01, 0x00, 0x00, 0x00, 0x07, 0x00, 0x00, 0x00,
  0xaa, 0xdc, 0xff, 0xff, 0x00, 0x00, 0x00, 0x01, 0x18, 0x00, 0x00, 0x00,
  0x20, 0x00, 0x00, 0x00, 0x3c, 0x00, 0x00, 0x00, 0x39, 0x00, 0x00, 0x00,
  0x00, 0x00, 0x00, 0x09, 0x50, 0x00, 0x00, 0x00, 0x02, 0x00, 0x00, 0x00,
  0xff, 0xff, 0xff, 0xff, 0x80, 0x00, 0x00, 0x00, 0x8c, 0xdc, 0xff, 0xff,
  0x08, 0x00, 0x00, 0x00, 0x10, 0x00, 0x00, 0x00, 0x01, 0x00, 0x00, 0x00,
  0x8b, 0xff, 0xff, 0xff, 0xff, 0xff, 0xff, 0xff, 0x01, 0x00, 0x00, 0x00,
  0x50, 0xd3, 0xad, 0x3d, 0x19, 0x00, 0x00, 0x00, 0x6d, 0x6f, 0x64, 0x65,
  0x6c, 0x5f, 0x31, 0x2f, 0x66, 0x6c, 0x61, 0x74, 0x74, 0x65, 0x6e, 0x5f,
  0x31, 0x2f, 0x52, 0x65, 0x73, 0x68, 0x61, 0x70, 0x65, 0x00, 0x00, 0x00,
  0x02, 0x00, 0x00, 0x00, 0x01, 0x00, 0x00, 0x00, 0x80, 0x00, 0x00, 0x00,
  0x22, 0xdd, 0xff, 0xff, 0x00, 0x00, 0x00, 0x01, 0x18, 0x00, 0x00, 0x00,
  0x28, 0x00, 0x00, 0x00, 0x48, 0x00, 0x00, 0x00, 0x38, 0x00, 0x00, 0x00,
  0x00, 0x00, 0x00, 0x09, 0x60, 0x00, 0x00, 0x00, 0x04, 0x00, 0x00, 0x00,
  0xff, 0xff, 0xff, 0xff, 0x08, 0x00, 0x00, 0x00, 0x01, 0x00, 0x00, 0x00,
  0x10, 0x00, 0x00, 0x00, 0x0c, 0xdd, 0xff, 0xff, 0x08, 0x00, 0x00, 0x00,
  0x14, 0x00, 0x00, 0x00, 0x01, 0x00, 0x00, 0x00, 0x8b, 0xff, 0xff, 0xff,
  0xff, 0xff, 0xff, 0xff, 0x00, 0x00, 0x00, 0x00, 0x01, 0x00, 0x00, 0x00,
  0x50, 0xd3, 0xad, 0x3d, 0x1c, 0x00, 0x00, 0x00, 0x6d, 0x6f, 0x64, 0x65,
  0x6c, 0x5f, 0x31, 0x2f, 0x63, 0x6f, 0x6e, 0x63, 0x61, 0x74, 0x65, 0x6e,
  0x61, 0x74, 0x65, 0x5f, 0x31, 0x2f, 0x63, 0x6f, 0x6e, 0x63, 0x61, 0x74,
  0x00, 0x00, 0x00, 0x00, 0x04, 0x00, 0x00, 0x00, 0x01, 0x00, 0x00, 0x00,
  0x08, 0x00, 0x00, 0x00, 0x01, 0x00, 0x00, 0x00, 0x10, 0x00, 0x00, 0x00,
  0xb2, 0xdd, 0xff, 0xff, 0x00, 0x00, 0x00, 0x01, 0x18, 0x00, 0x00, 0x00,
  0x28, 0x00, 0x00, 0x00, 0x44, 0x00, 0x00, 0x00, 0x37, 0x00, 0x00, 0x00,
  0x00, 0x00, 0x00, 0x09, 0x60, 0x00, 0x00, 0x00, 0x04, 0x00, 0x00, 0x00,
  0xff, 0xff, 0xff, 0xff, 0x08, 0x00, 0x00, 0x00, 0x01, 0x00, 0x00, 0x00,
  0x08, 0x00, 0x00, 0x00, 0x9c, 0xdd, 0xff, 0xff, 0x08, 0x00, 0x00, 0x00,
  0x10, 0x00, 0x00, 0x00, 0x01, 0x00, 0x00, 0x00, 0x8b, 0xff, 0xff, 0xff,
  0xff, 0xff, 0xff, 0xff, 0x01, 0x00, 0x00, 0x00, 0x50, 0xd3, 0xad, 0x3d,
  0x20, 0x00, 0x00, 0x00, 0x6d, 0x6f, 0x64, 0x65, 0x6c, 0x5f, 0x31, 0x2f,
  0x6d, 0x61, 0x78, 0x5f, 0x70, 0x6f, 0x6f, 0x6c, 0x69, 0x6e, 0x67, 0x32,
  0x64, 0x5f, 0x31, 0x31, 0x2f, 0x4d, 0x61, 0x78, 0x50, 0x6f, 0x6f, 0x6c,
  0x00, 0x00, 0x00, 0x00, 0x04, 0x00, 0x00, 0x00, 0x01, 0x00, 0x00, 0x00,
  0x08, 0x00, 0x00, 0x00, 0x01, 0x00, 0x00, 0x00, 0x08, 0x00, 0x00, 0x00,
  0x42, 0xde, 0xff, 0xff, 0x00, 0x00, 0x00, 0x01, 0x18, 0x00, 0x00, 0x00,
  0x28, 0x00, 0x00, 0x00, 0x44, 0x00, 0x00, 0x00, 0x36, 0x00, 0x00, 0x00,
  0x00, 0x00, 0x00, 0x09, 0x70, 0x00, 0x00, 0x00, 0x04, 0x00, 0x00, 0x00,
  0xff, 0xff, 0xff, 0xff, 0x10, 0x00, 0x00, 0x00, 0x03, 0x00, 0x00, 0x00,
  0x08, 0x00, 0x00, 0x00, 0x2c, 0xde, 0xff, 0xff, 0x08, 0x00, 0x00, 0x00,
  0x10, 0x00, 0x00, 0x00, 0x01, 0x00, 0x00, 0x00, 0x8b, 0xff, 0xff, 0xff,
  0xff, 0xff, 0xff, 0xff, 0x01, 0x00, 0x00, 0x00, 0x50, 0xd3, 0xad, 0x3d,
  0x30, 0x00, 0x00, 0x00, 0x6d, 0x6f, 0x64, 0x65, 0x6c, 0x5f, 0x31, 0x2f,
  0x62, 0x61, 0x74, 0x63, 0x68, 0x5f, 0x6e, 0x6f, 0x72, 0x6d, 0x61, 0x6c,
  0x69, 0x7a, 0x61, 0x74, 0x69, 0x6f, 0x6e, 0x5f, 0x31, 0x31, 0x2f, 0x46,
  0x75, 0x73, 0x65, 0x64, 0x42, 0x61, 0x74, 0x63, 0x68, 0x4e, 0x6f, 0x72,
  0x6d, 0x56, 0x33, 0x33, 0x00, 0x00, 0x00, 0x00, 0x04, 0x00, 0x00, 0x00,
  0x01, 0x00, 0x00, 0x00, 0x10, 0x00, 0x00, 0x00, 0x03, 0x00, 0x00, 0x00,
  0x08, 0x00, 0x00, 0x00, 0xe2, 0xde, 0xff, 0xff, 0x00, 0x00, 0x00, 0x01,
  0x18, 0x00, 0x00, 0x00, 0x28, 0x00, 0x00, 0x00, 0x44, 0x00, 0x00, 0x00,
  0x35, 0x00, 0x00, 0x00, 0x00, 0x00, 0x00, 0x09, 0x70, 0x00, 0x00, 0x00,
  0x04, 0x00, 0x00, 0x00, 0xff, 0xff, 0xff, 0xff, 0x10, 0x00, 0x00, 0x00,
  0x03, 0x00, 0x00, 0x00, 0x08, 0x00, 0x00, 0x00, 0xcc, 0xde, 0xff, 0xff,
  0x08, 0x00, 0x00, 0x00, 0x10, 0x00, 0x00, 0x00, 0x01, 0x00, 0x00, 0x00,
  0x8a, 0xff, 0xff, 0xff, 0xff, 0xff, 0xff, 0xff, 0x01, 0x00, 0x00, 0x00,
  0xec, 0x75, 0xb1, 0x3d, 0x30, 0x00, 0x00, 0x00, 0x6d, 0x6f, 0x64, 0x65,
  0x6c, 0x5f, 0x31, 0x2f, 0x62, 0x61, 0x74, 0x63, 0x68, 0x5f, 0x6e, 0x6f,
  0x72, 0x6d, 0x61, 0x6c, 0x69, 0x7a, 0x61, 0x74, 0x69, 0x6f, 0x6e, 0x5f,
  0x31, 0x31, 0x2f, 0x46, 0x75, 0x73, 0x65, 0x64, 0x42, 0x61, 0x74, 0x63,
  0x68, 0x4e, 0x6f, 0x72, 0x6d, 0x56, 0x33, 0x32, 0x00, 0x00, 0x00, 0x00,
  0x04, 0x00, 0x00, 0x00, 0x01, 0x00, 0x00, 0x00, 0x10, 0x00, 0x00, 0x00,
  0x03, 0x00, 0x00, 0x00, 0x08, 0x00, 0x00, 0x00, 0x82, 0xdf, 0xff, 0xff,
  0x00, 0x00, 0x00, 0x01, 0x18, 0x00, 0x00, 0x00, 0x28, 0x00, 0x00, 0x00,
  0x44, 0x00, 0x00, 0x00, 0x34, 0x00, 0x00, 0x00, 0x00, 0x00, 0x00, 0x09,
  0xb0, 0x00, 0x00, 0x00, 0x04, 0x00, 0x00, 0x00, 0xff, 0xff, 0xff, 0xff,
  0x10, 0x00, 0x00, 0x00, 0x03, 0x00, 0x00, 0x00, 0x08, 0x00, 0x00, 0x00,
  0x6c, 0xdf, 0xff, 0xff, 0x08, 0x00, 0x00, 0x00, 0x10, 0x00, 0x00, 0x00,
  0x01, 0x00, 0x00, 0x00, 0x80, 0xff, 0xff, 0xff, 0xff, 0xff, 0xff, 0xff,
  0x01, 0x00, 0x00, 0x00, 0x9c, 0x8f, 0xaa, 0x3d, 0x72, 0x00, 0x00, 0x00,
  0x6d, 0x6f, 0x64, 0x65, 0x6c, 0x5f, 0x31, 0x2f, 0x63, 0x6f, 0x6e, 0x76,
  0x32, 0x64, 0x5f, 0x31, 0x31, 0x2f, 0x52, 0x65, 0x6c, 0x75, 0x3b, 0x6d,
  0x6f, 0x64, 0x65, 0x6c, 0x5f, 0x31, 0x2f, 0x63, 0x6f, 0x6e, 0x76, 0x32,
  0x64, 0x5f, 0x31, 0x31, 0x2f, 0x42, 0x69, 0x61, 0x73, 0x41, 0x64, 0x64,
  0x3b, 0x6d, 0x6f, 0x64, 0x65, 0x6c, 0x5f, 0x31, 0x2f, 0x63, 0x6f, 0x6e,
  0x76, 0x32, 0x64, 0x5f, 0x31, 0x31, 0x2f, 0x43, 0x6f, 0x6e, 0x76, 0x32,
  0x44, 0x3b, 0x6d, 0x6f, 0x64, 0x65, 0x6c, 0x5f, 0x31, 0x2f, 0x63, 0x6f,
  0x6e, 0x76, 0x32, 0x64, 0x5f, 0x31, 0x31, 0x2f, 0x42, 0x69, 0x61, 0x73,
  0x41, 0x64, 0x64, 0x2f, 0x52, 0x65, 0x61, 0x64, 0x56, 0x61, 0x72, 0x69,
  0x61, 0x62, 0x6c, 0x65, 0x4f, 0x70, 0x00, 0x00, 0x04, 0x00, 0x00, 0x00,
  0x01, 0x00, 0x00, 0x00, 0x10, 0x00, 0x00, 0x00, 0x03, 0x00, 0x00, 0x00,
  0x08, 0x00, 0x00, 0x00, 0x62, 0xe0, 0xff, 0xff, 0x00, 0x00, 0x00, 0x01,
  0x18, 0x00, 0x00, 0x00, 0x28, 0x00, 0x00, 0x00, 0x44, 0x00, 0x00, 0x00,
  0x33, 0x00, 0x00, 0x00, 0x00, 0x00, 0x00, 0x09, 0x60, 0x00, 0x00, 0x00,
  0x04, 0x00, 0x00, 0x00, 0xff, 0xff, 0xff, 0xff, 0x10, 0x00, 0x00, 0x00,
  0x03, 0x00, 0x00, 0x00, 0x08, 0x00, 0x00, 0x00, 0x4c, 0xe0, 0xff, 0xff,
  0x08, 0x00, 0x00, 0x00, 0x10, 0x00, 0x00, 0x00, 0x01, 0x00, 0x00, 0x00,
  0x8a, 0xff, 0xff, 0xff, 0xff, 0xff, 0xff, 0xff, 0x01, 0x00, 0x00, 0x00,
  0x8d, 0x0c, 0x70, 0x3d, 0x20, 0x00, 0x00, 0x00, 0x6d, 0x6f, 0x64, 0x65,
  0x6c, 0x5f, 0x31, 0x2f, 0x6d, 0x61, 0x78, 0x5f, 0x70, 0x6f, 0x6f, 0x6c,
  0x69, 0x6e, 0x67, 0x32, 0x64, 0x5f, 0x31, 0x30, 0x2f, 0x4d, 0x61, 0x78,
  0x50, 0x6f, 0x6f, 0x6c, 0x00, 0x00, 0x00, 0x00, 0x04, 0x00, 0x00, 0x00,
  0x01, 0x00, 0x00, 0x00, 0x10, 0x00, 0x00, 0x00, 0x03, 0x00, 0x00, 0x00,
  0x08, 0x00, 0x00, 0x00, 0xf2, 0xe0, 0xff, 0xff, 0x00, 0x00, 0x00, 0x01,
  0x18, 0x00, 0x00, 0x00, 0x28, 0x00, 0x00, 0x00, 0x44, 0x00, 0x00, 0x00,
  0x32, 0x00, 0x00, 0x00, 0x00, 0x00, 0x00, 0x09, 0x70, 0x00, 0x00, 0x00,
  0x04, 0x00, 0x00, 0x00, 0xff, 0xff, 0xff, 0xff, 0x20, 0x00, 0x00, 0x00,
  0x06, 0x00, 0x00, 0x00, 0x08, 0x00, 0x00, 0x00, 0xdc, 0xe0, 0xff, 0xff,
  0x08, 0x00, 0x00, 0x00, 0x10, 0x00, 0x00, 0x00, 0x01, 0x00, 0x00, 0x00,
  0x8a, 0xff, 0xff, 0xff, 0xff, 0xff, 0xff, 0xff, 0x01, 0x00, 0x00, 0x00,
  0x8d, 0x0c, 0x70, 0x3d, 0x30, 0x00, 0x00, 0x00, 0x6d, 0x6f, 0x64, 0x65,
  0x6c, 0x5f, 0x31, 0x2f, 0x62, 0x61, 0x74, 0x63, 0x68, 0x5f, 0x6e, 0x6f,
  0x72, 0x6d, 0x61, 0x6c, 0x69, 0x7a, 0x61, 0x74, 0x69, 0x6f, 0x6e, 0x5f,
  0x31, 0x30, 0x2f, 0x46, 0x75, 0x73, 0x65, 0x64, 0x42, 0x61, 0x74, 0x63,
  0x68, 0x4e, 0x6f, 0x72, 0x6d, 0x56, 0x33, 0x33, 0x00, 0x00, 0x00, 0x00,
  0x04, 0x00, 0x00, 0x00, 0x01, 0x00, 0x00, 0x00, 0x20, 0x00, 0x00, 0x00,
  0x06, 0x00, 0x00, 0x00, 0x08, 0x00, 0x00, 0x00, 0x92, 0xe1, 0xff, 0xff,
  0x00, 0x00, 0x00, 0x01, 0x18, 0x00, 0x00, 0x00, 0x28, 0x00, 0x00, 0x00,
  0x44, 0x00, 0x00, 0x00, 0x31, 0x00, 0x00, 0x00, 0x00, 0x00, 0x00, 0x09,
  0x70, 0x00, 0x00, 0x00, 0x04, 0x00, 0x00, 0x00, 0xff, 0xff, 0xff, 0xff,
  0x20, 0x00, 0x00, 0x00, 0x06, 0x00, 0x00, 0x00, 0x08, 0x00, 0x00, 0x00,
  0x7c, 0xe1, 0xff, 0xff, 0x08, 0x00, 0x00, 0x00, 0x10, 0x00, 0x00, 0x00,
  0x01, 0x00, 0x00, 0x00, 0x8a, 0xff, 0xff, 0xff, 0xff, 0xff, 0xff, 0xff,
  0x01, 0x00, 0x00, 0x00, 0x38, 0xca, 0x77, 0x3d, 0x30, 0x00, 0x00, 0x00,
  0x6d, 0x6f, 0x64, 0x65, 0x6c, 0x5f, 0x31, 0x2f, 0x62, 0x61, 0x74, 0x63,
  0x68, 0x5f, 0x6e, 0x6f, 0x72, 0x6d, 0x61, 0x6c, 0x69, 0x7a, 0x61, 0x74,
  0x69, 0x6f, 0x6e, 0x5f, 0x31, 0x30, 0x2f, 0x46, 0x75, 0x73, 0x65, 0x64,
  0x42, 0x61, 0x74, 0x63, 0x68, 0x4e, 0x6f, 0x72, 0x6d, 0x56, 0x33, 0x32,
  0x00, 0x00, 0x00, 0x00, 0x04, 0x00, 0x00, 0x00, 0x01, 0x00, 0x00, 0x00,
  0x20, 0x00, 0x00, 0x00, 0x06, 0x00, 0x00, 0x00, 0x08, 0x00, 0x00, 0x00,
  0x32, 0xe2, 0xff, 0xff, 0x00, 0x00, 0x00, 0x01, 0x18, 0x00, 0x00, 0x00,
  0x28, 0x00, 0x00, 0x00, 0x44, 0x00, 0x00, 0x00, 0x30, 0x00, 0x00, 0x00,
  0x00, 0x00, 0x00, 0x09, 0xc8, 0x00, 0x00, 0x00, 0x04, 0x00, 0x00, 0x00,
  0xff, 0xff, 0xff, 0xff, 0x20, 0x00, 0x00, 0x00, 0x06, 0x00, 0x00, 0x00,
  0x08, 0x00, 0x00, 0x00, 0x1c, 0xe2, 0xff, 0xff, 0x08, 0x00, 0x00, 0x00,
  0x10, 0x00, 0x00, 0x00, 0x01, 0x00, 0x00, 0x00, 0x80, 0xff, 0xff, 0xff,
  0xff, 0xff, 0xff, 0xff, 0x01, 0x00, 0x00, 0x00, 0x3d, 0xeb, 0x6d, 0x3d,
  0x8b, 0x00, 0x00, 0x00, 0x6d, 0x6f, 0x64, 0x65, 0x6c, 0x5f, 0x31, 0x2f,
  0x63, 0x6f, 0x6e, 0x76, 0x32, 0x64, 0x5f, 0x31, 0x30, 0x2f, 0x52, 0x65,
  0x6c, 0x75, 0x3b, 0x6d, 0x6f, 0x64, 0x65, 0x6c, 0x5f, 0x31, 0x2f, 0x63,
  0x6f, 0x6e, 0x76, 0x32, 0x64, 0x5f, 0x31, 0x30, 0x2f, 0x42, 0x69, 0x61,
  0x73, 0x41, 0x64, 0x64, 0x3b, 0x6d, 0x6f, 0x64, 0x65, 0x6c, 0x5f, 0x31,
  0x2f, 0x63, 0x6f, 0x6e, 0x76, 0x32, 0x64, 0x5f, 0x31, 0x31, 0x2f, 0x43,
  0x6f, 0x6e, 0x76, 0x32, 0x44, 0x3b, 0x6d, 0x6f, 0x64, 0x65, 0x6c, 0x5f,
  0x31, 0x2f, 0x63, 0x6f, 0x6e, 0x76, 0x32, 0x64, 0x5f, 0x31, 0x30, 0x2f,
  0x43, 0x6f, 0x6e, 0x76, 0x32, 0x44, 0x3b, 0x6d, 0x6f, 0x64, 0x65, 0x6c,
  0x5f, 0x31, 0x2f, 0x63, 0x6f, 0x6e, 0x76, 0x32, 0x64, 0x5f, 0x31, 0x30,
  0x2f, 0x42, 0x69, 0x61, 0x73, 0x41, 0x64, 0x64, 0x2f, 0x52, 0x65, 0x61,
  0x64, 0x56, 0x61, 0x72, 0x69, 0x61, 0x62, 0x6c, 0x65, 0x4f, 0x70, 0x00,
  0x04, 0x00, 0x00, 0x00, 0x01, 0x00, 0x00, 0x00, 0x20, 0x00, 0x00, 0x00,
  0x06, 0x00, 0x00, 0x00, 0x08, 0x00, 0x00, 0x00, 0x2a, 0xe3, 0xff, 0xff,
  0x00, 0x00, 0x00, 0x01, 0x18, 0x00, 0x00, 0x00, 0x28, 0x00, 0x00, 0x00,
  0x48, 0x00, 0x00, 0x00, 0x2f, 0x00, 0x00, 0x00, 0x00, 0x00, 0x00, 0x09,
  0x60, 0x00, 0x00, 0x00, 0x04, 0x00, 0x00, 0x00, 0xff, 0xff, 0xff, 0xff,
  0x20, 0x00, 0x00, 0x00, 0x06, 0x00, 0x00, 0x00, 0x08, 0x00, 0x00, 0x00,
  0x14, 0xe3, 0xff, 0xff, 0x08, 0x00, 0x00, 0x00, 0x14, 0x00, 0x00, 0x00,
  0x01, 0x00, 0x00, 0x00, 0x86, 0xff, 0xff, 0xff, 0xff, 0xff, 0xff, 0xff,
  0x00, 0x00, 0x00, 0x00, 0x01, 0x00, 0x00, 0x00, 0x93, 0x03, 0x97, 0x3d,
  0x1f, 0x00, 0x00, 0x00, 0x6d, 0x6f, 0x64, 0x65, 0x6c, 0x5f, 0x31, 0x2f,
  0x6d, 0x61, 0x78, 0x5f, 0x70, 0x6f, 0x6f, 0x6c, 0x69, 0x6e, 0x67, 0x32,
  0x64, 0x5f, 0x39, 0x2f, 0x4d, 0x61, 0x78, 0x50, 0x6f, 0x6f, 0x6c, 0x00,
  0x04, 0x00, 0x00, 0x00, 0x01, 0x00, 0x00, 0x00, 0x20, 0x00, 0x00, 0x00,
  0x06, 0x00, 0x00, 0x00, 0x08, 0x00, 0x00, 0x00, 0xba, 0xe3, 0xff, 0xff,
  0x00, 0x00, 0x00, 0x01, 0x18, 0x00, 0x00, 0x00, 0x28, 0x00, 0x00, 0x00,
  0x48, 0x00, 0x00, 0x00, 0x2e, 0x00, 0x00, 0x00, 0x00, 0x00, 0x00, 0x09,
  0x70, 0x00, 0x00, 0x00, 0x04, 0x00, 0x00, 0x00, 0xff, 0xff, 0xff, 0xff,
  0x40, 0x00, 0x00, 0x00, 0x0d, 0x00, 0x00, 0x00, 0x08, 0x00, 0x00, 0x00,
  0xa4, 0xe3, 0xff, 0xff, 0x08, 0x00, 0x00, 0x00, 0x14, 0x00, 0x00, 0x00,
  0x01, 0x00, 0x00, 0x00, 0x86, 0xff, 0xff, 0xff, 0xff, 0xff, 0xff, 0xff,
  0x00, 0x00, 0x00, 0x00, 0x01, 0x00, 0x00, 0x00, 0x93, 0x03, 0x97, 0x3d,
  0x2f, 0x00, 0x00, 0x00, 0x6d, 0x6f, 0x64, 0x65, 0x6c, 0x5f, 0x31, 0x2f,
  0x62, 0x61, 0x74, 0x63, 0x68, 0x5f, 0x6e, 0x6f, 0x72, 0x6d, 0x61, 0x6c,
  0x69, 0x7a, 0x61, 0x74, 0x69, 0x6f, 0x6e, 0x5f, 0x39, 0x2f, 0x46, 0x75,
  0x73, 0x65, 0x64, 0x42, 0x61, 0x74, 0x63, 0x68, 0x4e, 0x6f, 0x72, 0x6d,
  0x56, 0x33, 0x33, 0x00, 0x04, 0x00, 0x00, 0x00, 0x01, 0x00, 0x00, 0x00,
  0x40, 0x00, 0x00, 0x00, 0x0d, 0x00, 0x00, 0x00, 0x08, 0x00, 0x00, 0x00,
  0x5a, 0xe4, 0xff, 0xff, 0x00, 0x00, 0x00, 0x01, 0x18, 0x00, 0x00, 0x00,
  0x28, 0x00, 0x00, 0x00, 0x48, 0x00, 0x00, 0x00, 0x2d, 0x00, 0x00, 0x00,
  0x00, 0x00, 0x00, 0x09, 0x70, 0x00, 0x00, 0x00, 0x04, 0x00, 0x00, 0x00,
  0xff, 0xff, 0xff, 0xff, 0x40, 0x00, 0x00, 0x00, 0x0d, 0x00, 0x00, 0x00,
  0x08, 0x00, 0x00, 0x00, 0x44, 0xe4, 0xff, 0xff, 0x08, 0x00, 0x00, 0x00,
  0x14, 0x00, 0x00, 0x00, 0x01, 0x00, 0x00, 0x00, 0x86, 0xff, 0xff, 0xff,
  0xff, 0xff, 0xff, 0xff, 0x00, 0x00, 0x00, 0x00, 0x01, 0x00, 0x00, 0x00,
  0xa3, 0x23, 0x99, 0x3d, 0x2f, 0x00, 0x00, 0x00, 0x6d, 0x6f, 0x64, 0x65,
  0x6c, 0x5f, 0x31, 0x2f, 0x62, 0x61, 0x74, 0x63, 0x68, 0x5f, 0x6e, 0x6f,
  0x72, 0x6d, 0x61, 0x6c, 0x69, 0x7a, 0x61, 0x74, 0x69, 0x6f, 0x6e, 0x5f,
  0x39, 0x2f, 0x46, 0x75, 0x73, 0x65, 0x64, 0x42, 0x61, 0x74, 0x63, 0x68,
  0x4e, 0x6f, 0x72, 0x6d, 0x56, 0x33, 0x32, 0x00, 0x04, 0x00, 0x00, 0x00,
  0x01, 0x00, 0x00, 0x00, 0x40, 0x00, 0x00, 0x00, 0x0d, 0x00, 0x00, 0x00,
  0x08, 0x00, 0x00, 0x00, 0xfa, 0xe4, 0xff, 0xff, 0x00, 0x00, 0x00, 0x01,
  0x18, 0x00, 0x00, 0x00, 0x28, 0x00, 0x00, 0x00, 0x48, 0x00, 0x00, 0x00,
  0x2c, 0x00, 0x00, 0x00, 0x00, 0x00, 0x00, 0x09, 0xc8, 0x00, 0x00, 0x00,
  0x04, 0x00, 0x00, 0x00, 0xff, 0xff, 0xff, 0xff, 0x40, 0x00, 0x00, 0x00,
  0x0d, 0x00, 0x00, 0x00, 0x08, 0x00, 0x00, 0x00, 0xe4, 0xe4, 0xff, 0xff,
  0x08, 0x00, 0x00, 0x00, 0x14, 0x00, 0x00, 0x00, 0x01, 0x00, 0x00, 0x00,
  0x80, 0xff, 0xff, 0xff, 0xff, 0xff, 0xff, 0xff, 0x00, 0x00, 0x00, 0x00,
  0x01, 0x00, 0x00, 0x00, 0x84, 0xb9, 0x50, 0x3f, 0x87, 0x00, 0x00, 0x00,
  0x6d, 0x6f, 0x64, 0x65, 0x6c, 0x5f, 0x31, 0x2f, 0x63, 0x6f, 0x6e, 0x76,
  0x32, 0x64, 0x5f, 0x39, 0x2f, 0x52, 0x65, 0x6c, 0x75, 0x3b, 0x6d, 0x6f,
  0x64, 0x65, 0x6c, 0x5f, 0x31, 0x2f, 0x63, 0x6f, 0x6e, 0x76, 0x32, 0x64,
  0x5f, 0x39, 0x2f, 0x42, 0x69, 0x61, 0x73, 0x41, 0x64, 0x64, 0x3b, 0x6d,
  0x6f, 0x64, 0x65, 0x6c, 0x5f, 0x31, 0x2f, 0x63, 0x6f, 0x6e, 0x76, 0x32,
  0x64, 0x5f, 0x31, 0x31, 0x2f, 0x43, 0x6f, 0x6e, 0x76, 0x32, 0x44, 0x3b,
  0x6d, 0x6f, 0x64, 0x65, 0x6c, 0x5f, 0x31, 0x2f, 0x63, 0x6f, 0x6e, 0x76,
  0x32, 0x64, 0x5f, 0x39, 0x2f, 0x43, 0x6f, 0x6e, 0x76, 0x32, 0x44, 0x3b,
  0x6d, 0x6f, 0x64, 0x65, 0x6c, 0x5f, 0x31, 0x2f, 0x63, 0x6f, 0x6e, 0x76,
  0x32, 0x64, 0x5f, 0x39, 0x2f, 0x42, 0x69, 0x61, 0x73, 0x41, 0x64, 0x64,
  0x2f, 0x52, 0x65, 0x61, 0x64, 0x56, 0x61, 0x72, 0x69, 0x61, 0x62, 0x6c,
  0x65, 0x4f, 0x70, 0x00, 0x04, 0x00, 0x00, 0x00, 0x01, 0x00, 0x00, 0x00,
  0x40, 0x00, 0x00, 0x00, 0x0d, 0x00, 0x00, 0x00, 0x08, 0x00, 0x00, 0x00,
  0xf2, 0xe5, 0xff, 0xff, 0x00, 0x00, 0x00, 0x01, 0x18, 0x00, 0x00, 0x00,
  0x28, 0x00, 0x00, 0x00, 0x48, 0x00, 0x00, 0x00, 0x2b, 0x00, 0x00, 0x00,
  0x00, 0x00, 0x00, 0x09, 0x60, 0x00, 0x00, 0x00, 0x04, 0x00, 0x00, 0x00,
  0xff, 0xff, 0xff, 0xff, 0x08, 0x00, 0x00, 0x00, 0x01, 0x00, 0x00, 0x00,
  0x08, 0x00, 0x00, 0x00, 0xdc, 0xe5, 0xff, 0xff, 0x08, 0x00, 0x00, 0x00,
  0x14, 0x00, 0x00, 0x00, 0x01, 0x00, 0x00, 0x00, 0x8b, 0xff, 0xff, 0xff,
  0xff, 0xff, 0xff, 0xff, 0x00, 0x00, 0x00, 0x00, 0x01, 0x00, 0x00, 0x00,
  0x50, 0xd3, 0xad, 0x3d, 0x1f, 0x00, 0x00, 0x00, 0x6d, 0x6f, 0x64, 0x65,
  0x6c, 0x5f, 0x31, 0x2f, 0x6d, 0x61, 0x78, 0x5f, 0x70, 0x6f, 0x6f, 0x6c,
  0x69, 0x6e, 0x67, 0x32, 0x64, 0x5f, 0x38, 0x2f, 0x4d, 0x61, 0x78, 0x50,
  0x6f, 0x6f, 0x6c, 0x00, 0x04, 0x00, 0x00, 0x00, 0x01, 0x00, 0x00, 0x00,
  0x08, 0x00, 0x00, 0x00, 0x01, 0x00, 0x00, 0x00, 0x08, 0x00, 0x00, 0x00,
  0x82, 0xe6, 0xff, 0xff, 0x00, 0x00, 0x00, 0x01, 0x18, 0x00, 0x00, 0x00,
  0x28, 0x00, 0x00, 0x00, 0x48, 0x00, 0x00, 0x00, 0x2a, 0x00, 0x00, 0x00,
  0x00, 0x00, 0x00, 0x09, 0x70, 0x00, 0x00, 0x00, 0x04, 0x00, 0x00, 0x00,
  0xff, 0xff, 0xff, 0xff, 0x10, 0x00, 0x00, 0x00, 0x03, 0x00, 0x00, 0x00,
  0x08, 0x00, 0x00, 0x00, 0x6c, 0xe6, 0xff, 0xff, 0x08, 0x00, 0x00, 0x00,
  0x14, 0x00, 0x00, 0x00, 0x01, 0x00, 0x00, 0x00, 0x8b, 0xff, 0xff, 0xff,
  0xff, 0xff, 0xff, 0xff, 0x00, 0x00, 0x00, 0x00, 0x01, 0x00, 0x00, 0x00,
  0x50, 0xd3, 0xad, 0x3d, 0x2f, 0x00, 0x00, 0x00, 0x6d, 0x6f, 0x64, 0x65,
  0x6c, 0x5f, 0x31, 0x2f, 0x62, 0x61, 0x74, 0x63, 0x68, 0x5f, 0x6e, 0x6f,
  0x72, 0x6d, 0x61, 0x6c, 0x69, 0x7a, 0x61, 0x74, 0x69, 0x6f, 0x6e, 0x5f,
  0x38, 0x2f, 0x46, 0x75, 0x73, 0x65, 0x64, 0x42, 0x61, 0x74, 0x63, 0x68,
  0x4e, 0x6f, 0x72, 0x6d, 0x56, 0x33, 0x33, 0x00, 0x04, 0x00, 0x00, 0x00,
  0x01, 0x00, 0x00, 0x00, 0x10, 0x00, 0x00, 0x00, 0x03, 0x00, 0x00, 0x00,
  0x08, 0x00, 0x00, 0x00, 0x22, 0xe7, 0xff, 0xff, 0x00, 0x00, 0x00, 0x01,
  0x18, 0x00, 0x00, 0x00, 0x28, 0x00, 0x00, 0x00, 0x48, 0x00, 0x00, 0x00,
  0x29, 0x00, 0x00, 0x00, 0x00, 0x00, 0x00, 0x09, 0x70, 0x00, 0x00, 0x00,
  0x04, 0x00, 0x00, 0x00, 0xff, 0xff, 0xff, 0xff, 0x10, 0x00, 0x00, 0x00,
  0x03, 0x00, 0x00, 0x00, 0x08, 0x00, 0x00, 0x00, 0x0c, 0xe7, 0xff, 0xff,
  0x08, 0x00, 0x00, 0x00, 0x14, 0x00, 0x00, 0x00, 0x01, 0x00, 0x00, 0x00,
  0x95, 0xff, 0xff, 0xff, 0xff, 0xff, 0xff, 0xff, 0x00, 0x00, 0x00, 0x00,
  0x01, 0x00, 0x00, 0x00, 0x90, 0x4d, 0x3d, 0x3d, 0x2f, 0x00, 0x00, 0x00,
  0x6d, 0x6f, 0x64, 0x65, 0x6c, 0x5f, 0x31, 0x2f, 0x62, 0x61, 0x74, 0x63,
  0x68, 0x5f, 0x6e, 0x6f, 0x72, 0x6d, 0x61, 0x6c, 0x69, 0x7a, 0x61, 0x74,
  0x69, 0x6f, 0x6e, 0x5f, 0x38, 0x2f, 0x46, 0x75, 0x73, 0x65, 0x64, 0x42,
  0x61, 0x74, 0x63, 0x68, 0x4e, 0x6f, 0x72, 0x6d, 0x56, 0x33, 0x32, 0x00,
  0x04, 0x00, 0x00, 0x00, 0x01, 0x00, 0x00, 0x00, 0x10, 0x00, 0x00, 0x00,
  0x03, 0x00, 0x00, 0x00, 0x08, 0x00, 0x00, 0x00, 0xc2, 0xe7, 0xff, 0xff,
  0x00, 0x00, 0x00, 0x01, 0x18, 0x00, 0x00, 0x00, 0x28, 0x00, 0x00, 0x00,
  0x48, 0x00, 0x00, 0x00, 0x28, 0x00, 0x00, 0x00, 0x00, 0x00, 0x00, 0x09,
  0xc8, 0x00, 0x00, 0x00, 0x04, 0x00, 0x00, 0x00, 0xff, 0xff, 0xff, 0xff,
  0x10, 0x00, 0x00, 0x00, 0x03, 0x00, 0x00, 0x00, 0x08, 0x00, 0x00, 0x00,
  0xac, 0xe7, 0xff, 0xff, 0x08, 0x00, 0x00, 0x00, 0x14, 0x00, 0x00, 0x00,
  0x01, 0x00, 0x00, 0x00, 0x80, 0xff, 0xff, 0xff, 0xff, 0xff, 0xff, 0xff,
  0x00, 0x00, 0x00, 0x00, 0x01, 0x00, 0x00, 0x00, 0x7e, 0xda, 0x2d, 0x3d,
  0x87, 0x00, 0x00, 0x00, 0x6d, 0x6f, 0x64, 0x65, 0x6c, 0x5f, 0x31, 0x2f,
  0x63, 0x6f, 0x6e, 0x76, 0x32, 0x64, 0x5f, 0x38, 0x2f, 0x52, 0x65, 0x6c,
  0x75, 0x3b, 0x6d, 0x6f, 0x64, 0x65, 0x6c, 0x5f, 0x31, 0x2f, 0x63, 0x6f,
  0x6e, 0x76, 0x32, 0x64, 0x5f, 0x38, 0x2f, 0x42, 0x69, 0x61, 0x73, 0x41,
  0x64, 0x64, 0x3b, 0x6d, 0x6f, 0x64, 0x65, 0x6c, 0x5f, 0x31, 0x2f, 0x63,
  0x6f, 0x6e, 0x76, 0x32, 0x64, 0x5f, 0x31, 0x31, 0x2f, 0x43, 0x6f, 0x6e,
  0x76, 0x32, 0x44, 0x3b, 0x6d, 0x6f, 0x64, 0x65, 0x6c, 0x5f, 0x31, 0x2f,
  0x63, 0x6f, 0x6e, 0x76, 0x32, 0x64, 0x5f, 0x38, 0x2f, 0x43, 0x6f, 0x6e,
  0x76, 0x32, 0x44, 0x3b, 0x6d, 0x6f, 0x64, 0x65, 0x6c, 0x5f, 0x31, 0x2f,
  0x63, 0x6f, 0x6e, 0x76, 0x32, 0x64, 0x5f, 0x38, 0x2f, 0x42, 0x69, 0x61,
  0x73, 0x41, 0x64, 0x64, 0x2f, 0x52, 0x65, 0x61, 0x64, 0x56, 0x61, 0x72,
  0x69, 0x61, 0x62, 0x6c, 0x65, 0x4f, 0x70, 0x00, 0x04, 0x00, 0x00, 0x00,
  0x01, 0x00, 0x00, 0x00, 0x10, 0x00, 0x00, 0x00, 0x03, 0x00, 0x00, 0x00,
  0x08, 0x00, 0x00, 0x00, 0xba, 0xe8, 0xff, 0xff, 0x00, 0x00, 0x00, 0x01,
  0x18, 0x00, 0x00, 0x00, 0x28, 0x00, 0x00, 0x00, 0x48, 0x00, 0x00, 0x00,
  0x27, 0x00, 0x00, 0x00, 0x00, 0x00, 0x00, 0x09, 0x60, 0x00, 0x00, 0x00,
  0x04, 0x00, 0x00, 0x00, 0xff, 0xff, 0xff, 0xff, 0x10, 0x00, 0x00, 0x00,
  0x03, 0x00, 0x00, 0x00, 0x08, 0x00, 0x00, 0x00, 0xa4, 0xe8, 0xff, 0xff,
  0x08, 0x00, 0x00, 0x00, 0x14, 0x00, 0x00, 0x00, 0x01, 0x00, 0x00, 0x00,
  0x91, 0xff, 0xff, 0xff, 0xff, 0xff, 0xff, 0xff, 0x00, 0x00, 0x00, 0x00,
  0x01, 0x00, 0x00, 0x00, 0x18, 0xad, 0x4d, 0x3d, 0x1f, 0x00, 0x00, 0x00,
  0x6d, 0x6f, 0x64, 0x65, 0x6c, 0x5f, 0x31, 0x2f, 0x6d, 0x61, 0x78, 0x5f,
  0x70, 0x6f, 0x6f, 0x6c, 0x69, 0x6e, 0x67, 0x32, 0x64, 0x5f, 0x37, 0x2f,
  0x4d, 0x61, 0x78, 0x50, 0x6f, 0x6f, 0x6c, 0x00, 0x04, 0x00, 0x00, 0x00,
  0x01, 0x00, 0x00, 0x00, 0x10, 0x00, 0x00, 0x00, 0x03, 0x00, 0x00, 0x00,
  0x08, 0x00, 0x00, 0x00, 0x4a, 0xe9, 0xff, 0xff, 0x00, 0x00, 0x00, 0x01,
  0x18, 0x00, 0x00, 0x00, 0x28, 0x00, 0x00, 0x00, 0x48, 0x00, 0x00, 0x00,
  0x26, 0x00, 0x00, 0x00, 0x00, 0x00, 0x00, 0x09, 0x70, 0x00, 0x00, 0x00,
  0x04, 0x00, 0x00, 0x00, 0xff, 0xff, 0xff, 0xff, 0x20, 0x00, 0x00, 0x00,
  0x06, 0x00, 0x00, 0x00, 0x08, 0x00, 0x00, 0x00, 0x34, 0xe9, 0xff, 0xff,
  0x08, 0x00, 0x00, 0x00, 0x14, 0x00, 0x00, 0x00, 0x01, 0x00, 0x00, 0x00,
  0x91, 0xff, 0xff, 0xff, 0xff, 0xff, 0xff, 0xff, 0x00, 0x00, 0x00, 0x00,
  0x01, 0x00, 0x00, 0x00, 0x18, 0xad, 0x4d, 0x3d, 0x2f, 0x00, 0x00, 0x00,
  0x6d, 0x6f, 0x64, 0x65, 0x6c, 0x5f, 0x31, 0x2f, 0x62, 0x61, 0x74, 0x63,
  0x68, 0x5f, 0x6e, 0x6f, 0x72, 0x6d, 0x61, 0x6c, 0x69, 0x7a, 0x61, 0x74,
  0x69, 0x6f, 0x6e, 0x5f, 0x37, 0x2f, 0x46, 0x75, 0x73, 0x65, 0x64, 0x42,
  0x61, 0x74, 0x63, 0x68, 0x4e, 0x6f, 0x72, 0x6d, 0x56, 0x33, 0x33, 0x00,
  0x04, 0x00, 0x00, 0x00, 0x01, 0x00, 0x00, 0x00, 0x20, 0x00, 0x00, 0x00,
  0x06, 0x00, 0x00, 0x00, 0x08, 0x00, 0x00, 0x00, 0xea, 0xe9, 0xff, 0xff,
  0x00, 0x00, 0x00, 0x01, 0x18, 0x00, 0x00, 0x00, 0x28, 0x00, 0x00, 0x00,
  0x48, 0x00, 0x00, 0x00, 0x25, 0x00, 0x00, 0x00, 0x00, 0x00, 0x00, 0x09,
  0x70, 0x00, 0x00, 0x00, 0x04, 0x00, 0x00, 0x00, 0xff, 0xff, 0xff, 0xff,
  0x20, 0x00, 0x00, 0x00, 0x06, 0x00, 0x00, 0x00, 0x08, 0x00, 0x00, 0x00,
  0xd4, 0xe9, 0xff, 0xff, 0x08, 0x00, 0x00, 0x00, 0x14, 0x00, 0x00, 0x00,
  0x01, 0x00, 0x00, 0x00, 0x90, 0xff, 0xff, 0xff, 0xff, 0xff, 0xff, 0xff,
  0x00, 0x00, 0x00, 0x00, 0x01, 0x00, 0x00, 0x00, 0x3a, 0xcf, 0x55, 0x3d,
  0x2f, 0x00, 0x00, 0x00, 0x6d, 0x6f, 0x64, 0x65, 0x6c, 0x5f, 0x31, 0x2f,
  0x62, 0x61, 0x74, 0x63, 0x68, 0x5f, 0x6e, 0x6f, 0x72, 0x6d, 0x61, 0x6c,
  0x69, 0x7a, 0x61, 0x74, 0x69, 0x6f, 0x6e, 0x5f, 0x37, 0x2f, 0x46, 0x75,
  0x73, 0x65, 0x64, 0x42, 0x61, 0x74, 0x63, 0x68, 0x4e, 0x6f, 0x72, 0x6d,
  0x56, 0x33, 0x32, 0x00, 0x04, 0x00, 0x00, 0x00, 0x01, 0x00, 0x00, 0x00,
  0x20, 0x00, 0x00, 0x00, 0x06, 0x00, 0x00, 0x00, 0x08, 0x00, 0x00, 0x00,
  0x8a, 0xea, 0xff, 0xff, 0x00, 0x00, 0x00, 0x01, 0x18, 0x00, 0x00, 0x00,
  0x28, 0x00, 0x00, 0x00, 0x48, 0x00, 0x00, 0x00, 0x24, 0x00, 0x00, 0x00,
  0x00, 0x00, 0x00, 0x09, 0xc8, 0x00, 0x00, 0x00, 0x04, 0x00, 0x00, 0x00,
  0xff, 0xff, 0xff, 0xff, 0x20, 0x00, 0x00, 0x00, 0x06, 0x00, 0x00, 0x00,
  0x08, 0x00, 0x00, 0x00, 0x74, 0xea, 0xff, 0xff, 0x08, 0x00, 0x00, 0x00,
  0x14, 0x00, 0x00, 0x00, 0x01, 0x00, 0x00, 0x00, 0x80, 0xff, 0xff, 0xff,
  0xff, 0xff, 0xff, 0xff, 0x00, 0x00, 0x00, 0x00, 0x01, 0x00, 0x00, 0x00,
  0xa8, 0x37, 0x48, 0x3d, 0x87, 0x00, 0x00, 0x00, 0x6d, 0x6f, 0x64, 0x65,
  0x6c, 0x5f, 0x31, 0x2f, 0x63, 0x6f, 0x6e, 0x76, 0x32, 0x64, 0x5f, 0x37,
  0x2f, 0x52, 0x65, 0x6c, 0x75, 0x3b, 0x6d, 0x6f, 0x64, 0x65, 0x6c, 0x5f,
  0x31, 0x2f, 0x63, 0x6f, 0x6e, 0x76, 0x32, 0x64, 0x5f, 0x37, 0x2f, 0x42,
  0x69, 0x61, 0x73, 0x41, 0x64, 0x64, 0x3b, 0x6d, 0x6f, 0x64, 0x65, 0x6c,
  0x5f, 0x31, 0x2f, 0x63, 0x6f, 0x6e, 0x76, 0x32, 0x64, 0x5f, 0x31, 0x31,
  0x2f, 0x43, 0x6f, 0x6e, 0x76, 0x32, 0x44, 0x3b, 0x6d, 0x6f, 0x64, 0x65,
  0x6c, 0x5f, 0x31, 0x2f, 0x63, 0x6f, 0x6e, 0x76, 0x32, 0x64, 0x5f, 0x37,
  0x2f, 0x43, 0x6f, 0x6e, 0x76, 0x32, 0x44, 0x3b, 0x6d, 0x6f, 0x64, 0x65,
  0x6c, 0x5f, 0x31, 0x2f, 0x63, 0x6f, 0x6e, 0x76, 0x32, 0x64, 0x5f, 0x37,
  0x2f, 0x42, 0x69, 0x61, 0x73, 0x41, 0x64, 0x64, 0x2f, 0x52, 0x65, 0x61,
  0x64, 0x56, 0x61, 0x72, 0x69, 0x61, 0x62, 0x6c, 0x65, 0x4f, 0x70, 0x00,
  0x04, 0x00, 0x00, 0x00, 0x01, 0x00, 0x00, 0x00, 0x20, 0x00, 0x00, 0x00,
  0x06, 0x00, 0x00, 0x00, 0x08, 0x00, 0x00, 0x00, 0x82, 0xeb, 0xff, 0xff,
  0x00, 0x00, 0x00, 0x01, 0x18, 0x00, 0x00, 0x00, 0x28, 0x00, 0x00, 0x00,
  0x48, 0x00, 0x00, 0x00, 0x23, 0x00, 0x00, 0x00, 0x00, 0x00, 0x00, 0x09,
  0x60, 0x00, 0x00, 0x00, 0x04, 0x00, 0x00, 0x00, 0xff, 0xff, 0xff, 0xff,
  0x20, 0x00, 0x00, 0x00, 0x06, 0x00, 0x00, 0x00, 0x08, 0x00, 0x00, 0x00,
  0x6c, 0xeb, 0xff, 0xff, 0x08, 0x00, 0x00, 0x00, 0x14, 0x00, 0x00, 0x00,
  0x01, 0x00, 0x00, 0x00, 0x8c, 0xff, 0xff, 0xff, 0xff, 0xff, 0xff, 0xff,
  0x00, 0x00, 0x00, 0x00, 0x01, 0x00, 0x00, 0x00, 0x56, 0xe9, 0x62, 0x3d,
  0x1f, 0x00, 0x00, 0x00, 0x6d, 0x6f, 0x64, 0x65, 0x6c, 0x5f, 0x31, 0x2f,
  0x6d, 0x61, 0x78, 0x5f, 0x70, 0x6f, 0x6f, 0x6c, 0x69, 0x6e, 0x67, 0x32,
  0x64, 0x5f, 0x36, 0x2f, 0x4d, 0x61, 0x78, 0x50, 0x6f, 0x6f, 0x6c, 0x00,
  0x04, 0x00, 0x00, 0x00, 0x01, 0x00, 0x00, 0x00, 0x20, 0x00, 0x00, 0x00,
  0x06, 0x00, 0x00, 0x00, 0x08, 0x00, 0x00, 0x00, 0x12, 0xec, 0xff, 0xff,
  0x00, 0x00, 0x00, 0x01, 0x18, 0x00, 0x00, 0x00, 0x28, 0x00, 0x00, 0x00,
  0x48, 0x00, 0x00, 0x00, 0x22, 0x00, 0x00, 0x00, 0x00, 0x00, 0x00, 0x09,
  0x70, 0x00, 0x00, 0x00, 0x04, 0x00, 0x00, 0x00, 0xff, 0xff, 0xff, 0xff,
  0x40, 0x00, 0x00, 0x00, 0x0d, 0x00, 0x00, 0x00, 0x08, 0x00, 0x00, 0x00,
  0xfc, 0xeb, 0xff, 0xff, 0x08, 0x00, 0x00, 0x00, 0x14, 0x00, 0x00, 0x00,
  0x01, 0x00, 0x00, 0x00, 0x8c, 0xff, 0xff, 0xff, 0xff, 0xff, 0xff, 0xff,
  0x00, 0x00, 0x00, 0x00, 0x01, 0x00, 0x00, 0x00, 0x56, 0xe9, 0x62, 0x3d,
  0x2f, 0x00, 0x00, 0x00, 0x6d, 0x6f, 0x64, 0x65, 0x6c, 0x5f, 0x31, 0x2f,
  0x62, 0x61, 0x74, 0x63, 0x68, 0x5f, 0x6e, 0x6f, 0x72, 0x6d, 0x61, 0x6c,
  0x69, 0x7a, 0x61, 0x74, 0x69, 0x6f, 0x6e, 0x5f, 0x36, 0x2f, 0x46, 0x75,
  0x73, 0x65, 0x64, 0x42, 0x61, 0x74, 0x63, 0x68, 0x4e, 0x6f, 0x72, 0x6d,
  0x56, 0x33, 0x33, 0x00, 0x04, 0x00, 0x00, 0x00, 0x01, 0x00, 0x00, 0x00,
  0x40, 0x00, 0x00, 0x00, 0x0d, 0x00, 0x00, 0x00, 0x08, 0x00, 0x00, 0x00,
  0xb2, 0xec, 0xff, 0xff, 0x00, 0x00, 0x00, 0x01, 0x18, 0x00, 0x00, 0x00,
  0x28, 0x00, 0x00, 0x00, 0x48, 0x00, 0x00, 0x00, 0x21, 0x00, 0x00, 0x00,
  0x00, 0x00, 0x00, 0x09, 0x70, 0x00, 0x00, 0x00, 0x04, 0x00, 0x00, 0x00,
  0xff, 0xff, 0xff, 0xff, 0x40, 0x00, 0x00, 0x00, 0x0d, 0x00, 0x00, 0x00,
  0x08, 0x00, 0x00, 0x00, 0x9c, 0xec, 0xff, 0xff, 0x08, 0x00, 0x00, 0x00,
  0x14, 0x00, 0x00, 0x00, 0x01, 0x00, 0x00, 0x00, 0x8c, 0xff, 0xff, 0xff,
  0xff, 0xff, 0xff, 0xff, 0x00, 0x00, 0x00, 0x00, 0x01, 0x00, 0x00, 0x00,
  0xcb, 0x01, 0x69, 0x3d, 0x2f, 0x00, 0x00, 0x00, 0x6d, 0x6f, 0x64, 0x65,
  0x6c, 0x5f, 0x31, 0x2f, 0x62, 0x61, 0x74, 0x63, 0x68, 0x5f, 0x6e, 0x6f,
  0x72, 0x6d, 0x61, 0x6c, 0x69, 0x7a, 0x61, 0x74, 0x69, 0x6f, 0x6e, 0x5f,
  0x36, 0x2f, 0x46, 0x75, 0x73, 0x65, 0x64, 0x42, 0x61, 0x74, 0x63, 0x68,
  0x4e, 0x6f, 0x72, 0x6d, 0x56, 0x33, 0x32, 0x00, 0x04, 0x00, 0x00, 0x00,
  0x01, 0x00, 0x00, 0x00, 0x40, 0x00, 0x00, 0x00, 0x0d, 0x00, 0x00, 0x00,
  0x08, 0x00, 0x00, 0x00, 0x52, 0xed, 0xff, 0xff, 0x00, 0x00, 0x00, 0x01,
  0x18, 0x00, 0x00, 0x00, 0x28, 0x00, 0x00, 0x00, 0x48, 0x00, 0x00, 0x00,
  0x20, 0x00, 0x00, 0x00, 0x00, 0x00, 0x00, 0x09, 0xc8, 0x00, 0x00, 0x00,
  0x04, 0x00, 0x00, 0x00, 0xff, 0xff, 0xff, 0xff, 0x40, 0x00, 0x00, 0x00,
  0x0d, 0x00, 0x00, 0x00, 0x08, 0x00, 0x00, 0x00, 0x3c, 0xed, 0xff, 0xff,
  0x08, 0x00, 0x00, 0x00, 0x14, 0x00, 0x00, 0x00, 0x01, 0x00, 0x00, 0x00,
  0x80, 0xff, 0xff, 0xff, 0xff, 0xff, 0xff, 0xff, 0x00, 0x00, 0x00, 0x00,
  0x01, 0x00, 0x00, 0x00, 0x81, 0x74, 0xa2, 0x3f, 0x87, 0x00, 0x00, 0x00,
  0x6d, 0x6f, 0x64, 0x65, 0x6c, 0x5f, 0x31, 0x2f, 0x63, 0x6f, 0x6e, 0x76,
  0x32, 0x64, 0x5f, 0x36, 0x2f, 0x52, 0x65, 0x6c, 0x75, 0x3b, 0x6d, 0x6f,
  0x64, 0x65, 0x6c, 0x5f, 0x31, 0x2f, 0x63, 0x6f, 0x6e, 0x76, 0x32, 0x64,
  0x5f, 0x36, 0x2f, 0x42, 0x69, 0x61, 0x73, 0x41, 0x64, 0x64, 0x3b, 0x6d,
  0x6f, 0x64, 0x65, 0x6c, 0x5f, 0x31, 0x2f, 0x63, 0x6f, 0x6e, 0x76, 0x32,
  0x64, 0x5f, 0x31, 0x31, 0x2f, 0x43, 0x6f, 0x6e, 0x76, 0x32, 0x44, 0x3b,
  0x6d, 0x6f, 0x64, 0x65, 0x6c, 0x5f, 0x31, 0x2f, 0x63, 0x6f, 0x6e, 0x76,
  0x32, 0x64, 0x5f, 0x36, 0x2f, 0x43, 0x6f, 0x6e, 0x76, 0x32, 0x44, 0x3b,
  0x6d, 0x6f, 0x64, 0x65, 0x6c, 0x5f, 0x31, 0x2f, 0x63, 0x6f, 0x6e, 0x76,
  0x32, 0x64, 0x5f, 0x36, 0x2f, 0x42, 0x69, 0x61, 0x73, 0x41, 0x64, 0x64,
  0x2f, 0x52, 0x65, 0x61, 0x64, 0x56, 0x61, 0x72, 0x69, 0x61, 0x62, 0x6c,
  0x65, 0x4f, 0x70, 0x00, 0x04, 0x00, 0x00, 0x00, 0x01, 0x00, 0x00, 0x00,
  0x40, 0x00, 0x00, 0x00, 0x0d, 0x00, 0x00, 0x00, 0x08, 0x00, 0x00, 0x00,
  0x4a, 0xee, 0xff, 0xff, 0x00, 0x00, 0x00, 0x01, 0x18, 0x00, 0x00, 0x00,
  0x28, 0x00, 0x00, 0x00, 0x48, 0x00, 0x00, 0x00, 0x1f, 0x00, 0x00, 0x00,
  0x00, 0x00, 0x00, 0x09, 0x50, 0x00, 0x00, 0x00, 0x04, 0x00, 0x00, 0x00,
  0xff, 0xff, 0xff, 0xff, 0x40, 0x00, 0x00, 0x00, 0x0d, 0x00, 0x00, 0x00,
  0x01, 0x00, 0x00, 0x00, 0x34, 0xee, 0xff, 0xff, 0x08, 0x00, 0x00, 0x00,
  0x14, 0x00, 0x00, 0x00, 0x01, 0x00, 0x00, 0x00, 0x80, 0xff, 0xff, 0xff,
  0xff, 0xff, 0xff, 0xff, 0x00, 0x00, 0x00, 0x00, 0x01, 0x00, 0x00, 0x00,
  0x00, 0x00, 0x80, 0x3f, 0x0d, 0x00, 0x00, 0x00, 0x74, 0x66, 0x6c, 0x2e,
  0x71, 0x75, 0x61, 0x6e, 0x74, 0x69, 0x7a, 0x65, 0x31, 0x00, 0x00, 0x00,
  0x04, 0x00, 0x00, 0x00, 0x01, 0x00, 0x00, 0x00, 0x40, 0x00, 0x00, 0x00,
  0x0d, 0x00, 0x00, 0x00, 0x01, 0x00, 0x00, 0x00, 0xca, 0xee, 0xff, 0xff,
  0x00, 0x00, 0x00, 0x01, 0x18, 0x00, 0x00, 0x00, 0x28, 0x00, 0x00, 0x00,
  0x48, 0x00, 0x00, 0x00, 0x1e, 0x00, 0x00, 0x00, 0x00, 0x00, 0x00, 0x09,
  0x50, 0x00, 0x00, 0x00, 0x04, 0x00, 0x00, 0x00, 0xff, 0xff, 0xff, 0xff,
  0x40, 0x00, 0x00, 0x00, 0x0d, 0x00, 0x00, 0x00, 0x01, 0x00, 0x00, 0x00,
  0xb4, 0xee, 0xff, 0xff, 0x08, 0x00, 0x00, 0x00, 0x14, 0x00, 0x00, 0x00,
  0x01, 0x00, 0x00, 0x00, 0x80, 0xff, 0xff, 0xff, 0xff, 0xff, 0xff, 0xff,
  0x00, 0x00, 0x00, 0x00, 0x01, 0x00, 0x00, 0x00, 0x00, 0x00, 0x80, 0x3f,
  0x0c, 0x00, 0x00, 0x00, 0x74, 0x66, 0x6c, 0x2e, 0x71, 0x75, 0x61, 0x6e,
  0x74, 0x69, 0x7a, 0x65, 0x00, 0x00, 0x00, 0x00, 0x04, 0x00, 0x00, 0x00,
  0x01, 0x00, 0x00, 0x00, 0x40, 0x00, 0x00, 0x00, 0x0d, 0x00, 0x00, 0x00,
  0x01, 0x00, 0x00, 0x00, 0x36, 0xf0, 0xff, 0xff, 0x00, 0x00, 0x00, 0x01,
  0x14, 0x00, 0x00, 0x00, 0x84, 0x00, 0x00, 0x00, 0x1d, 0x00, 0x00, 0x00,
  0x00, 0x00, 0x00, 0x09, 0x94, 0x00, 0x00, 0x00, 0x1c, 0xef, 0xff, 0xff,
  0x08, 0x00, 0x00, 0x00, 0x48, 0x00, 0x00, 0x00, 0x08, 0x00, 0x00, 0x00,
  0x00, 0x00, 0x00, 0x00, 0x00, 0x00, 0x00, 0x00, 0x00, 0x00, 0x00, 0x00,
  0x00, 0x00, 0x00, 0x00, 0x00, 0x00, 0x00, 0x00, 0x00, 0x00, 0x00, 0x00,
  0x00, 0x00, 0x00, 0x00, 0x00, 0x00, 0x00, 0x00, 0x00, 0x00, 0x00, 0x00,
  0x00, 0x00, 0x00, 0x00, 0x00, 0x00, 0x00, 0x00, 0x00, 0x00, 0x00, 0x00,
  0x00, 0x00, 0x00, 0x00, 0x00, 0x00, 0x00, 0x00, 0x00, 0x00, 0x00, 0x00,
  0x00, 0x00, 0x00, 0x00, 0x08, 0x00, 0x00, 0x00, 0x24, 0xe6, 0xb9, 0x3a,
  0x0b, 0x01, 0xd7, 0x3a, 0x54, 0xd5, 0xd6, 0x3a, 0xbc, 0x85, 0xa2, 0x3a,
  0x9c, 0xbd, 0xb2, 0x3a, 0x32, 0xa8, 0xc8, 0x3a, 0xdd, 0xaa, 0xc2, 0x3a,
  0x6b, 0x2d, 0xa4, 0x3a, 0x17, 0x00, 0x00, 0x00, 0x6d, 0x6f, 0x64, 0x65,
  0x6c, 0x5f, 0x31, 0x2f, 0x63, 0x6f, 0x6e, 0x76, 0x32, 0x64, 0x5f, 0x36,
  0x2f, 0x43, 0x6f, 0x6e, 0x76, 0x32, 0x44, 0x00, 0x04, 0x00, 0x00, 0x00,
  0x08, 0x00, 0x00, 0x00, 0x07, 0x00, 0x00, 0x00, 0x07, 0x00, 0x00, 0x00,
  0x01, 0x00, 0x00, 0x00, 0xf6, 0xf0, 0xff, 0xff, 0x00, 0x00, 0x00, 0x01,
  0x14, 0x00, 0x00, 0x00, 0x88, 0x00, 0x00, 0x00, 0x1c, 0x00, 0x00, 0x00,
  0x00, 0x00, 0x00, 0x02, 0xa8, 0x00, 0x00, 0x00, 0xdc, 0xef, 0xff, 0xff,
  0x08, 0x00, 0x00, 0x00, 0x4c, 0x00, 0x00, 0x00, 0x08, 0x00, 0x00, 0x00,
  0x00, 0x00, 0x00, 0x00, 0x00, 0x00, 0x00, 0x00, 0x00, 0x00, 0x00, 0x00,
  0x00, 0x00, 0x00, 0x00, 0x00, 0x00, 0x00, 0x00, 0x00, 0x00, 0x00, 0x00,
  0x00, 0x00, 0x00, 0x00, 0x00, 0x00, 0x00, 0x00, 0x00, 0x00, 0x00, 0x00,
  0x00, 0x00, 0x00, 0x00, 0x00, 0x00, 0x00, 0x00, 0x00, 0x00, 0x00, 0x00,
  0x00, 0x00, 0x00, 0x00, 0x00, 0x00, 0x00, 0x00, 0x00, 0x00, 0x00, 0x00,
  0x00, 0x00, 0x00, 0x00, 0x00, 0x00, 0x00, 0x00, 0x08, 0x00, 0x00, 0x00,
  0x24, 0xe6, 0xb9, 0x3a, 0x0b, 0x01, 0xd7, 0x3a, 0x54, 0xd5, 0xd6, 0x3a,
  0xbc, 0x85, 0xa2, 0x3a, 0x9c, 0xbd, 0xb2, 0x3a, 0x32, 0xa8, 0xc8, 0x3a,
  0xdd, 0xaa, 0xc2, 0x3a, 0x6b, 0x2d, 0xa4, 0x3a, 0x27, 0x00, 0x00, 0x00,
  0x6d, 0x6f, 0x64, 0x65, 0x6c, 0x5f, 0x31, 0x2f, 0x63, 0x6f, 0x6e, 0x76,
  0x32, 0x64, 0x5f, 0x36, 0x2f, 0x42, 0x69, 0x61, 0x73, 0x41, 0x64, 0x64,
  0x2f, 0x52, 0x65, 0x61, 0x64, 0x56, 0x61, 0x72, 0x69, 0x61, 0x62, 0x6c,
  0x65, 0x4f, 0x70, 0x00, 0x01, 0x00, 0x00, 0x00, 0x08, 0x00, 0x00, 0x00,
  0xbe, 0xf1, 0xff, 0xff, 0x00, 0x00, 0x00, 0x01, 0x14, 0x00, 0x00, 0x00,
  0x30, 0x00, 0x00, 0x00, 0x1b, 0x00, 0x00, 0x00, 0x00, 0x00, 0x00, 0x09,
  0x58, 0x00, 0x00, 0x00, 0xa4, 0xf0, 0xff, 0xff, 0x08, 0x00, 0x00, 0x00,
  0x10, 0x00, 0x00, 0x00, 0x01, 0x00, 0x00, 0x00, 0x80, 0xff, 0xff, 0xff,
  0xff, 0xff, 0xff, 0xff, 0x01, 0x00, 0x00, 0x00, 0x37, 0x34, 0xe8, 0x39,
  0x2e, 0x00, 0x00, 0x00, 0x6d, 0x6f, 0x64, 0x65, 0x6c, 0x5f, 0x31, 0x2f,
  0x62, 0x61, 0x74, 0x63, 0x68, 0x5f, 0x6e, 0x6f, 0x72, 0x6d, 0x61, 0x6c,
  0x69, 0x7a, 0x61, 0x74, 0x69, 0x6f, 0x6e, 0x5f, 0x36, 0x2f, 0x46, 0x75,
  0x73, 0x65, 0x64, 0x42, 0x61, 0x74, 0x63, 0x68, 0x4e, 0x6f, 0x72, 0x6d,
  0x56, 0x33, 0x00, 0x00, 0x01, 0x00, 0x00, 0x00, 0x08, 0x00, 0x00, 0x00,
  0x36, 0xf2, 0xff, 0xff, 0x00, 0x00, 0x00, 0x01, 0x14, 0x00, 0x00, 0x00,
  0x30, 0x00, 0x00, 0x00, 0x1a, 0x00, 0x00, 0x00, 0x00, 0x00, 0x00, 0x09,
  0x58, 0x00, 0x00, 0x00, 0x1c, 0xf1, 0xff, 0xff, 0x08, 0x00, 0x00, 0x00,
  0x10, 0x00, 0x00, 0x00, 0x01, 0x00, 0x00, 0x00, 0x7f, 0x00, 0x00, 0x00,
  0x00, 0x00, 0x00, 0x00, 0x01, 0x00, 0x00, 0x00, 0xb7, 0x22, 0x2a, 0x3b,
  0x2f, 0x00, 0x00, 0x00, 0x6d, 0x6f, 0x64, 0x65, 0x6c, 0x5f, 0x31, 0x2f,
  0x62, 0x61, 0x74, 0x63, 0x68, 0x5f, 0x6e, 0x6f, 0x72, 0x6d, 0x61, 0x6c,
  0x69, 0x7a, 0x61, 0x74, 0x69, 0x6f, 0x6e, 0x5f, 0x36, 0x2f, 0x46, 0x75,
  0x73, 0x65, 0x64, 0x42, 0x61, 0x74, 0x63, 0x68, 0x4e, 0x6f, 0x72, 0x6d,
  0x56, 0x33, 0x31, 0x00, 0x01, 0x00, 0x00, 0x00, 0x08, 0x00, 0x00, 0x00,
  0xae, 0xf2, 0xff, 0xff, 0x00, 0x00, 0x00, 0x01, 0x14, 0x00, 0x00, 0x00,
  0x84, 0x00, 0x00, 0x00, 0x19, 0x00, 0x00, 0x00, 0x00, 0x00, 0x00, 0x09,
  0x94, 0x00, 0x00, 0x00, 0x94, 0xf1, 0xff, 0xff, 0x08, 0x00, 0x00, 0x00,
  0x48, 0x00, 0x00, 0x00, 0x08, 0x00, 0x00, 0x00, 0x00, 0x00, 0x00, 0x00,
  0x00, 0x00, 0x00, 0x00, 0x00, 0x00, 0x00, 0x00, 0x00, 0x00, 0x00, 0x00,
  0x00, 0x00, 0x00, 0x00, 0x00, 0x00, 0x00, 0x00, 0x00, 0x00, 0x00, 0x00,
  0x00, 0x00, 0x00, 0x00, 0x00, 0x00, 0x00, 0x00, 0x00, 0x00, 0x00, 0x00,
  0x00, 0x00, 0x00, 0x00, 0x00, 0x00, 0x00, 0x00, 0x00, 0x00, 0x00, 0x00,
  0x00, 0x00, 0x00, 0x00, 0x00, 0x00, 0x00, 0x00, 0x00, 0x00, 0x00, 0x00,
  0x08, 0x00, 0x00, 0x00, 0x47, 0xbc, 0xc8, 0x3a, 0xbb, 0xf1, 0x10, 0x3b,
  0x80, 0xb1, 0xdc, 0x3a, 0x26, 0x1a, 0xce, 0x3a, 0x86, 0xd0, 0xda, 0x3a,
  0x50, 0x9b, 0xcd, 0x3a, 0xf4, 0x44, 0xe9, 0x3a, 0x70, 0x54, 0xec, 0x3a,
  0x17, 0x00, 0x00, 0x00, 0x6d, 0x6f, 0x64, 0x65, 0x6c, 0x5f, 0x31, 0x2f,
  0x63, 0x6f, 0x6e, 0x76, 0x32, 0x64, 0x5f, 0x37, 0x2f, 0x43, 0x6f, 0x6e,
  0x76, 0x32, 0x44, 0x00, 0x04, 0x00, 0x00, 0x00, 0x08, 0x00, 0x00, 0x00,
  0x05, 0x00, 0x00, 0x00, 0x05, 0x00, 0x00, 0x00, 0x08, 0x00, 0x00, 0x00,
  0x6e, 0xf3, 0xff, 0xff, 0x00, 0x00, 0x00, 0x01, 0x14, 0x00, 0x00, 0x00,
  0x88, 0x00, 0x00, 0x00, 0x18, 0x00, 0x00, 0x00, 0x00, 0x00, 0x00, 0x02,
  0xa8, 0x00, 0x00, 0x00, 0x54, 0xf2, 0xff, 0xff, 0x08, 0x00, 0x00, 0x00,
  0x4c, 0x00, 0x00, 0x00, 0x08, 0x00, 0x00, 0x00, 0x00, 0x00, 0x00, 0x00,
  0x00, 0x00, 0x00, 0x00, 0x00, 0x00, 0x00, 0x00, 0x00, 0x00, 0x00, 0x00,
  0x00, 0x00, 0x00, 0x00, 0x00, 0x00, 0x00, 0x00, 0x00, 0x00, 0x00, 0x00,
  0x00, 0x00, 0x00, 0x00, 0x00, 0x00, 0x00, 0x00, 0x00, 0x00, 0x00, 0x00,
  0x00, 0x00, 0x00, 0x00, 0x00, 0x00, 0x00, 0x00, 0x00, 0x00, 0x00, 0x00,
  0x00, 0x00, 0x00, 0x00, 0x00, 0x00, 0x00, 0x00, 0x00, 0x00, 0x00, 0x00,
  0x00, 0x00, 0x00, 0x00, 0x08, 0x00, 0x00, 0x00, 0x2d, 0xed, 0xb1, 0x38,
  0x84, 0x79, 0x00, 0x39, 0xdb, 0x9d, 0xc3, 0x38, 0xf1, 0xae, 0xb6, 0x38,
  0x88, 0xf3, 0xc1, 0x38, 0x84, 0x3e, 0xb6, 0x38, 0x7e, 0xc3, 0xce, 0x38,
  0xf3, 0x79, 0xd1, 0x38, 0x27, 0x00, 0x00, 0x00, 0x6d, 0x6f, 0x64, 0x65,
  0x6c, 0x5f, 0x31, 0x2f, 0x63, 0x6f, 0x6e, 0x76, 0x32, 0x64, 0x5f, 0x37,
  0x2f, 0x42, 0x69, 0x61, 0x73, 0x41, 0x64, 0x64, 0x2f, 0x52, 0x65, 0x61,
  0x64, 0x56, 0x61, 0x72, 0x69, 0x61, 0x62, 0x6c, 0x65, 0x4f, 0x70, 0x00,
  0x01, 0x00, 0x00, 0x00, 0x08, 0x00, 0x00, 0x00, 0x36, 0xf4, 0xff, 0xff,
  0x00, 0x00, 0x00, 0x01, 0x14, 0x00, 0x00, 0x00, 0x30, 0x00, 0x00, 0x00,
  0x17, 0x00, 0x00, 0x00, 0x00, 0x00, 0x00, 0x09, 0x58, 0x00, 0x00, 0x00,
  0x1c, 0xf3, 0xff, 0xff, 0x08, 0x00, 0x00, 0x00, 0x10, 0x00, 0x00, 0x00,
  0x01, 0x00, 0x00, 0x00, 0x80, 0xff, 0xff, 0xff, 0xff, 0xff, 0xff, 0xff,
  0x01, 0x00, 0x00, 0x00, 0xe1, 0x89, 0xc7, 0x3b, 0x2e, 0x00, 0x00, 0x00,
  0x6d, 0x6f, 0x64, 0x65, 0x6c, 0x5f, 0x31, 0x2f, 0x62, 0x61, 0x74, 0x63,
  0x68, 0x5f, 0x6e, 0x6f, 0x72, 0x6d, 0x61, 0x6c, 0x69, 0x7a, 0x61, 0x74,
  0x69, 0x6f, 0x6e, 0x5f, 0x37, 0x2f, 0x46, 0x75, 0x73, 0x65, 0x64, 0x42,
  0x61, 0x74, 0x63, 0x68, 0x4e, 0x6f, 0x72, 0x6d, 0x56, 0x33, 0x00, 0x00,
  0x01, 0x00, 0x00, 0x00, 0x08, 0x00, 0x00, 0x00, 0xae, 0xf4, 0xff, 0xff,
  0x00, 0x00, 0x00, 0x01, 0x14, 0x00, 0x00, 0x00, 0x30, 0x00, 0x00, 0x00,
  0x16, 0x00, 0x00, 0x00, 0x00, 0x00, 0x00, 0x09, 0x58, 0x00, 0x00, 0x00,
  0x94, 0xf3, 0xff, 0xff, 0x08, 0x00, 0x00, 0x00, 0x10, 0x00, 0x00, 0x00,
  0x01, 0x00, 0x00, 0x00, 0x7f, 0x00, 0x00, 0x00, 0x00, 0x00, 0x00, 0x00,
  0x01, 0x00, 0x00, 0x00, 0x27, 0x79, 0x59, 0x3b, 0x2f, 0x00, 0x00, 0x00,
  0x6d, 0x6f, 0x64, 0x65, 0x6c, 0x5f, 0x31, 0x2f, 0x62, 0x61, 0x74, 0x63,
  0x68, 0x5f, 0x6e, 0x6f, 0x72, 0x6d, 0x61, 0x6c, 0x69, 0x7a, 0x61, 0x74,
  0x69, 0x6f, 0x6e, 0x5f, 0x37, 0x2f, 0x46, 0x75, 0x73, 0x65, 0x64, 0x42,
  0x61, 0x74, 0x63, 0x68, 0x4e, 0x6f, 0x72, 0x6d, 0x56, 0x33, 0x31, 0x00,
  0x01, 0x00, 0x00, 0x00, 0x08, 0x00, 0x00, 0x00, 0x26, 0xf5, 0xff, 0xff,
  0x00, 0x00, 0x00, 0x01, 0x14, 0x00, 0x00, 0x00, 0x84, 0x00, 0x00, 0x00,
  0x15, 0x00, 0x00, 0x00, 0x00, 0x00, 0x00, 0x09, 0x94, 0x00, 0x00, 0x00,
  0x0c, 0xf4, 0xff, 0xff, 0x08, 0x00, 0x00, 0x00, 0x48, 0x00, 0x00, 0x00,
  0x08, 0x00, 0x00, 0x00, 0x00, 0x00, 0x00, 0x00, 0x00, 0x00, 0x00, 0x00,
  0x00, 0x00, 0x00, 0x00, 0x00, 0x00, 0x00, 0x00, 0x00, 0x00, 0x00, 0x00,
  0x00, 0x00, 0x00, 0x00, 0x00, 0x00, 0x00, 0x00, 0x00, 0x00, 0x00, 0x00,
  0x00, 0x00, 0x00, 0x00, 0x00, 0x00, 0x00, 0x00, 0x00, 0x00, 0x00, 0x00,
  0x00, 0x00, 0x00, 0x00, 0x00, 0x00, 0x00, 0x00, 0x00, 0x00, 0x00, 0x00,
  0x00, 0x00, 0x00, 0x00, 0x00, 0x00, 0x00, 0x00, 0x08, 0x00, 0x00, 0x00,
  0x19, 0xe0, 0x0f, 0x3b, 0x05, 0x4c, 0x3e, 0x3b, 0xa6, 0x8e, 0x02, 0x3b,
  0xb7, 0xc9, 0x05, 0x3b, 0xce, 0xb8, 0x0b, 0x3b, 0x28, 0xc3, 0x1b, 0x3b,
  0x53, 0x8f, 0x20, 0x3b, 0xa2, 0x12, 0x11, 0x3b, 0x17, 0x00, 0x00, 0x00,
  0x6d, 0x6f, 0x64, 0x65, 0x6c, 0x5f, 0x31, 0x2f, 0x63, 0x6f, 0x6e, 0x76,
  0x32, 0x64, 0x5f, 0x38, 0x2f, 0x43, 0x6f, 0x6e, 0x76, 0x32, 0x44, 0x00,
  0x04, 0x00, 0x00, 0x00, 0x08, 0x00, 0x00, 0x00, 0x03, 0x00, 0x00, 0x00,
  0x03, 0x00, 0x00, 0x00, 0x08, 0x00, 0x00, 0x00, 0xe6, 0xf5, 0xff, 0xff,
  0x00, 0x00, 0x00, 0x01, 0x14, 0x00, 0x00, 0x00, 0x88, 0x00, 0x00, 0x00,
  0x14, 0x00, 0x00, 0x00, 0x00, 0x00, 0x00, 0x02, 0xa8, 0x00, 0x00, 0x00,
  0xcc, 0xf4, 0xff, 0xff, 0x08, 0x00, 0x00, 0x00, 0x4c, 0x00, 0x00, 0x00,
  0x08, 0x00, 0x00, 0x00, 0x00, 0x00, 0x00, 0x00, 0x00, 0x00, 0x00, 0x00,
  0x00, 0x00, 0x00, 0x00, 0x00, 0x00, 0x00, 0x00, 0x00, 0x00, 0x00, 0x00,
  0x00, 0x00, 0x00, 0x00, 0x00, 0x00, 0x00, 0x00, 0x00, 0x00, 0x00, 0x00,
  0x00, 0x00, 0x00, 0x00, 0x00, 0x00, 0x00, 0x00, 0x00, 0x00, 0x00, 0x00,
  0x00, 0x00, 0x00, 0x00, 0x00, 0x00, 0x00, 0x00, 0x00, 0x00, 0x00, 0x00,
  0x00, 0x00, 0x00, 0x00, 0x00, 0x00, 0x00, 0x00, 0x00, 0x00, 0x00, 0x00,
  0x08, 0x00, 0x00, 0x00, 0x78, 0x2f, 0xe7, 0x38, 0x8b, 0xe3, 0x18, 0x39,
  0x03, 0xc9, 0xd1, 0x38, 0xfb, 0xf9, 0xd6, 0x38, 0xec, 0x82, 0xe0, 0x38,
  0x31, 0x49, 0xfa, 0x38, 0x55, 0xff, 0x00, 0x39, 0x06, 0x1c, 0xe9, 0x38,
