const unsigned char output_spectrum_painting_model_tflite[] = {
  0x20, 0x00, 0x00, 0x00, 0x54, 0x46, 0x4c, 0x33, 0x00, 0x00, 0x00, 0x00,
  0x14, 0x00, 0x20, 0x00, 0x1c, 0x00, 0x18, 0x00, 0x14, 0x00, 0x10, 0x00,
  0x0c, 0x00, 0x00, 0x00, 0x08, 0x00, 0x04, 0x00, 0x14, 0x00, 0x00, 0x00,
  0x1c, 0x00, 0x00, 0x00, 0x9c, 0x00, 0x00, 0x00, 0xf4, 0x00, 0x00, 0x00,
  0x08, 0x1d, 0x00, 0x00, 0x18, 0x1d, 0x00, 0x00, 0x30, 0x4a, 0x00, 0x00,
  0x03, 0x00, 0x00, 0x00, 0x01, 0x00, 0x00, 0x00, 0x04, 0x00, 0x00, 0x00,
  0xf2, 0xe1, 0xff, 0xff, 0x0c, 0x00, 0x00, 0x00, 0x1c, 0x00, 0x00, 0x00,
  0x38, 0x00, 0x00, 0x00, 0x0f, 0x00, 0x00, 0x00, 0x73, 0x65, 0x72, 0x76,
  0x69, 0x6e, 0x67, 0x5f, 0x64, 0x65, 0x66, 0x61, 0x75, 0x6c, 0x74, 0x00,
  0x01, 0x00, 0x00, 0x00, 0x04, 0x00, 0x00, 0x00, 0x80, 0xff, 0xff, 0xff,
  0x3a, 0x00, 0x00, 0x00, 0x04, 0x00, 0x00, 0x00, 0x07, 0x00, 0x00, 0x00,
  0x64, 0x65, 0x6e, 0x73, 0x65, 0x5f, 0x31, 0x00, 0x02, 0x00, 0x00, 0x00,
  0x1c, 0x00, 0x00, 0x00, 0x04, 0x00, 0x00, 0x00, 0xfa, 0xe1, 0xff, 0xff,
  0x04, 0x00, 0x00, 0x00, 0x07, 0x00, 0x00, 0x00, 0x69, 0x6e, 0x70, 0x75,
  0x74, 0x5f, 0x34, 0x00, 0xb8, 0xff, 0xff, 0xff, 0x01, 0x00, 0x00, 0x00,
  0x04, 0x00, 0x00, 0x00, 0x07, 0x00, 0x00, 0x00, 0x69, 0x6e, 0x70, 0x75,
  0x74, 0x5f, 0x33, 0x00, 0x02, 0x00, 0x00, 0x00, 0x34, 0x00, 0x00, 0x00,
  0x04, 0x00, 0x00, 0x00, 0xdc, 0xff, 0xff, 0xff, 0x3d, 0x00, 0x00, 0x00,
  0x04, 0x00, 0x00, 0x00, 0x13, 0x00, 0x00, 0x00, 0x43, 0x4f, 0x4e, 0x56,
  0x45, 0x52, 0x53, 0x49, 0x4f, 0x4e, 0x5f, 0x4d, 0x45, 0x54, 0x41, 0x44,
  0x41, 0x54, 0x41, 0x00, 0x08, 0x00, 0x0c, 0x00, 0x08, 0x00, 0x04, 0x00,
  0x08, 0x00, 0x00, 0x00, 0x3c, 0x00, 0x00, 0x00, 0x04, 0x00, 0x00, 0x00,
  0x13, 0x00, 0x00, 0x00, 0x6d, 0x69, 0x6e, 0x5f, 0x72, 0x75, 0x6e, 0x74,
  0x69, 0x6d, 0x65, 0x5f, 0x76, 0x65, 0x72, 0x73, 0x69, 0x6f, 0x6e, 0x00,
  0x3e, 0x00, 0x00, 0x00, 0x10, 0x1c, 0x00, 0x00, 0x08, 0x1c, 0x00, 0x00,
  0x00, 0x1c, 0x00, 0x00, 0xe8, 0x1b, 0x00, 0x00, 0xbc, 0x1b, 0x00, 0x00,
  0x2c, 0x18, 0x00, 0x00, 0x14, 0x18, 0x00, 0x00, 0xfc, 0x17, 0x00, 0x00,
  0xcc, 0x17, 0x00, 0x00, 0x7c, 0x15, 0x00, 0x00, 0x64, 0x15, 0x00, 0x00,
  0x4c, 0x15, 0x00, 0x00, 0x1c, 0x15, 0x00, 0x00, 0xcc, 0x0e, 0x00, 0x00,
  0xb4, 0x0e, 0x00, 0x00, 0x9c, 0x0e, 0x00, 0x00, 0x6c, 0x0e, 0x00, 0x00,
  0xd4, 0x0c, 0x00, 0x00, 0xbc, 0x0c, 0x00, 0x00, 0xa4, 0x0c, 0x00, 0x00,
  0x74, 0x0c, 0x00, 0x00, 0x24, 0x0a, 0x00, 0x00, 0x0c, 0x0a, 0x00, 0x00,
  0xf4, 0x09, 0x00, 0x00, 0xc4, 0x09, 0x00, 0x00, 0x74, 0x03, 0x00, 0x00,
  0x5c, 0x03, 0x00, 0x00, 0x44, 0x03, 0x00, 0x00, 0x14, 0x03, 0x00, 0x00,
  0x7c, 0x01, 0x00, 0x00, 0x74, 0x01, 0x00, 0x00, 0x6c, 0x01, 0x00, 0x00,
  0x64, 0x01, 0x00, 0x00, 0x5c, 0x01, 0x00, 0x00, 0x54, 0x01, 0x00, 0x00,
  0x4c, 0x01, 0x00, 0x00, 0x44, 0x01, 0x00, 0x00, 0x3c, 0x01, 0x00, 0x00,
  0x34, 0x01, 0x00, 0x00, 0x2c, 0x01, 0x00, 0x00, 0x24, 0x01, 0x00, 0x00,
  0x1c, 0x01, 0x00, 0x00, 0x14, 0x01, 0x00, 0x00, 0x0c, 0x01, 0x00, 0x00,
  0x04, 0x01, 0x00, 0x00, 0xfc, 0x00, 0x00, 0x00, 0xf4, 0x00, 0x00, 0x00,
  0xec, 0x00, 0x00, 0x00, 0xe4, 0x00, 0x00, 0x00, 0xdc, 0x00, 0x00, 0x00,
  0xd4, 0x00, 0x00, 0x00, 0xcc, 0x00, 0x00, 0x00, 0xc4, 0x00, 0x00, 0x00,
  0xbc, 0x00, 0x00, 0x00, 0xb4, 0x00, 0x00, 0x00, 0xac, 0x00, 0x00, 0x00,
  0xa4, 0x00, 0x00, 0x00, 0x9c, 0x00, 0x00, 0x00, 0x94, 0x00, 0x00, 0x00,
  0x8c, 0x00, 0x00, 0x00, 0x6c, 0x00, 0x00, 0x00, 0x04, 0x00, 0x00, 0x00,
  0x7e, 0xe3, 0xff, 0xff, 0x04, 0x00, 0x00, 0x00, 0x58, 0x00, 0x00, 0x00,
  0x0c, 0x00, 0x00, 0x00, 0x08, 0x00, 0x0e, 0x00, 0x08, 0x00, 0x04, 0x00,
  0x08, 0x00, 0x00, 0x00, 0x10, 0x00, 0x00, 0x00, 0x28, 0x00, 0x00, 0x00,
  0x00, 0x00, 0x06, 0x00, 0x08, 0x00, 0x04, 0x00, 0x06, 0x00, 0x00, 0x00,
  0x04, 0x00, 0x00, 0x00, 0x01, 0x00, 0x00, 0x00, 0xeb, 0x03, 0x00, 0x00,
  0x00, 0x00, 0x0a, 0x00, 0x10, 0x00, 0x0c, 0x00, 0x08, 0x00, 0x04, 0x00,
  0x0a, 0x00, 0x00, 0x00, 0x02, 0x00, 0x00, 0x00, 0x02, 0x00, 0x00, 0x00,
  0x04, 0x00, 0x00, 0x00, 0x06, 0x00, 0x00, 0x00, 0x32, 0x2e, 0x31, 0x34,
  0x2e, 0x30, 0x00, 0x00, 0xe2, 0xe3, 0xff, 0xff, 0x04, 0x00, 0x00, 0x00,
  0x10, 0x00, 0x00, 0x00, 0x31, 0x2e, 0x31, 0x34, 0x2e, 0x30, 0x00, 0x00,
  0x00, 0x00, 0x00, 0x00, 0x00, 0x00, 0x00, 0x00, 0x9c, 0xb9, 0xff, 0xff,
  0xa0, 0xb9, 0xff, 0xff, 0xa4, 0xb9, 0xff, 0xff, 0xa8, 0xb9, 0xff, 0xff,
  0xac, 0xb9, 0xff, 0xff, 0xb0, 0xb9, 0xff, 0xff, 0xb4, 0xb9, 0xff, 0xff,
  0xb8, 0xb9, 0xff, 0xff, 0xbc, 0xb9, 0xff, 0xff, 0xc0, 0xb9, 0xff, 0xff,
  0xc4, 0xb9, 0xff, 0xff, 0xc8, 0xb9, 0xff, 0xff, 0xcc, 0xb9, 0xff, 0xff,
  0xd0, 0xb9, 0xff, 0xff, 0xd4, 0xb9, 0xff, 0xff, 0xd8, 0xb9, 0xff, 0xff,
  0xdc, 0xb9, 0xff, 0xff, 0xe0, 0xb9, 0xff, 0xff, 0xe4, 0xb9, 0xff, 0xff,
  0xe8, 0xb9, 0xff, 0xff, 0xec, 0xb9, 0xff, 0xff, 0xf0, 0xb9, 0xff, 0xff,
  0xf4, 0xb9, 0xff, 0xff, 0xf8, 0xb9, 0xff, 0xff, 0xfc, 0xb9, 0xff, 0xff,
  0x00, 0xba, 0xff, 0xff, 0x04, 0xba, 0xff, 0xff, 0x08, 0xba, 0xff, 0xff,
  0x0c, 0xba, 0xff, 0xff, 0x10, 0xba, 0xff, 0xff, 0x76, 0xe4, 0xff, 0xff,
  0x04, 0x00, 0x00, 0x00, 0x88, 0x01, 0x00, 0x00, 0xff, 0x64, 0x28, 0xbe,
  0xa2, 0xa4, 0x04, 0xd9, 0xc2, 0xc8, 0xdd, 0xc9, 0x88, 0xd9, 0x7f, 0x7b,
  0x0b, 0xcf, 0x0a, 0x0e, 0x66, 0x4b, 0xed, 0x98, 0xbe, 0x1a, 0x38, 0x55,
  0xdf, 0x29, 0xec, 0x9f, 0x00, 0x15, 0xd6, 0xc1, 0xda, 0x0b, 0xa2, 0x48,
  0xde, 0xff, 0xd1, 0xa9, 0xc6, 0x4d, 0x2a, 0xfe, 0xc0, 0x8d, 0xfc, 0x85,
  0xd4, 0xf0, 0x09, 0x56, 0x42, 0xe2, 0x01, 0xfb, 0x00, 0xc3, 0xe1, 0x3a,
  0x2d, 0x3d, 0x2e, 0x01, 0xe6, 0xbf, 0xe9, 0x0f, 0xc5, 0x27, 0xf7, 0x36,
  0xd4, 0xf7, 0xf8, 0x23, 0xc8, 0x7f, 0x39, 0xe0, 0x04, 0x00, 0x2e, 0x5c,
  0xda, 0x71, 0xe0, 0x30, 0x2c, 0xb1, 0xe1, 0xa9, 0x10, 0x9d, 0x60, 0x06,
  0xe1, 0x60, 0x3e, 0xd7, 0x1d, 0x7f, 0xe2, 0x32, 0xb1, 0x0d, 0xf1, 0x91,
  0x43, 0x01, 0x51, 0x06, 0x91, 0xd9, 0xf0, 0xc0, 0x8f, 0xb4, 0xf9, 0x14,
  0xdf, 0x8c, 0xb7, 0x47, 0xa1, 0x9d, 0x41, 0x64, 0xdd, 0x0b, 0xec, 0x48,
  0x74, 0x24, 0xd0, 0x69, 0xb4, 0x32, 0x22, 0x48, 0x3b, 0xfc, 0xce, 0xb8,
  0xd3, 0x07, 0x06, 0xc2, 0x4a, 0xc8, 0x42, 0xe6, 0x3c, 0x01, 0xea, 0xc7,
  0xe2, 0x26, 0xe0, 0xea, 0xf2, 0xb0, 0xa4, 0xf0, 0xd7, 0x3b, 0x48, 0xe5,
  0xc3, 0x33, 0xb6, 0xf8, 0x2f, 0x62, 0xdb, 0x4b, 0x23, 0x95, 0x81, 0x11,
  0x33, 0x02, 0x00, 0x25, 0x9f, 0xdf, 0xdc, 0xa2, 0xc0, 0xc7, 0xe2, 0x2c,
  0xf1, 0xfb, 0xb8, 0x25, 0x00, 0x4b, 0x43, 0x7f, 0x08, 0x51, 0x14, 0xe1,
  0x8d, 0xca, 0x71, 0x76, 0xc7, 0xf1, 0xea, 0x1e, 0xd9, 0x64, 0x04, 0xfd,
  0xc5, 0x2e, 0x51, 0xe2, 0x1f, 0x57, 0xd9, 0xcb, 0xcb, 0x5e, 0xda, 0xa7,
  0x1e, 0xd4, 0xe4, 0xf8, 0xf0, 0xb1, 0xb1, 0x07, 0x2a, 0xd9, 0x91, 0x82,
  0xf7, 0xc4, 0x23, 0xd5, 0x06, 0x20, 0xae, 0xcb, 0x4a, 0xa3, 0xf8, 0x9d,
  0x39, 0xaa, 0xd0, 0x10, 0x3b, 0xa4, 0xc4, 0x30, 0x0a, 0xaa, 0x2b, 0xd5,
  0xa1, 0x81, 0x5f, 0xdb, 0x26, 0xda, 0xd4, 0xe5, 0xf3, 0xff, 0xc9, 0xf5,
  0x1b, 0x41, 0xc6, 0x98, 0x23, 0x12, 0xfe, 0xc5, 0xfe, 0xa6, 0xe5, 0xd8,
  0x04, 0x3f, 0xb7, 0x8a, 0xcc, 0x52, 0x6f, 0xfc, 0xd1, 0xb0, 0xbd, 0xe4,
  0x8c, 0xe4, 0xda, 0xc1, 0x28, 0x10, 0xfd, 0xd8, 0x66, 0xcd, 0x47, 0xb4,
  0x81, 0x0e, 0x10, 0xc0, 0xfc, 0x4b, 0x95, 0xed, 0x30, 0x60, 0x52, 0xed,
  0x19, 0xa6, 0x2e, 0xb6, 0x33, 0x31, 0x32, 0xfd, 0xf9, 0xed, 0x05, 0x59,
  0x3f, 0x38, 0x30, 0x43, 0x4c, 0x5a, 0xd7, 0x53, 0x41, 0xd3, 0xc2, 0x2d,
  0x62, 0x15, 0xe5, 0xa4, 0x9e, 0x44, 0xfd, 0x25, 0x02, 0x1c, 0x08, 0x21,
  0x5a, 0x4a, 0x23, 0x05, 0x97, 0xbc, 0x58, 0xc3, 0x63, 0x23, 0xbf, 0x81,
  0x9b, 0x0b, 0x1d, 0x04, 0x01, 0xc6, 0x97, 0xe7, 0xcc, 0x21, 0x22, 0x97,
  0xe8, 0x9f, 0x9c, 0xd7, 0x0a, 0xe6, 0xff, 0xff, 0x04, 0x00, 0x00, 0x00,
  0x20, 0x00, 0x00, 0x00, 0x1b, 0x00, 0x00, 0x00, 0x30, 0x00, 0x00, 0x00,
  0xce, 0xff, 0xff, 0xff, 0x5e, 0x00, 0x00, 0x00, 0x71, 0xff, 0xff, 0xff,
  0xfc, 0xff, 0xff, 0xff, 0x0a, 0x00, 0x00, 0x00, 0x74, 0xff, 0xff, 0xff,
  0x36, 0xe6, 0xff, 0xff, 0x04, 0x00, 0x00, 0x00, 0x08, 0x00, 0x00, 0x00,
  0xb5, 0x95, 0x95, 0xd0, 0x93, 0x7f, 0x90, 0x91, 0x4a, 0xe6, 0xff, 0xff,
  0x04, 0x00, 0x00, 0x00, 0x08, 0x00, 0x00, 0x00, 0x22, 0x05, 0x80, 0x47,
  0xcd, 0x5f, 0xea, 0xe8, 0x5e, 0xe6, 0xff, 0xff, 0x04, 0x00, 0x00, 0x00,
  0x40, 0x06, 0x00, 0x00, 0x3c, 0x2e, 0x3d, 0x26, 0xeb, 0x04, 0x27, 0x1d,
  0x15, 0x1a, 0x10, 0x0e, 0x19, 0xd2, 0x12, 0x0f, 0x05, 0xe6, 0xcb, 0xf8,
  0xe7, 0xdc, 0xbf, 0xd2, 0x23, 0x1e, 0xc3, 0xd2, 0x1d, 0xef, 0xd2, 0x04,
  0x11, 0x1d, 0x00, 0x0a, 0xea, 0x3f, 0x1e, 0xf4, 0x16, 0x54, 0xc9, 0xb8,
  0xe0, 0xf5, 0xf5, 0xc2, 0xa4, 0x0a, 0x06, 0xe9, 0x2b, 0x3b, 0x25, 0xd6,
  0xc6, 0xd4, 0x2e, 0xc3, 0x33, 0x0c, 0xe7, 0xf6, 0xf7, 0x29, 0x1e, 0x31,
  0x48, 0x81, 0xd2, 0xcb, 0xec, 0x26, 0x23, 0x24, 0x1a, 0x1f, 0xd8, 0xce,
  0x45, 0x56, 0x34, 0x1a, 0x37, 0xc2, 0xee, 0x0d, 0x08, 0x07, 0x05, 0xbc,
  0xf5, 0x96, 0x1a, 0x66, 0x4e, 0xda, 0xf3, 0xfd, 0x55, 0x8a, 0x1a, 0xf2,
  0xb9, 0x37, 0x28, 0x57, 0xfa, 0x95, 0xdb, 0x41, 0x0c, 0xd9, 0xfa, 0x26,
  0xc2, 0x9e, 0xc8, 0x1c, 0xc8, 0x13, 0xdd, 0x3a, 0xe7, 0xb9, 0x0c, 0xf3,
  0x43, 0x10, 0xfa, 0x13, 0x3b, 0xd2, 0x05, 0xbc, 0xea, 0x1c, 0xd3, 0xd0,
  0xdc, 0x00, 0xf3, 0x19, 0xfc, 0xe4, 0xee, 0xf7, 0xfd, 0x26, 0x37, 0xe4,
  0x0b, 0x22, 0x0d, 0xf7, 0x1e, 0xd5, 0x20, 0x24, 0x18, 0x30, 0x11, 0x2f,
  0x1b, 0xee, 0xdb, 0x0d, 0xfd, 0x05, 0xed, 0x22, 0x40, 0xb2, 0xf5, 0xf0,
  0xf1, 0x14, 0xed, 0xdd, 0xce, 0x95, 0x11, 0x4e, 0x3a, 0x3b, 0xdf, 0x9b,
  0x4d, 0xc1, 0xf0, 0x48, 0xd8, 0x22, 0xd2, 0x00, 0xd8, 0x3d, 0xda, 0x05,
  0xc8, 0x1f, 0xf7, 0xd2, 0x1b, 0xb9, 0xa4, 0xcf, 0xd1, 0xfa, 0x1f, 0x03,
  0xb7, 0xf3, 0x17, 0x1f, 0xf8, 0xc3, 0xdc, 0xda, 0xb5, 0x16, 0x33, 0xda,
  0x56, 0xca, 0xd8, 0xba, 0x3e, 0x2e, 0x36, 0x55, 0x14, 0xe6, 0x1a, 0xbd,
  0x3e, 0x3b, 0x24, 0xc7, 0x3b, 0xd8, 0xb9, 0xd8, 0x0e, 0xc7, 0x41, 0x6b,
  0xbe, 0xe4, 0x09, 0x2b, 0x13, 0x3e, 0x2f, 0x40, 0x0e, 0x0f, 0x01, 0xc9,
  0x41, 0x16, 0x13, 0xee, 0x3b, 0xe7, 0x14, 0xf2, 0xdc, 0x19, 0x25, 0x0f,
  0xe0, 0x3a, 0xa6, 0xfe, 0x42, 0x68, 0xd6, 0x2d, 0x13, 0x0c, 0x51, 0x40,
  0xf8, 0xca, 0xff, 0x28, 0xec, 0xb0, 0xdc, 0xe0, 0x39, 0x15, 0xe7, 0x21,
  0x3b, 0x1b, 0x34, 0xe1, 0xed, 0xf8, 0x28, 0x14, 0xb0, 0x3c, 0x06, 0xfd,
  0x1f, 0x18, 0xe9, 0xc8, 0x95, 0xe6, 0xf2, 0x42, 0x35, 0x86, 0x49, 0xdf,
  0x08, 0x13, 0x26, 0x2a, 0x2c, 0x2f, 0x0f, 0x49, 0x37, 0xf4, 0x7f, 0xf0,
  0x47, 0x4f, 0x08, 0xee, 0xf7, 0xd6, 0x49, 0xc1, 0x3b, 0xc4, 0x33, 0xe7,
  0x15, 0xdd, 0xe0, 0xc6, 0x1d, 0x03, 0x02, 0x03, 0xc0, 0x02, 0x50, 0xad,
  0xa9, 0xd3, 0x6b, 0x28, 0xde, 0xf3, 0xdb, 0x44, 0x43, 0xca, 0xe3, 0x37,
  0x33, 0x26, 0x0c, 0xd7, 0x64, 0x43, 0x6e, 0x30, 0x04, 0x2e, 0xc1, 0x8e,
  0x1b, 0xdc, 0xfb, 0x03, 0x29, 0x0b, 0x17, 0xc0, 0x32, 0xb2, 0xf6, 0x3f,
  0x15, 0x24, 0x07, 0x92, 0xce, 0xdf, 0xd9, 0xd9, 0x15, 0xf7, 0xf3, 0x9e,
  0x8e, 0x22, 0xb2, 0x09, 0x16, 0x3e, 0x0d, 0xe2, 0x02, 0xdd, 0xbe, 0x09,
  0x33, 0x42, 0xf4, 0x5c, 0xee, 0x8b, 0x35, 0xc7, 0x2d, 0x98, 0xd2, 0x28,
  0x20, 0x68, 0x33, 0xbc, 0x9e, 0x3c, 0x25, 0x04, 0xaa, 0x2f, 0x02, 0x19,
  0x0d, 0xaf, 0x02, 0xd9, 0xf2, 0xf7, 0xf8, 0xd7, 0x9b, 0xd5, 0xae, 0x42,
  0x15, 0xed, 0xc3, 0x1a, 0x3f, 0x28, 0x04, 0x70, 0xe6, 0x85, 0xe1, 0xe7,
  0x47, 0x09, 0xb7, 0x0d, 0xc3, 0xef, 0xc3, 0x99, 0xd0, 0xeb, 0xc5, 0xfa,
  0xbb, 0x5e, 0x15, 0xef, 0xda, 0xc2, 0x26, 0xed, 0xd5, 0xcb, 0xfe, 0x11,
  0xcb, 0xff, 0x51, 0xc3, 0x2e, 0xce, 0xb0, 0x48, 0xed, 0x16, 0x1f, 0x2c,
  0x4f, 0xd4, 0x1a, 0xca, 0x4f, 0xe4, 0xfd, 0xca, 0xdb, 0x20, 0xfc, 0xa9,
  0xc6, 0xda, 0xb1, 0xd5, 0x40, 0x79, 0xd6, 0xba, 0x25, 0xd2, 0xf2, 0x05,
  0xb9, 0x29, 0xd9, 0xca, 0xb3, 0xe0, 0xf7, 0x0a, 0xf1, 0x19, 0xe1, 0xf9,
  0xcf, 0x2b, 0xfe, 0x4f, 0x02, 0xfe, 0xae, 0x2d, 0x21, 0xf9, 0xd8, 0xa0,
  0x43, 0x04, 0x1d, 0x15, 0x26, 0x11, 0x04, 0x9e, 0xb6, 0x2d, 0xdc, 0xa0,
  0x2c, 0xd4, 0x07, 0x00, 0x0c, 0x83, 0x9e, 0xdd, 0xe1, 0xc1, 0xac, 0xe9,
  0x41, 0xf5, 0xde, 0xd7, 0x9e, 0x2c, 0x46, 0x06, 0x26, 0x81, 0xb3, 0x14,
  0x06, 0xda, 0xd5, 0xb4, 0xe9, 0x3e, 0xc3, 0x2a, 0x3a, 0xc7, 0xe2, 0x0f,
  0xdb, 0x00, 0x6e, 0xc6, 0xb4, 0x6d, 0x1e, 0x28, 0xfb, 0xd4, 0x4e, 0xa6,
  0xac, 0xec, 0xc8, 0x21, 0xa3, 0x2d, 0x26, 0x42, 0x67, 0xd7, 0x38, 0x2b,
  0x30, 0x03, 0x2f, 0x00, 0xfb, 0xd2, 0xba, 0x3a, 0x0d, 0xec, 0x14, 0x17,
  0x86, 0x92, 0x9b, 0x4d, 0xf2, 0x25, 0x67, 0xce, 0xca, 0xf1, 0x20, 0xcc,
  0xc5, 0xd0, 0xec, 0x1b, 0x09, 0xe9, 0x44, 0xb5, 0x2d, 0x52, 0xcb, 0x31,
  0x33, 0x07, 0x2d, 0xd2, 0xa6, 0xfc, 0xe4, 0xfd, 0x18, 0x0a, 0x36, 0xb4,
  0xe8, 0x1e, 0x32, 0x08, 0xd3, 0xca, 0x0e, 0x58, 0xf2, 0xfc, 0x09, 0xdd,
  0xf7, 0x9f, 0xea, 0xec, 0xb5, 0x83, 0xa1, 0x1a, 0x71, 0xff, 0xa0, 0xe4,
  0x34, 0x05, 0xb2, 0x03, 0x6c, 0xa0, 0xa4, 0xeb, 0x69, 0x20, 0xbd, 0xe5,
  0xfb, 0x01, 0xfd, 0x06, 0xbe, 0x5e, 0x37, 0x0c, 0xe8, 0x15, 0xd7, 0x1a,
  0xfb, 0xd3, 0x04, 0x42, 0x81, 0x38, 0xf3, 0x67, 0x4a, 0xac, 0xcb, 0x07,
  0x21, 0xba, 0xae, 0x8b, 0x3b, 0x38, 0xcb, 0xfc, 0xfc, 0x06, 0xa9, 0x02,
  0xbe, 0x35, 0xfc, 0xb8, 0x9f, 0x14, 0xfe, 0xd1, 0xa6, 0xae, 0xe3, 0xef,
  0xc4, 0x4a, 0xe9, 0x4e, 0x3d, 0x8f, 0x1b, 0x33, 0xe7, 0x30, 0xe0, 0x15,
  0x33, 0x29, 0x1c, 0xb0, 0x03, 0x32, 0xa7, 0xc1, 0xd1, 0x59, 0x15, 0xcb,
  0x34, 0x02, 0x32, 0x1c, 0xbd, 0xaa, 0xdb, 0x50, 0x28, 0x2e, 0xa9, 0xd3,
  0xc5, 0x92, 0x51, 0xfe, 0xe9, 0xfc, 0x02, 0x39, 0x1e, 0xd2, 0x4c, 0xca,
  0x19, 0x31, 0xed, 0xe5, 0xd2, 0x12, 0x28, 0x2d, 0x45, 0xf7, 0x36, 0xff,
  0x1d, 0xdd, 0x28, 0xca, 0x4b, 0xf9, 0x0a, 0xf6, 0xd8, 0xfe, 0xe9, 0xc6,
  0xf9, 0x08, 0xe4, 0x1f, 0x14, 0xba, 0xff, 0xa6, 0x0c, 0x25, 0x34, 0xc7,
  0xee, 0x42, 0xe1, 0xdd, 0xb3, 0x4b, 0x29, 0xa7, 0x10, 0x18, 0xb5, 0xf5,
  0xe9, 0xd0, 0xdf, 0x46, 0x28, 0xfb, 0xfb, 0x20, 0xcf, 0x26, 0x16, 0x2e,
  0x05, 0x46, 0xd2, 0x2d, 0x20, 0x37, 0xdb, 0x36, 0xda, 0xe7, 0x25, 0x15,
  0x25, 0x1c, 0xe0, 0x1e, 0xc1, 0xc6, 0xdf, 0x17, 0xfa, 0xe8, 0xe4, 0x01,
  0x2a, 0xdd, 0x16, 0xe2, 0xcb, 0xaf, 0x06, 0xc0, 0xd6, 0xfb, 0x34, 0xf2,
  0x2f, 0x31, 0xdd, 0xcb, 0x23, 0x22, 0xd7, 0xd2, 0xf4, 0xfa, 0x30, 0x3d,
  0x04, 0x1d, 0xe3, 0x28, 0xd9, 0xe0, 0x11, 0x2c, 0xde, 0x9c, 0xf2, 0x40,
  0xea, 0x24, 0xce, 0x7f, 0xe6, 0x0a, 0x0c, 0xc0, 0xd2, 0xb5, 0xed, 0xfe,
  0xe7, 0xf5, 0xd7, 0x27, 0x26, 0xb7, 0xdb, 0x13, 0x13, 0xc7, 0xf3, 0xd0,
  0xde, 0xd6, 0xb9, 0x1f, 0x30, 0xef, 0xf5, 0xff, 0x32, 0xed, 0xee, 0x34,
  0xf1, 0xb4, 0x2e, 0x1e, 0x0b, 0x13, 0x1d, 0x88, 0x6e, 0x96, 0xe7, 0x19,
  0xd0, 0x1c, 0x6b, 0x5b, 0x47, 0xe9, 0x58, 0xdb, 0xcf, 0x04, 0x3b, 0x03,
  0x1b, 0xf7, 0x00, 0x28, 0x1e, 0x2e, 0x1c, 0xe8, 0x07, 0xb5, 0x27, 0xef,
  0x03, 0x19, 0x6d, 0xfe, 0xff, 0xc5, 0x13, 0x2e, 0xe3, 0x1c, 0x2d, 0x11,
  0x31, 0xea, 0x30, 0xb7, 0x25, 0xbf, 0x3f, 0x00, 0xd3, 0x20, 0xd9, 0xef,
  0xf1, 0xc8, 0x27, 0x22, 0xcc, 0x3d, 0xc8, 0x2c, 0xf0, 0xad, 0xba, 0xe5,
  0xfb, 0xee, 0xd3, 0xcf, 0xe8, 0xfb, 0x3d, 0x06, 0x0b, 0xe9, 0x05, 0x3c,
  0x05, 0xd7, 0xaa, 0xd1, 0xec, 0xf7, 0xcd, 0xd3, 0xf5, 0x37, 0xc7, 0x25,
  0xed, 0xd0, 0xe9, 0xfa, 0x11, 0xe5, 0xf0, 0x10, 0x1b, 0x24, 0x21, 0xd6,
  0x30, 0xe9, 0xe7, 0xf7, 0xf6, 0x0e, 0x31, 0x21, 0x33, 0x04, 0x63, 0xfe,
  0x4d, 0x2d, 0x24, 0x3a, 0xdd, 0xde, 0x08, 0x46, 0xf3, 0x10, 0x23, 0x04,
  0xfa, 0xde, 0xfd, 0xdb, 0x26, 0x00, 0x17, 0xbe, 0x05, 0x07, 0xe8, 0xf1,
  0xde, 0xdc, 0xdd, 0x08, 0x3a, 0xd0, 0xf5, 0xba, 0xd8, 0xa6, 0x2f, 0xd7,
  0x43, 0xf1, 0x02, 0xa6, 0xe4, 0x39, 0x16, 0xd6, 0xdb, 0x25, 0xde, 0x28,
  0xf7, 0xe1, 0xee, 0xd8, 0xd6, 0xe2, 0xf8, 0x05, 0xec, 0xf1, 0xe3, 0xbd,
  0x30, 0x2e, 0x34, 0x1a, 0xba, 0xf0, 0x3c, 0x45, 0x3f, 0xe8, 0x0a, 0xf4,
  0xfd, 0xf7, 0x0a, 0xc3, 0xf4, 0x1e, 0x1c, 0xe4, 0xd1, 0x54, 0x0c, 0xd6,
  0xfb, 0xca, 0x26, 0x19, 0xe3, 0x81, 0xf6, 0xee, 0x23, 0x22, 0x17, 0x0a,
  0xfb, 0xf7, 0x37, 0x0c, 0x3e, 0xdd, 0xd6, 0x20, 0x09, 0x05, 0xea, 0x09,
  0xdc, 0x00, 0x48, 0xab, 0x14, 0xdf, 0xe4, 0x29, 0x3f, 0x2f, 0x0d, 0x12,
  0x02, 0x58, 0xfa, 0xe1, 0xe5, 0xfc, 0x14, 0x28, 0x29, 0x1b, 0x26, 0x1e,
  0x58, 0xdc, 0xfd, 0x35, 0xe1, 0xed, 0xc4, 0xe0, 0x1f, 0xd2, 0xcf, 0xf0,
  0xc5, 0x2a, 0xb4, 0x1a, 0x3a, 0xc3, 0x04, 0xb9, 0x14, 0xd3, 0xc8, 0xe3,
  0x1c, 0x3f, 0xbd, 0xe9, 0x05, 0xd5, 0xc8, 0xd6, 0xc8, 0xcd, 0x19, 0x06,
  0xb9, 0xc8, 0xdb, 0xa3, 0xf1, 0x13, 0x13, 0xf4, 0xf5, 0xf4, 0xc0, 0xb7,
  0x08, 0xd5, 0x36, 0x18, 0xc8, 0xe6, 0xd0, 0x02, 0xf1, 0xf6, 0xcf, 0x2b,
  0xa8, 0xe7, 0x14, 0xd7, 0x1e, 0xd1, 0xf0, 0xdb, 0x06, 0x06, 0x18, 0xc9,
  0x3c, 0x2a, 0x08, 0xdb, 0x09, 0xce, 0x03, 0x30, 0x1e, 0xd5, 0xe6, 0xb3,
  0x0a, 0x00, 0x1a, 0xf2, 0xfa, 0x17, 0x05, 0xcc, 0x4c, 0xae, 0xdb, 0x00,
  0xf0, 0x46, 0x38, 0xf7, 0xdb, 0x0e, 0xff, 0xeb, 0x4b, 0x38, 0x15, 0xea,
  0x2a, 0x5d, 0x24, 0xda, 0xfb, 0x21, 0xf5, 0xdb, 0x26, 0xe6, 0x4f, 0x45,
  0x23, 0xed, 0xc7, 0x00, 0x24, 0xe9, 0xe5, 0xe2, 0xcf, 0x15, 0xc8, 0xee,
  0xfb, 0xcd, 0xe3, 0xf5, 0x13, 0x03, 0xd1, 0x3a, 0x11, 0x06, 0xc2, 0xd3,
  0xcf, 0xd5, 0x3f, 0x10, 0xdb, 0x4d, 0xf0, 0x20, 0x26, 0xd9, 0xe8, 0xdf,
  0x30, 0xe8, 0x35, 0x3e, 0x21, 0x19, 0x11, 0xfd, 0x3e, 0x2d, 0xe2, 0x37,
  0xe2, 0x22, 0x03, 0xfc, 0xf9, 0x00, 0x21, 0x18, 0xc2, 0x2a, 0x4d, 0x53,
  0xd1, 0x81, 0x06, 0xbf, 0x17, 0x3d, 0x4f, 0xf6, 0xec, 0x94, 0x46, 0xe9,
  0xf8, 0xed, 0xc2, 0x26, 0xcf, 0x06, 0xb8, 0xfd, 0xac, 0xb3, 0x9f, 0xce,
  0xa3, 0x08, 0xec, 0xbf, 0x17, 0xb2, 0x0d, 0xf8, 0xb0, 0xdb, 0xf2, 0xdc,
  0x11, 0xd1, 0xc3, 0xd8, 0xc8, 0xd4, 0xef, 0x91, 0x89, 0xb0, 0xbf, 0x9f,
  0xa5, 0x85, 0xd0, 0xcf, 0x6d, 0x16, 0xf8, 0xd2, 0xd5, 0xb3, 0xa2, 0xeb,
  0xbe, 0xc9, 0xec, 0xc7, 0xb8, 0x34, 0xd3, 0xd0, 0x21, 0xda, 0xf2, 0x3c,
  0x24, 0x15, 0x9d, 0x02, 0xfb, 0xea, 0xf7, 0x7f, 0x34, 0x87, 0xb8, 0xf7,
  0x0c, 0xf1, 0xee, 0xfc, 0x58, 0xf8, 0x30, 0x30, 0x20, 0xdf, 0x1f, 0xba,
  0x18, 0x20, 0xb3, 0xc5, 0x08, 0xcd, 0x02, 0xa1, 0x21, 0xf0, 0xcf, 0xea,
  0x00, 0x26, 0x3f, 0x27, 0xf6, 0x18, 0x0f, 0xc9, 0xe7, 0xff, 0x00, 0x56,
  0xd8, 0xa7, 0x37, 0xea, 0x12, 0xff, 0x08, 0x0f, 0x2b, 0x20, 0xb2, 0x23,
  0xb5, 0x5c, 0x2b, 0xfc, 0x1a, 0x9d, 0x19, 0x1d, 0x2f, 0xd7, 0xc4, 0xf6,
  0x05, 0x1f, 0x1c, 0x18, 0xe3, 0x11, 0xe2, 0x42, 0xdd, 0xd8, 0x2a, 0x9d,
  0x16, 0x0a, 0xfd, 0x32, 0x10, 0xf3, 0xd8, 0x40, 0xf0, 0x2b, 0x14, 0x2c,
  0x43, 0xf5, 0x9e, 0x45, 0x05, 0xe8, 0xe4, 0x24, 0xd9, 0xe3, 0xd6, 0xc3,
  0x39, 0x08, 0xff, 0xcc, 0x09, 0xf0, 0xb5, 0x15, 0x1a, 0xf3, 0xef, 0xf1,
  0xf1, 0x39, 0x09, 0xe1, 0x24, 0xc6, 0x30, 0x1c, 0xef, 0x1c, 0x46, 0x0c,
  0xec, 0xcd, 0x17, 0x15, 0x15, 0x20, 0xcf, 0x47, 0xaa, 0xec, 0xff, 0xff,
  0x04, 0x00, 0x00, 0x00, 0x20, 0x00, 0x00, 0x00, 0x64, 0x00, 0x00, 0x00,
  0xdd, 0xfd, 0xff, 0xff, 0x42, 0xff, 0xff, 0xff, 0x72, 0x00, 0x00, 0x00,
  0xd5, 0xfe, 0xff, 0xff, 0x37, 0x00, 0x00, 0x00, 0x55, 0x00, 0x00, 0x00,
  0x57, 0xfe, 0xff, 0xff, 0xd6, 0xec, 0xff, 0xff, 0x04, 0x00, 0x00, 0x00,
  0x08, 0x00, 0x00, 0x00, 0x67, 0x47, 0x7f, 0x73, 0x7b, 0x6a, 0x71, 0x6c,
  0xea, 0xec, 0xff, 0xff, 0x04, 0x00, 0x00, 0x00, 0x08, 0x00, 0x00, 0x00,
  0x90, 0xa2, 0xb0, 0xa1, 0xbe, 0xcb, 0xc1, 0x80, 0xfe, 0xec, 0xff, 0xff,
  0x04, 0x00, 0x00, 0x00, 0x40, 0x02, 0x00, 0x00, 0xe2, 0x17, 0x5d, 0xa8,
  0x47, 0xb3, 0x19, 0x8f, 0xff, 0x55, 0xef, 0xcd, 0x96, 0x5d, 0x13, 0x4c,
  0xb5, 0xec, 0x42, 0x40, 0xc3, 0xd2, 0xca, 0xcc, 0x3f, 0xdc, 0x31, 0xe8,
  0xbc, 0xf9, 0xff, 0x23, 0x23, 0xcf, 0x30, 0x0d, 0xf2, 0x31, 0x00, 0x44,
  0xba, 0xeb, 0x19, 0xb6, 0xf1, 0xc1, 0xa3, 0xe6, 0x37, 0x9e, 0x54, 0x81,
  0xbc, 0x8e, 0xb2, 0xdc, 0xf5, 0x47, 0x26, 0xbf, 0x03, 0xdf, 0x55, 0x4f,
  0xa9, 0x18, 0xe0, 0x67, 0xfa, 0xf2, 0xb0, 0x27, 0xa4, 0x4d, 0x01, 0x0b,
  0xf5, 0x61, 0xa7, 0x2a, 0x35, 0x72, 0xd4, 0xd8, 0xd9, 0x2f, 0xff, 0x4b,
  0x65, 0x08, 0x1f, 0xd9, 0x72, 0x8d, 0xf4, 0x50, 0x0b, 0x5a, 0xa2, 0x26,
  0xe8, 0x56, 0x54, 0xbb, 0xfa, 0xd7, 0xbf, 0xf7, 0x0e, 0xae, 0x58, 0xe2,
  0x04, 0xf7, 0x4a, 0xb8, 0x53, 0x2d, 0xc7, 0xff, 0xc1, 0x52, 0x2c, 0x46,
  0x46, 0x32, 0xb4, 0x3d, 0x08, 0x73, 0x9a, 0xe1, 0xd4, 0x07, 0xdc, 0x7f,
  0xc7, 0x0f, 0x46, 0xb2, 0x00, 0xe4, 0xf0, 0x65, 0x16, 0x3e, 0xd4, 0x26,
  0xc4, 0x1f, 0x08, 0x31, 0x0e, 0xc6, 0xff, 0x2e, 0xdb, 0xd8, 0xa0, 0x28,
  0x06, 0xd6, 0x23, 0xef, 0xa4, 0x1c, 0xb5, 0xa5, 0xc9, 0x43, 0xd7, 0xf7,
  0x38, 0xd4, 0xe8, 0xf6, 0x94, 0xc0, 0x0c, 0x9d, 0x22, 0x68, 0x75, 0x88,
  0x43, 0x79, 0x81, 0x63, 0xfa, 0xe0, 0xbb, 0x2b, 0x22, 0xd9, 0x35, 0xa1,
  0x22, 0x1a, 0xb0, 0x22, 0xfa, 0x48, 0x56, 0xf4, 0xa4, 0x03, 0x4f, 0xf5,
  0x01, 0xb0, 0xb2, 0xf1, 0x46, 0x32, 0xa4, 0xc1, 0xb4, 0x2f, 0xf5, 0x12,
  0xe7, 0xe9, 0x11, 0xdf, 0x3f, 0xc1, 0x32, 0x0f, 0xd2, 0xb5, 0x56, 0x27,
  0xd7, 0x19, 0xc3, 0xf8, 0x0d, 0xd4, 0xcb, 0xa7, 0xfe, 0xdb, 0xff, 0x2d,
  0xf3, 0x25, 0xdc, 0x2e, 0x28, 0xed, 0xcf, 0xf4, 0x23, 0xde, 0x0f, 0xce,
  0xa9, 0xa7, 0x28, 0x00, 0x47, 0x28, 0xbd, 0x12, 0x1a, 0x2c, 0xec, 0x51,
  0x06, 0xf4, 0xc4, 0x1c, 0x1d, 0x9d, 0x27, 0x45, 0xb5, 0xbc, 0x55, 0x11,
  0x44, 0x26, 0xdf, 0x0c, 0x2d, 0xdb, 0x81, 0xf5, 0x13, 0x1e, 0x41, 0x24,
  0xed, 0xd0, 0x3c, 0xd3, 0x32, 0x44, 0x00, 0xf3, 0x1f, 0xce, 0x25, 0xee,
  0xa1, 0xee, 0xf2, 0x26, 0xbc, 0x02, 0x12, 0x06, 0xd9, 0xb8, 0xc4, 0xca,
  0x24, 0x44, 0xec, 0x4c, 0xc7, 0xb2, 0x7f, 0xf2, 0xce, 0x59, 0x1d, 0xc6,
  0x0e, 0x27, 0x86, 0x11, 0x17, 0xbb, 0x10, 0x5b, 0xdc, 0x14, 0xaf, 0x3c,
  0xe2, 0xb1, 0x0f, 0x3c, 0xd8, 0x9c, 0x3a, 0xd4, 0xf4, 0xe5, 0x3b, 0xcf,
  0x0b, 0x01, 0xe0, 0x1c, 0xf4, 0xc2, 0x14, 0x38, 0xbb, 0xf6, 0xee, 0x73,
  0x3e, 0x20, 0x19, 0xf2, 0xab, 0x20, 0xef, 0xb8, 0x00, 0x1e, 0x31, 0xd4,
  0x74, 0xe6, 0xff, 0xbc, 0x50, 0xf9, 0xf8, 0x2d, 0xea, 0xcd, 0xd4, 0xe2,
  0x45, 0x26, 0x08, 0x21, 0x37, 0xd0, 0xaa, 0xda, 0x34, 0xe5, 0xf5, 0xf0,
  0xc6, 0x9d, 0xf6, 0xca, 0x1f, 0x52, 0xff, 0x02, 0xb5, 0xf7, 0x06, 0x5e,
  0x2c, 0x46, 0xf6, 0x81, 0x36, 0xd1, 0xdd, 0xb9, 0xb2, 0x33, 0x4f, 0x0e,
  0xc2, 0x96, 0x0d, 0x3b, 0xf4, 0xb4, 0x14, 0xb9, 0xbf, 0xee, 0xe4, 0x99,
  0xfc, 0xbb, 0xb7, 0xb6, 0xb7, 0x1b, 0x3e, 0x79, 0xe6, 0xd4, 0x15, 0x18,
  0xa3, 0xa6, 0xda, 0x09, 0xe6, 0x5d, 0xfb, 0x33, 0xff, 0x81, 0xbf, 0xd0,
  0xd1, 0x87, 0x33, 0xce, 0xb0, 0xe7, 0x3c, 0x08, 0xe1, 0x02, 0x9e, 0x6c,
  0x20, 0xb4, 0xc3, 0xda, 0xe9, 0x07, 0x15, 0x15, 0x0c, 0xdd, 0x35, 0xbb,
  0x05, 0xf5, 0x06, 0x2c, 0xd4, 0xde, 0x52, 0x4d, 0xf6, 0xb4, 0x2b, 0x44,
  0x00, 0xd3, 0x4d, 0xdb, 0xb8, 0xfb, 0xa2, 0xf8, 0xe3, 0xee, 0x38, 0x10,
  0x52, 0x26, 0x2b, 0x3e, 0xcc, 0x2a, 0x30, 0x4b, 0x4b, 0xaf, 0xfb, 0x16,
  0xf9, 0x2c, 0xdf, 0xe6, 0xe8, 0x10, 0xf3, 0xc1, 0xed, 0x44, 0x07, 0xcb,
  0x4b, 0xe3, 0xef, 0xa5, 0x2c, 0x33, 0x03, 0x3e, 0x30, 0xba, 0xcc, 0x25,
  0xb3, 0x11, 0xbd, 0x0d, 0xdc, 0x13, 0x35, 0x16, 0xf3, 0x2f, 0x17, 0xe2,
  0xee, 0x12, 0xaa, 0x13, 0x0d, 0xf0, 0x30, 0xd6, 0xab, 0x08, 0xe8, 0x0e,
  0xb4, 0x7f, 0xbf, 0x09, 0xfc, 0x20, 0x13, 0xf1, 0x4a, 0xef, 0xff, 0xff,
  0x04, 0x00, 0x00, 0x00, 0x20, 0x00, 0x00, 0x00, 0xea, 0xff, 0xff, 0xff,
  0x92, 0xfd, 0xff, 0xff, 0xc9, 0xfe, 0xff, 0xff, 0x3a, 0xff, 0xff, 0xff,
  0xf4, 0xff, 0xff, 0xff, 0x04, 0x00, 0x00, 0x00, 0x15, 0xff, 0xff, 0xff,
  0x65, 0xfe, 0xff, 0xff, 0x76, 0xef, 0xff, 0xff, 0x04, 0x00, 0x00, 0x00,
  0x08, 0x00, 0x00, 0x00, 0x60, 0xe4, 0x7f, 0x5e, 0x2b, 0x1b, 0x48, 0x08,
  0x8a, 0xef, 0xff, 0xff, 0x04, 0x00, 0x00, 0x00, 0x08, 0x00, 0x00, 0x00,
  0xca, 0x94, 0x02, 0xb8, 0xd6, 0xd5, 0x80, 0xe7, 0x9e, 0xef, 0xff, 0xff,
  0x04, 0x00, 0x00, 0x00, 0x88, 0x01, 0x00, 0x00, 0x2e, 0xa8, 0x39, 0x6a,
  0x54, 0x20, 0xcf, 0x04, 0x33, 0x5f, 0x09, 0xe0, 0x2a, 0xc2, 0xc1, 0xba,
  0xc6, 0xd3, 0xcd, 0xd4, 0xea, 0xdd, 0xbc, 0xb6, 0x33, 0x40, 0x09, 0xaa,
  0x81, 0xf0, 0xeb, 0x2b, 0x5e, 0xd2, 0x83, 0xfc, 0x1f, 0x25, 0xe7, 0x93,
  0xa9, 0xa0, 0x35, 0x19, 0x44, 0xbb, 0xf8, 0x94, 0xed, 0x0e, 0xb5, 0x01,
  0xca, 0x4d, 0x36, 0xe1, 0xfc, 0x30, 0x06, 0xc2, 0xe3, 0x9c, 0xd7, 0x49,
  0xfa, 0x16, 0x23, 0x32, 0x81, 0x17, 0xd6, 0x14, 0xcd, 0x31, 0xe5, 0x45,
  0x15, 0xea, 0xc0, 0x11, 0xd3, 0x34, 0x0a, 0xf0, 0xb4, 0xfa, 0x38, 0xf7,
  0x38, 0x5c, 0xe7, 0xeb, 0xd6, 0xf5, 0xd8, 0xbb, 0x01, 0x22, 0x1a, 0xfa,
  0x35, 0x8e, 0xf8, 0x50, 0x34, 0xa1, 0x45, 0xf9, 0xa1, 0x3d, 0xf4, 0x1b,
  0x36, 0x00, 0x40, 0x0b, 0xf7, 0x1f, 0x02, 0x81, 0xc6, 0x15, 0xe2, 0xf6,
  0x4f, 0x15, 0x17, 0xfd, 0x11, 0xdc, 0x20, 0xc4, 0x93, 0xae, 0x27, 0x2f,
  0x21, 0xdc, 0x14, 0x4e, 0xfa, 0xdf, 0xef, 0xaa, 0x02, 0xc2, 0xcf, 0x36,
  0x4e, 0x25, 0xa7, 0xe6, 0xbe, 0x94, 0xa1, 0x1e, 0x77, 0xbb, 0x18, 0xed,
  0x46, 0xe3, 0xf7, 0x59, 0xb1, 0x1b, 0x17, 0x69, 0x81, 0xa3, 0xf7, 0x4e,
  0x0a, 0xe3, 0xef, 0xcc, 0xdb, 0x8d, 0x00, 0x00, 0x5a, 0x0f, 0xfe, 0x34,
  0xde, 0x62, 0xa1, 0x14, 0x3c, 0xde, 0xec, 0x0b, 0x24, 0x64, 0xcd, 0xbf,
  0x3d, 0x52, 0x1a, 0xe4, 0xc6, 0xd0, 0xf0, 0x45, 0x94, 0xdc, 0x4d, 0xa2,
  0xd2, 0xea, 0x4b, 0x03, 0x09, 0xfe, 0x58, 0xe2, 0x1e, 0xec, 0x16, 0xf6,
  0xfc, 0xe7, 0xe8, 0xbb, 0xb7, 0x5c, 0x3b, 0x12, 0x25, 0x4b, 0xaa, 0x38,
  0x27, 0x4e, 0xa5, 0xde, 0x41, 0xdf, 0x81, 0xc8, 0x0b, 0xe1, 0x25, 0x2c,
  0x15, 0x1d, 0xb9, 0x2c, 0x0e, 0xda, 0x35, 0xee, 0x2f, 0x13, 0xa9, 0xf9,
  0x11, 0x68, 0xc0, 0x04, 0xc7, 0x43, 0xfc, 0xca, 0x32, 0x28, 0x05, 0xae,
  0x54, 0x2b, 0x06, 0xe4, 0xc7, 0x26, 0x11, 0x27, 0xe9, 0xce, 0x45, 0xa8,
  0xcc, 0x26, 0xe8, 0xa3, 0x04, 0x13, 0x32, 0x81, 0xfe, 0x4b, 0xff, 0xf3,
  0xc7, 0x36, 0xef, 0x60, 0xad, 0xa9, 0x55, 0x3c, 0x36, 0x17, 0xb7, 0xc4,
  0xeb, 0x36, 0x3d, 0xf7, 0xf0, 0x48, 0xe8, 0xc8, 0x81, 0xc6, 0xd0, 0xeb,
  0x23, 0x22, 0xae, 0xb5, 0x4a, 0x2c, 0xc5, 0x61, 0xf9, 0x13, 0x0f, 0x7c,
  0xe2, 0xc1, 0x62, 0xd1, 0x02, 0xee, 0x5b, 0x15, 0x38, 0xfe, 0x03, 0xa1,
  0x1c, 0xd3, 0xd0, 0x85, 0x0d, 0x5e, 0x08, 0xc4, 0xc3, 0x0b, 0x7f, 0x95,
  0xd1, 0xdb, 0xd5, 0xff, 0x06, 0x20, 0xb2, 0x0c, 0xf6, 0x19, 0xbd, 0xe5,
  0xfd, 0xce, 0x1d, 0x6e, 0x9a, 0xca, 0xda, 0x32, 0x1d, 0xb7, 0x40, 0xb1,
  0xcb, 0xe6, 0x13, 0x37, 0x90, 0x10, 0x1d, 0xe5, 0xb7, 0x48, 0xd2, 0x34,
  0x5d, 0xd0, 0xf2, 0xb2, 0x32, 0xf1, 0xff, 0xff, 0x04, 0x00, 0x00, 0x00,
  0x20, 0x00, 0x00, 0x00, 0xbc, 0x00, 0x00, 0x00, 0xf4, 0xff, 0xff, 0xff,
  0x88, 0xff, 0xff, 0xff, 0x87, 0xff, 0xff, 0xff, 0x6c, 0x00, 0x00, 0x00,
  0x09, 0x00, 0x00, 0x00, 0xe3, 0xff, 0xff, 0xff, 0x0c, 0x00, 0x00, 0x00,
  0x5e, 0xf1, 0xff, 0xff, 0x04, 0x00, 0x00, 0x00, 0x08, 0x00, 0x00, 0x00,
  0x02, 0x3f, 0x29, 0x18, 0xfb, 0x5a, 0x26, 0x7f, 0x72, 0xf1, 0xff, 0xff,
  0x04, 0x00, 0x00, 0x00, 0x08, 0x00, 0x00, 0x00, 0xff, 0x92, 0xce, 0x80,
  0x91, 0xbe, 0x93, 0xda, 0x86, 0xf1, 0xff, 0xff, 0x04, 0x00, 0x00, 0x00,
  0x40, 0x06, 0x00, 0x00, 0x55, 0xff, 0x3d, 0xdb, 0xee, 0x2a, 0x01, 0x1a,
  0xfa, 0x12, 0xd6, 0xdb, 0x2c, 0x20, 0x4d, 0x12, 0x4c, 0x01, 0x47, 0x48,
  0xbb, 0xd2, 0x0a, 0x96, 0xd5, 0x26, 0xe3, 0xc7, 0x5c, 0x32, 0xb3, 0x38,
  0xed, 0x3b, 0xde, 0xd2, 0xf5, 0x1c, 0x47, 0xd9, 0x3e, 0xc0, 0xb9, 0x2f,
  0x23, 0x02, 0xdf, 0x21, 0x6d, 0x28, 0x14, 0x04, 0xbe, 0x7b, 0xc2, 0xf9,
  0x2e, 0xb1, 0xc5, 0x22, 0x35, 0xa8, 0x7e, 0x35, 0x2b, 0xb9, 0xe8, 0x42,
  0x50, 0x16, 0x09, 0xf7, 0xff, 0x51, 0xcf, 0x55, 0x06, 0x2f, 0x30, 0x22,
  0x23, 0xdd, 0x4a, 0xbe, 0xe9, 0x32, 0xf9, 0xd5, 0x3e, 0x0c, 0x4a, 0x32,
  0xf2, 0x0c, 0xda, 0xcb, 0xc4, 0xd7, 0x07, 0x25, 0x3e, 0x4c, 0x3b, 0xfc,
  0xae, 0x2b, 0x0c, 0xcf, 0xe7, 0xd9, 0xca, 0x05, 0xbd, 0xf6, 0xe5, 0x08,
  0xb2, 0x2f, 0xdf, 0x04, 0x1b, 0x2e, 0xf4, 0x2d, 0x39, 0x24, 0xe0, 0x42,
  0xe4, 0x0e, 0x4c, 0xa9, 0x0c, 0x65, 0xfe, 0x3a, 0xed, 0xf0, 0x2d, 0xd1,
  0x37, 0xd0, 0xe4, 0xac, 0x19, 0xdc, 0x12, 0xeb, 0xf9, 0xf5, 0xf7, 0xa4,
  0xdd, 0x0f, 0xf0, 0xe7, 0xc5, 0x7f, 0xff, 0x43, 0x1e, 0xc4, 0xe2, 0x1e,
  0xeb, 0xac, 0xa6, 0xbb, 0xe2, 0xc0, 0x0d, 0x3f, 0x08, 0x21, 0x33, 0x48,
  0xf8, 0x17, 0xe1, 0x3a, 0xee, 0xde, 0xec, 0x12, 0xc9, 0xe5, 0x50, 0xf3,
  0x0b, 0xcf, 0x20, 0x35, 0xff, 0xb2, 0xd4, 0xe9, 0x26, 0x68, 0xe2, 0xe5,
  0x17, 0x77, 0xff, 0xe4, 0x30, 0x02, 0x10, 0xd8, 0x8c, 0xbb, 0xd9, 0xd7,
  0x37, 0x3d, 0xc9, 0xca, 0xd0, 0xc9, 0x3c, 0xff, 0xee, 0xdd, 0xe3, 0x66,
  0xf8, 0xe7, 0xe0, 0x07, 0xf3, 0x18, 0xd1, 0xee, 0xeb, 0xe5, 0xec, 0xe7,
  0xfc, 0xe0, 0x91, 0xad, 0x33, 0xe4, 0x12, 0xdb, 0xda, 0xd1, 0x0b, 0x5f,
  0x43, 0x09, 0x2f, 0xb7, 0x00, 0x1d, 0xaf, 0xee, 0x19, 0xff, 0x4b, 0xf6,
  0x6c, 0xe9, 0xa6, 0x2e, 0xe3, 0xd9, 0x4e, 0xc2, 0x06, 0x1d, 0xde, 0xf7,
  0xa9, 0x2b, 0x2c, 0x26, 0x0b, 0x10, 0xe3, 0xb9, 0x19, 0xe7, 0xaf, 0x24,
  0x15, 0xe7, 0x04, 0x3b, 0x35, 0xeb, 0xe3, 0x07, 0xd6, 0xfc, 0x03, 0xa8,
  0xc2, 0xed, 0x24, 0x1b, 0x62, 0x20, 0x1b, 0xef, 0x46, 0xcc, 0xde, 0xfe,
  0xf4, 0x97, 0x72, 0x1a, 0x1a, 0x30, 0xc6, 0xf3, 0x63, 0x0a, 0x34, 0xa7,
  0x0d, 0xce, 0x12, 0x1d, 0xe5, 0x18, 0x2f, 0x13, 0x2f, 0xd8, 0xce, 0x61,
  0xf6, 0xf1, 0x0a, 0x31, 0x29, 0x1f, 0x2d, 0xed, 0xca, 0x56, 0xa4, 0x00,
  0xae, 0xc3, 0x23, 0xc0, 0xcc, 0xc5, 0x07, 0xdb, 0xd2, 0x45, 0x7d, 0xec,
  0x32, 0x41, 0xe9, 0x36, 0x0d, 0x59, 0x16, 0x06, 0xf4, 0x20, 0xdf, 0xfc,
  0x0b, 0xb7, 0xe1, 0xe3, 0xb5, 0xf4, 0xde, 0xff, 0x3b, 0xb3, 0x18, 0x46,
  0xcf, 0x1f, 0xfd, 0xef, 0x0c, 0xa8, 0x40, 0x32, 0x0d, 0x00, 0xf8, 0x81,
  0x16, 0xca, 0xde, 0x12, 0x2b, 0xfc, 0xed, 0x14, 0x23, 0x1e, 0xc7, 0x1e,
  0xba, 0xb4, 0x1c, 0xe0, 0x0d, 0x2a, 0x8d, 0x07, 0x95, 0x08, 0xfb, 0x4b,
  0x54, 0x2b, 0xf9, 0x11, 0xd6, 0xdf, 0x1d, 0xe3, 0xf2, 0xfd, 0xf2, 0xb3,
  0xd7, 0xf5, 0x10, 0xd7, 0x16, 0xe7, 0xf4, 0xf4, 0xdb, 0xc1, 0xdb, 0xd9,
  0xce, 0x4a, 0x15, 0xd9, 0x03, 0xc3, 0xd9, 0xd9, 0xf6, 0xc8, 0xe1, 0x02,
  0x33, 0xe8, 0xa8, 0xda, 0x4f, 0x90, 0x0a, 0xbc, 0xfe, 0x47, 0x9f, 0xb4,
  0x30, 0x2c, 0xf3, 0xd1, 0xbe, 0xd5, 0xe2, 0xb0, 0xbc, 0x20, 0x2d, 0x0f,
  0xe9, 0x11, 0xc6, 0xd1, 0xbc, 0xd1, 0xd5, 0x00, 0xf5, 0x01, 0xe6, 0x1f,
  0x2c, 0x45, 0xbb, 0xe6, 0x37, 0xde, 0x38, 0xd7, 0xb7, 0xa8, 0x08, 0xbe,
  0xc8, 0x0e, 0xd6, 0xe6, 0xf8, 0xa7, 0xcf, 0x02, 0x22, 0xd3, 0x25, 0xbf,
  0xe6, 0x13, 0x1a, 0xea, 0xfc, 0x5e, 0x41, 0xd9, 0x0d, 0xb3, 0x14, 0x06,
  0x9f, 0xab, 0xc8, 0xe6, 0x54, 0x6c, 0xce, 0xf6, 0xff, 0xe7, 0xca, 0x6d,
  0x18, 0x1e, 0x0a, 0x50, 0x2b, 0x0b, 0x02, 0xbc, 0xf8, 0xc6, 0x02, 0xf4,
  0x12, 0x0f, 0x22, 0x0e, 0x2a, 0x52, 0xf5, 0x00, 0x11, 0xf3, 0x44, 0xb8,
  0xed, 0x35, 0x23, 0xab, 0x3f, 0xae, 0x7f, 0x33, 0x2d, 0x25, 0x3b, 0xe7,
  0x6e, 0x6f, 0xd8, 0x3e, 0xc5, 0x9e, 0x34, 0x4e, 0xfa, 0x24, 0x16, 0xbb,
  0x36, 0x16, 0x05, 0x0e, 0xe5, 0xe6, 0x5f, 0xc3, 0x5b, 0x0e, 0x11, 0x47,
  0x08, 0xf4, 0xd6, 0x02, 0xde, 0xd1, 0x26, 0x2a, 0xfb, 0xcc, 0x30, 0xda,
  0xe7, 0xce, 0xe9, 0x34, 0x29, 0xa8, 0xdd, 0x05, 0x45, 0x58, 0xea, 0xa9,
  0x0d, 0xf9, 0x16, 0xcb, 0x39, 0x3b, 0xee, 0x69, 0x19, 0x9b, 0x46, 0x56,
  0x1a, 0xee, 0x4b, 0xc0, 0xea, 0x21, 0x48, 0x48, 0x15, 0xd0, 0x02, 0x02,
  0x02, 0x3e, 0x34, 0xbb, 0x29, 0xda, 0xb4, 0xf1, 0xd8, 0xd1, 0x09, 0x27,
  0x6e, 0x59, 0x3c, 0xe8, 0xb4, 0xb0, 0xfa, 0xf7, 0xf6, 0x10, 0xf1, 0xd1,
  0x6b, 0xfc, 0xd5, 0xf8, 0x11, 0xad, 0x08, 0x15, 0x1c, 0x24, 0x37, 0x24,
  0xf2, 0x57, 0xc0, 0xef, 0x95, 0xe7, 0xd0, 0xbf, 0xc9, 0x14, 0x10, 0xfe,
  0xea, 0x04, 0x07, 0x11, 0xe0, 0x59, 0xae, 0x2a, 0xd8, 0xcf, 0x11, 0x43,
  0x20, 0x0d, 0xd1, 0x4e, 0xd3, 0xbb, 0xe6, 0x55, 0xf0, 0xca, 0x6b, 0x0f,
  0xd5, 0xe3, 0xd8, 0xcc, 0xd8, 0x42, 0xcd, 0x5d, 0xb7, 0xfa, 0x05, 0x59,
  0x03, 0x09, 0xf2, 0xa2, 0x10, 0xbc, 0x05, 0x00, 0x49, 0x51, 0x1d, 0xe9,
  0x01, 0x10, 0x5c, 0xa9, 0xf8, 0xda, 0x10, 0x32, 0xfb, 0xfa, 0x90, 0x0d,
  0x0b, 0x40, 0x35, 0xe0, 0xee, 0xde, 0x06, 0x04, 0x07, 0xd6, 0x05, 0x11,
  0xc2, 0xe2, 0x16, 0xb1, 0xbe, 0xef, 0x2d, 0xb9, 0x0f, 0x51, 0x22, 0xd0,
  0x0f, 0xd6, 0x2a, 0xea, 0x1f, 0xf1, 0x2e, 0x0e, 0x40, 0x52, 0xc6, 0x08,
  0x01, 0xde, 0xba, 0x1c, 0xf9, 0x81, 0x01, 0x33, 0x24, 0x3a, 0xf3, 0x51,
  0xb7, 0xfc, 0x47, 0xe3, 0x33, 0x12, 0x22, 0xc8, 0xf3, 0xc9, 0xcf, 0x88,
  0xf1, 0xd2, 0x0c, 0xed, 0x3c, 0xda, 0x03, 0xe8, 0xe9, 0x49, 0xa8, 0x05,
  0xb7, 0x92, 0xe5, 0xb4, 0x2d, 0x0b, 0xdc, 0xa4, 0x50, 0x42, 0x10, 0xe8,
  0x08, 0x46, 0x1b, 0xe0, 0x35, 0xf6, 0xe5, 0x2f, 0xd9, 0x3d, 0x0c, 0xca,
  0x33, 0xf6, 0x20, 0xd9, 0x0e, 0xd4, 0x24, 0x0f, 0x35, 0x05, 0xe7, 0xcd,
  0xe3, 0xd2, 0x09, 0xec, 0xce, 0x0a, 0xfc, 0x3b, 0x40, 0xe2, 0xae, 0x1a,
  0x38, 0x2a, 0x24, 0x1c, 0xd4, 0x1c, 0x45, 0xf5, 0x34, 0x63, 0x4c, 0x0e,
  0xc4, 0x3f, 0x04, 0x49, 0x24, 0x06, 0xe9, 0x37, 0x47, 0x25, 0x19, 0x10,
  0x06, 0x10, 0x13, 0x00, 0x3c, 0x2b, 0xa3, 0x3f, 0xf8, 0xce, 0xf3, 0xfc,
  0xce, 0xb3, 0x13, 0xef, 0xb1, 0xc4, 0xda, 0x70, 0xf6, 0xd8, 0x4c, 0x08,
  0xd8, 0xe4, 0xee, 0x25, 0xca, 0x4e, 0x7f, 0x14, 0x01, 0xec, 0x10, 0x23,
  0x3b, 0x6e, 0x1b, 0x35, 0xeb, 0xc4, 0x15, 0xdd, 0xcc, 0x11, 0xbb, 0xd1,
  0x1c, 0xf4, 0xcb, 0x8a, 0xd7, 0xb0, 0x24, 0x29, 0xdc, 0xd5, 0x71, 0x14,
  0xe4, 0xca, 0x11, 0x1c, 0xf3, 0x03, 0x43, 0xeb, 0xd8, 0x0c, 0xda, 0x04,
  0xa4, 0x22, 0x17, 0xd9, 0x0f, 0xff, 0xe4, 0xf8, 0x4d, 0xb0, 0xbd, 0xbe,
  0xfa, 0xbb, 0xc2, 0x0c, 0xcc, 0xe9, 0x4c, 0xc0, 0x06, 0x1b, 0x22, 0xf1,
  0xde, 0x4e, 0x0b, 0xf2, 0x3f, 0xf0, 0x39, 0xf2, 0x0a, 0xf4, 0x20, 0x2a,
  0x07, 0x48, 0x2f, 0xd2, 0x0a, 0x33, 0xf3, 0x37, 0xd7, 0x0e, 0x1e, 0x1f,
  0xfb, 0x3e, 0x35, 0x08, 0x45, 0xd6, 0xdc, 0xbc, 0x1e, 0x3b, 0xee, 0x24,
  0xec, 0x14, 0x03, 0x06, 0x0d, 0xf4, 0x26, 0xd6, 0x10, 0xbe, 0xfc, 0x1c,
  0x0e, 0x30, 0x15, 0x01, 0x10, 0x0a, 0x43, 0x17, 0x0b, 0xd0, 0x3a, 0x18,
  0x23, 0xe7, 0xf0, 0x33, 0xd7, 0xd3, 0xda, 0x08, 0x12, 0x12, 0xda, 0xef,
  0x0b, 0x2f, 0xff, 0xd6, 0x03, 0xce, 0xff, 0x0a, 0xe2, 0xb3, 0xd4, 0x24,
  0xc4, 0x1d, 0x18, 0xdb, 0xfd, 0x10, 0x40, 0xec, 0xf1, 0x09, 0x25, 0xde,
  0xe5, 0xf8, 0x1d, 0x1e, 0x44, 0x2c, 0x2f, 0xf3, 0x0e, 0xf8, 0x27, 0x41,
  0x35, 0xda, 0xca, 0x20, 0xd1, 0x18, 0xd7, 0xee, 0x1d, 0xcf, 0x1d, 0x17,
  0x18, 0xe0, 0x0a, 0xe9, 0xe0, 0xd5, 0x15, 0xe1, 0xc0, 0x03, 0x1a, 0xf6,
  0x42, 0xdc, 0x10, 0x81, 0xcc, 0x4e, 0xe9, 0x45, 0x14, 0x16, 0x03, 0xf7,
  0xd0, 0xd4, 0x98, 0xdb, 0xc6, 0xdf, 0x0c, 0x2a, 0x0d, 0x25, 0xbe, 0x09,
  0x22, 0x0e, 0xde, 0xd9, 0x20, 0xec, 0xe9, 0x9b, 0xa6, 0xd7, 0xdf, 0xef,
  0xfc, 0x3f, 0xfd, 0xdd, 0xe0, 0xdb, 0x00, 0xcf, 0xc2, 0xd5, 0x19, 0x0b,
  0x41, 0xed, 0xeb, 0x20, 0xfc, 0x21, 0x0e, 0xe8, 0x54, 0x37, 0xf6, 0x26,
  0x2b, 0xba, 0x22, 0x44, 0xf6, 0x16, 0x3e, 0xd4, 0xf0, 0xe7, 0x1c, 0x09,
  0xd4, 0x06, 0xc5, 0x30, 0xca, 0x14, 0x2f, 0x0c, 0x1e, 0xe1, 0xd8, 0x11,
  0x3d, 0xa0, 0xf8, 0xcd, 0xfd, 0x07, 0xa1, 0xe2, 0xc2, 0x08, 0x1b, 0xe6,
  0x24, 0x0b, 0x2e, 0xbc, 0x2e, 0xd3, 0x15, 0x1c, 0x2a, 0x0b, 0xeb, 0xf3,
  0xed, 0x3e, 0xc2, 0xf5, 0x0e, 0xb6, 0x4b, 0xbb, 0x2e, 0xc9, 0x31, 0xf8,
  0xba, 0x32, 0x20, 0xe1, 0x17, 0x2f, 0xcb, 0x0e, 0x2a, 0xfd, 0xf5, 0x27,
  0xbb, 0xb3, 0x48, 0x1b, 0x12, 0xd3, 0x36, 0xde, 0xd5, 0xff, 0xc5, 0xb3,
  0xb9, 0x55, 0x20, 0xd4, 0xa0, 0x45, 0xb0, 0x07, 0xe6, 0x07, 0x06, 0x0c,
  0x1b, 0x36, 0xe4, 0xfa, 0x01, 0x0f, 0xea, 0x04, 0x17, 0x15, 0xbb, 0xfa,
  0x04, 0xff, 0x05, 0x02, 0x06, 0x06, 0xff, 0x7f, 0x0f, 0xc1, 0x0a, 0xc3,
  0xac, 0xe8, 0xd4, 0xf6, 0xb7, 0xc5, 0x1b, 0xd4, 0xc0, 0xdc, 0x0e, 0x2e,
  0xc5, 0x20, 0x13, 0xe9, 0x01, 0xf0, 0xed, 0x30, 0x40, 0x30, 0xb0, 0xe0,
  0xee, 0xcf, 0xaf, 0xdc, 0x11, 0xe3, 0x23, 0x20, 0xe6, 0x0d, 0x60, 0xc4,
  0xbc, 0xfd, 0x41, 0x35, 0xf9, 0x3a, 0x4d, 0xda, 0xbb, 0x18, 0x24, 0xee,
  0x4c, 0xf5, 0xd3, 0x35, 0xdb, 0x4a, 0x1d, 0xed, 0x10, 0xf1, 0x28, 0x4f,
  0xf6, 0x5b, 0x8c, 0x25, 0x15, 0xde, 0x20, 0xda, 0x26, 0x0d, 0x2f, 0x4a,
  0x04, 0x1d, 0xc3, 0xc9, 0x25, 0xbe, 0xff, 0x07, 0x26, 0x17, 0x0b, 0x32,
  0x3c, 0x07, 0x14, 0xed, 0x1b, 0x17, 0xce, 0x3e, 0xe7, 0x5e, 0x5f, 0x04,
  0x01, 0xfe, 0xfc, 0x1e, 0x2c, 0x0b, 0x14, 0x2a, 0xb9, 0x98, 0xe5, 0xcd,
  0xe3, 0x2c, 0x3d, 0x1c, 0x37, 0xcc, 0x2a, 0x25, 0xc9, 0x2c, 0x2a, 0xd0,
  0xcc, 0xb3, 0x0a, 0x02, 0xce, 0xcc, 0x9a, 0xfa, 0xef, 0xfa, 0xf2, 0xde,
  0xd5, 0x1e, 0xc2, 0x0c, 0x0a, 0xbb, 0xfc, 0x7f, 0xf9, 0x23, 0x0d, 0xfa,
  0xcc, 0x32, 0x1d, 0xe3, 0x26, 0x33, 0x44, 0x1d, 0x30, 0x00, 0x18, 0xd8,
  0xe1, 0x19, 0xe7, 0x04, 0xd4, 0xd2, 0xc7, 0x12, 0xd4, 0x2a, 0xaa, 0x0a,
  0x40, 0x17, 0xde, 0xd4, 0xda, 0x0a, 0xc1, 0x26, 0xd8, 0x13, 0xf2, 0x45,
  0x26, 0x25, 0xd1, 0x12, 0xf1, 0x2a, 0xf0, 0x33, 0x2d, 0xce, 0x1b, 0x33,
  0x27, 0xc1, 0x14, 0xf0, 0xdf, 0x0e, 0x1e, 0x03, 0xf3, 0x1a, 0xc0, 0xf6,
  0xcd, 0x14, 0xb8, 0x1d, 0xa9, 0x07, 0xb7, 0x1a, 0x10, 0xcd, 0x10, 0x2f,
  0xc6, 0x02, 0xf8, 0x52, 0xf6, 0x0c, 0x1c, 0xf1, 0xe1, 0x07, 0xfd, 0x16,
  0xcf, 0x18, 0x25, 0x72, 0xea, 0x2c, 0xd5, 0x20, 0xd6, 0x49, 0xe1, 0x24,
  0x2f, 0xa3, 0xf1, 0x1b, 0x0f, 0x45, 0xcd, 0xf6, 0x11, 0xf5, 0xb8, 0xdd,
  0xf9, 0xbf, 0xdc, 0x14, 0xdf, 0x19, 0xf9, 0xb1, 0x1b, 0xfa, 0xcc, 0xf8,
  0x05, 0xe8, 0x1b, 0x1d, 0xb8, 0x55, 0xdd, 0xfa, 0xe4, 0xf1, 0xe0, 0x11,
  0x08, 0xc5, 0xbc, 0x26, 0x02, 0xed, 0xeb, 0xeb, 0x07, 0xc0, 0x21, 0xfe,
  0x0b, 0x45, 0x42, 0x05, 0xc0, 0xe6, 0x1d, 0x2c, 0xd2, 0xf7, 0xff, 0xff,
  0x04, 0x00, 0x00, 0x00, 0x20, 0x00, 0x00, 0x00, 0xa1, 0xf7, 0xff, 0xff,
  0xf0, 0x05, 0x00, 0x00, 0xb4, 0x02, 0x00, 0x00, 0x81, 0xfe, 0xff, 0xff,
  0xf2, 0xfe, 0xff, 0xff, 0x92, 0x00, 0x00, 0x00, 0xa0, 0xfe, 0xff, 0xff,
  0x2f, 0xfe, 0xff, 0xff, 0xfe, 0xf7, 0xff, 0xff, 0x04, 0x00, 0x00, 0x00,
  0x08, 0x00, 0x00, 0x00, 0x47, 0x62, 0x7f, 0x60, 0x7b, 0x22, 0x54, 0x7f,
  0x12, 0xf8, 0xff, 0xff, 0x04, 0x00, 0x00, 0x00, 0x08, 0x00, 0x00, 0x00,
  0x95, 0xe5, 0x8c, 0xbb, 0x80, 0xb5, 0xc7, 0xc5, 0x26, 0xf8, 0xff, 0xff,
  0x04, 0x00, 0x00, 0x00, 0x40, 0x02, 0x00, 0x00, 0x64, 0x1d, 0xce, 0x20,
  0xaf, 0xf6, 0xf4, 0x29, 0xd0, 0xdf, 0x55, 0x81, 0xde, 0xbe, 0xd0, 0xd8,
  0x65, 0x3d, 0x3b, 0xad, 0xd9, 0x58, 0xc4, 0xc2, 0x51, 0xed, 0x1d, 0x1e,
  0x38, 0x24, 0xa4, 0xef, 0xcc, 0xcb, 0xe0, 0xd4, 0x28, 0x29, 0xad, 0xb9,
  0x33, 0x03, 0x39, 0xda, 0xec, 0x01, 0xab, 0x17, 0x62, 0x1e, 0x35, 0x1f,
  0xd2, 0x92, 0x40, 0x26, 0xd2, 0xc9, 0x53, 0xa6, 0x2c, 0x3f, 0x3c, 0xf1,
  0x45, 0xf7, 0xc9, 0x15, 0xa2, 0x4c, 0x25, 0xf6, 0xd8, 0x07, 0x11, 0x0d,
  0xe6, 0xd8, 0xdd, 0x17, 0xdd, 0x15, 0xd8, 0xca, 0xcf, 0x09, 0x16, 0x29,
  0x2b, 0x85, 0xe6, 0x2c, 0xca, 0xeb, 0xd0, 0x21, 0x21, 0x42, 0x17, 0xd8,
  0xc2, 0xd3, 0x42, 0x81, 0x03, 0xce, 0xe8, 0x2a, 0xdc, 0xed, 0x1b, 0x13,
  0x3a, 0xb9, 0xf8, 0xc8, 0xf4, 0x3c, 0xb5, 0xfc, 0x0c, 0xd0, 0x0f, 0xbe,
  0xae, 0xb3, 0x43, 0x3a, 0x3c, 0xa7, 0xb2, 0x06, 0xf5, 0xf2, 0x1c, 0xf1,
  0xea, 0x00, 0x5b, 0xd9, 0x30, 0xdd, 0xd1, 0x0f, 0x63, 0x40, 0x06, 0x04,
  0xf7, 0xe5, 0xb3, 0xaf, 0x04, 0x00, 0xdb, 0xfd, 0x65, 0x36, 0x0d, 0x45,
  0xda, 0x00, 0xf3, 0xa5, 0x06, 0xa9, 0x12, 0x0c, 0x01, 0xa6, 0x1d, 0x14,
  0x5c, 0xf1, 0xf8, 0xc1, 0xd2, 0x09, 0x11, 0x19, 0xe6, 0xaf, 0x3b, 0xd9,
  0xa6, 0x45, 0x8e, 0xfd, 0x0b, 0x2d, 0xbd, 0x33, 0xd4, 0x90, 0x06, 0x12,
  0xfa, 0xcb, 0xf6, 0xe0, 0xac, 0x34, 0xe2, 0x02, 0xa8, 0x95, 0x19, 0x95,
  0xad, 0x28, 0xb9, 0xc0, 0x11, 0x48, 0x7f, 0x17, 0x02, 0xf3, 0x40, 0xe4,
  0x3e, 0x1d, 0x04, 0xb2, 0x47, 0xce, 0xcf, 0x07, 0xf3, 0xfd, 0x1d, 0xcd,
  0xe9, 0x1e, 0xf4, 0xf4, 0xec, 0xcf, 0xcc, 0x32, 0x22, 0xd0, 0xdc, 0xbc,
  0xa9, 0xd5, 0xdc, 0x21, 0xd6, 0x10, 0xdb, 0x02, 0x41, 0xd0, 0x1f, 0xd9,
  0xd5, 0xf4, 0xf1, 0xcb, 0xcd, 0x10, 0x7f, 0x1d, 0x20, 0x0e, 0xdc, 0x1f,
  0x1b, 0x1c, 0x0a, 0xaa, 0x1e, 0xb2, 0xd1, 0xc6, 0x2a, 0x24, 0xd6, 0x53,
  0x2c, 0xeb, 0xf5, 0xd7, 0xf9, 0xfc, 0x40, 0xfa, 0x58, 0x04, 0x18, 0xce,
  0x21, 0x3b, 0x67, 0x9c, 0xad, 0x3f, 0xe0, 0xa1, 0xf3, 0x04, 0xf8, 0xa6,
  0x25, 0xff, 0xca, 0xbd, 0x3f, 0xd5, 0x0f, 0xce, 0xde, 0x15, 0xeb, 0x2c,
  0x2c, 0xfc, 0xed, 0xca, 0xc1, 0x91, 0x51, 0xcf, 0xdc, 0xb6, 0xd6, 0xe1,
  0x1f, 0x1f, 0xb6, 0x07, 0x9d, 0xf7, 0x14, 0xa0, 0x1b, 0x9f, 0xee, 0x36,
  0xbb, 0x1a, 0x53, 0xde, 0x9f, 0xf3, 0x24, 0x19, 0x81, 0x55, 0xf1, 0x08,
  0xdc, 0x10, 0x9c, 0x9c, 0x26, 0xbd, 0x23, 0xec, 0x79, 0x65, 0xbc, 0xf5,
  0x60, 0x27, 0x38, 0xf6, 0xbc, 0x48, 0xad, 0x8d, 0x41, 0x29, 0x6b, 0xea,
  0xea, 0x16, 0x24, 0x50, 0xbc, 0xd6, 0x51, 0xc3, 0x2a, 0xc7, 0x68, 0x2e,
  0x34, 0xd9, 0x81, 0xa0, 0x7f, 0xba, 0x7a, 0x0e, 0x7b, 0xc3, 0xa0, 0x74,
  0x7a, 0x4a, 0xf2, 0x8a, 0xdf, 0x1b, 0x7f, 0xa3, 0x4f, 0xa8, 0xa8, 0x47,
  0x93, 0x1b, 0x25, 0x08, 0xfc, 0xa7, 0xcc, 0xae, 0x6a, 0x17, 0x96, 0xb8,
  0xee, 0xaf, 0xec, 0x55, 0x6d, 0x0d, 0x40, 0x67, 0xb7, 0xe3, 0x9c, 0x20,
  0x03, 0x33, 0x42, 0x0c, 0x1c, 0x3f, 0x41, 0xd4, 0x3e, 0x27, 0x24, 0x81,
  0xd6, 0x0b, 0x43, 0xad, 0xc9, 0x21, 0x19, 0xec, 0xeb, 0x5a, 0x40, 0x3f,
  0xf0, 0x3f, 0xf7, 0x5f, 0x13, 0xe6, 0x12, 0xb4, 0x30, 0xe9, 0xe4, 0x94,
  0x02, 0xf0, 0xca, 0x98, 0x45, 0xc3, 0xff, 0x4c, 0x09, 0xdf, 0x41, 0x48,
  0x28, 0x8f, 0xc5, 0xcf, 0xf9, 0x02, 0x3f, 0xdb, 0x14, 0xe1, 0x2f, 0xa5,
  0xc8, 0xfe, 0xa1, 0x16, 0x2d, 0x38, 0xf1, 0xd7, 0x2a, 0xe8, 0x31, 0x16,
  0x81, 0xda, 0x29, 0x2d, 0x63, 0xfa, 0xf6, 0x13, 0x4b, 0xa0, 0xed, 0xa4,
  0x01, 0xe2, 0x18, 0xdf, 0xb0, 0xbc, 0x1e, 0x3d, 0x70, 0xe8, 0x36, 0x15,
  0x0b, 0xc2, 0xca, 0x22, 0xdf, 0x02, 0xbb, 0x06, 0x71, 0xdd, 0xef, 0xf1,
  0xc1, 0x1b, 0x3b, 0xf5, 0x8b, 0xe1, 0x51, 0x38, 0x50, 0x10, 0x54, 0xbd,
  0x1b, 0xe5, 0xe4, 0xe1, 0xdc, 0xeb, 0xc9, 0xfc, 0x46, 0x29, 0x1a, 0xfc,
  0x3e, 0x3d, 0x17, 0xd6, 0xd7, 0xd1, 0x21, 0xc6, 0x72, 0xfa, 0xff, 0xff,
  0x04, 0x00, 0x00, 0x00, 0x20, 0x00, 0x00, 0x00, 0x3b, 0xfd, 0xff, 0xff,
  0x23, 0xfe, 0xff, 0xff, 0x6c, 0xfd, 0xff, 0xff, 0x5c, 0xfb, 0xff, 0xff,
  0xa1, 0xfe, 0xff, 0xff, 0x1b, 0xf9, 0xff, 0xff, 0xce, 0xfb, 0xff, 0xff,
  0x3c, 0x00, 0x00, 0x00, 0x9e, 0xfa, 0xff, 0xff, 0x04, 0x00, 0x00, 0x00,
  0x08, 0x00, 0x00, 0x00, 0xfe, 0x79, 0x13, 0x59, 0x7f, 0xb9, 0xfc, 0xfa,
  0xb2, 0xfa, 0xff, 0xff, 0x04, 0x00, 0x00, 0x00, 0x08, 0x00, 0x00, 0x00,
  0xd1, 0x9b, 0xe1, 0xb3, 0xdb, 0xa7, 0x91, 0x80, 0xc6, 0xfa, 0xff, 0xff,
  0x04, 0x00, 0x00, 0x00, 0x80, 0x03, 0x00, 0x00, 0x10, 0xf7, 0x8d, 0x2b,
  0xb7, 0xf2, 0x29, 0xf1, 0xff, 0xf0, 0xfb, 0xd8, 0xf3, 0xcd, 0x02, 0xde,
  0xfc, 0x19, 0xdf, 0x21, 0xdc, 0x10, 0x03, 0xd6, 0xf8, 0x06, 0xeb, 0xd8,
  0xfd, 0xd7, 0x08, 0xd9, 0xf9, 0x0f, 0xbf, 0x13, 0x00, 0x27, 0xfb, 0xd8,
  0xd8, 0x00, 0xd4, 0xc0, 0xf8, 0x06, 0xe6, 0xbe, 0xe2, 0x04, 0xb1, 0x2a,
  0xfd, 0x17, 0x2e, 0xe7, 0xfb, 0x14, 0xdf, 0xa7, 0x12, 0xf1, 0xe0, 0xe5,
  0x1d, 0x1a, 0xe3, 0x1c, 0xfa, 0xfd, 0x07, 0xf3, 0xd5, 0x10, 0x09, 0xe4,
  0xf6, 0xdd, 0xf4, 0xf6, 0xdb, 0xe8, 0xc4, 0x30, 0xea, 0x16, 0x2a, 0xd6,
  0xf4, 0x33, 0xed, 0xa6, 0xf3, 0xf2, 0xef, 0xcd, 0xe9, 0xed, 0xf7, 0x09,
  0x0e, 0xfa, 0x1e, 0xe5, 0xee, 0x05, 0x0c, 0xdf, 0x21, 0xf2, 0xe4, 0xcf,
  0xf2, 0xdf, 0xc9, 0x1d, 0xcb, 0x09, 0x07, 0x06, 0xe3, 0x0e, 0xf8, 0xa4,
  0xe0, 0xf9, 0xe8, 0xed, 0x31, 0xdd, 0x2c, 0xe8, 0x18, 0xdf, 0x2a, 0x22,
  0xf8, 0xdb, 0xfa, 0x10, 0x1e, 0x18, 0xec, 0x27, 0x2b, 0xd3, 0xf0, 0xe8,
  0xf9, 0xd5, 0x0c, 0x36, 0xfd, 0xcb, 0xf9, 0x11, 0x07, 0xef, 0x0f, 0x1f,
  0x20, 0xd0, 0x09, 0xc0, 0x25, 0xae, 0x17, 0xf7, 0x1c, 0xba, 0x24, 0x23,
  0x13, 0x05, 0xf1, 0xeb, 0xf8, 0xbc, 0x1a, 0xee, 0x04, 0xd3, 0x1d, 0x24,
  0x08, 0xc1, 0x03, 0x2a, 0x18, 0xfd, 0x01, 0x00, 0x01, 0xcd, 0x13, 0xc0,
  0x34, 0xc7, 0x15, 0x2a, 0xf6, 0xca, 0x14, 0x08, 0x0c, 0x1e, 0xf6, 0xfa,
  0x0f, 0xdf, 0x17, 0xe5, 0x05, 0xc9, 0x1c, 0x20, 0xde, 0xe1, 0xe8, 0xff,
  0x14, 0xfb, 0xf0, 0x23, 0x25, 0xeb, 0xee, 0xc5, 0x30, 0xb6, 0x1a, 0x0a,
  0x10, 0xdf, 0x1e, 0xfc, 0x30, 0x03, 0xf0, 0x0d, 0x20, 0xe2, 0x20, 0xe7,
  0x07, 0xc2, 0xf9, 0x1b, 0x07, 0xd0, 0xf1, 0x08, 0x17, 0x1f, 0x25, 0x1e,
  0x15, 0x16, 0xdb, 0xde, 0x12, 0xee, 0xef, 0xe2, 0x01, 0xa6, 0xf0, 0xf7,
  0xdc, 0x0f, 0x39, 0x0e, 0xf3, 0xf2, 0xff, 0xfb, 0x0c, 0x05, 0xf4, 0x08,
  0x0b, 0xb8, 0xd8, 0xad, 0xd4, 0x2d, 0x20, 0xee, 0x0a, 0xe1, 0x0a, 0x10,
  0xf5, 0x13, 0xd5, 0xfe, 0x21, 0xde, 0x18, 0xd4, 0xef, 0xe0, 0x22, 0x1e,
  0xe6, 0x27, 0xe0, 0x00, 0xdb, 0x0a, 0xf3, 0x13, 0x3c, 0xae, 0xd9, 0xe0,
  0xfc, 0xde, 0x26, 0x19, 0xd8, 0x00, 0xdd, 0x0a, 0x11, 0xf1, 0xef, 0x18,
  0x17, 0xb2, 0x03, 0xb1, 0xfa, 0x21, 0x11, 0x1f, 0xdf, 0x13, 0x19, 0xf5,
  0xe2, 0x0f, 0xdc, 0x09, 0x13, 0xd7, 0xf5, 0xe6, 0xee, 0x00, 0x04, 0xd8,
  0xe3, 0x2c, 0x18, 0xf9, 0xee, 0xf9, 0x00, 0x1e, 0x3a, 0xc8, 0xdb, 0xbe,
  0xfb, 0x2b, 0x29, 0x1c, 0xe2, 0x12, 0xf3, 0xc8, 0x13, 0x0c, 0x20, 0xf9,
  0x00, 0xd7, 0xfd, 0xd1, 0x00, 0xf1, 0x41, 0xe6, 0xcb, 0xfe, 0xef, 0xc3,
  0x05, 0x16, 0xd6, 0xee, 0xe0, 0xd1, 0x16, 0x34, 0x20, 0xe4, 0xcb, 0x3c,
  0xd7, 0x10, 0xe1, 0xda, 0xf4, 0xf7, 0xdb, 0x1e, 0x07, 0xa8, 0x2e, 0x18,
  0x11, 0x14, 0x1b, 0x2f, 0xda, 0x0d, 0xf6, 0x06, 0x1f, 0xe5, 0xf0, 0xf7,
  0x02, 0x81, 0xf9, 0x2f, 0x26, 0x12, 0x1e, 0x1d, 0xec, 0x17, 0xdf, 0x0a,
  0xea, 0xfb, 0xc2, 0xff, 0x04, 0xb5, 0x32, 0x1f, 0x10, 0xff, 0x17, 0xf9,
  0xf2, 0xeb, 0xf6, 0xe8, 0xf6, 0x09, 0xd9, 0x00, 0x0c, 0x8f, 0x14, 0x17,
  0x0b, 0xf4, 0x17, 0x29, 0xc9, 0xf9, 0xf4, 0xd0, 0x06, 0x1a, 0xfc, 0x1a,
  0x11, 0xa9, 0x1c, 0x11, 0x1c, 0xef, 0x1c, 0x26, 0xe8, 0x1d, 0x15, 0xeb,
  0xd7, 0xf9, 0xca, 0xe1, 0xe1, 0xbf, 0x30, 0x15, 0x2a, 0xef, 0xf9, 0x0b,
  0xf0, 0xf7, 0x07, 0xf0, 0x0d, 0x1c, 0xe4, 0xee, 0x1e, 0xd0, 0x12, 0x28,
  0x21, 0x11, 0x0b, 0x28, 0xf3, 0xd8, 0x27, 0x19, 0x10, 0x0e, 0x10, 0xe1,
  0x1b, 0x03, 0xf9, 0x28, 0xdf, 0x01, 0xe1, 0x25, 0xe9, 0xf1, 0x0a, 0x2f,
  0x14, 0xfc, 0x21, 0x17, 0x03, 0xe8, 0x0a, 0x12, 0xe0, 0x05, 0xe0, 0x07,
  0x14, 0x00, 0xf1, 0x2c, 0x25, 0xf3, 0x0c, 0x0e, 0x16, 0x0b, 0xe8, 0x14,
  0xe3, 0x2c, 0x09, 0x04, 0x0f, 0x0e, 0x00, 0x29, 0x11, 0x14, 0xf1, 0xeb,
  0xcb, 0x05, 0xef, 0x0e, 0xe3, 0x16, 0x01, 0xf8, 0x17, 0x1a, 0x16, 0x32,
  0xfc, 0xfe, 0x11, 0x03, 0xe3, 0x0a, 0x0a, 0x15, 0x03, 0xfc, 0x09, 0x19,
  0x10, 0x0f, 0xf8, 0x1c, 0x23, 0x1c, 0xf7, 0xf0, 0xca, 0x1e, 0xe6, 0x18,
  0xe7, 0xf5, 0xd8, 0x12, 0x00, 0x01, 0x0b, 0x0c, 0x13, 0x05, 0x17, 0xfe,
  0xe1, 0x1b, 0xf6, 0x13, 0x0a, 0xfb, 0xdf, 0x0c, 0x25, 0x01, 0x1a, 0xf0,
  0xf1, 0x21, 0x1f, 0x08, 0xf7, 0x0a, 0xf9, 0x1d, 0xf0, 0x0c, 0xf7, 0x18,
  0xf8, 0x17, 0x1d, 0x0d, 0xed, 0xf3, 0xd1, 0xd6, 0xe6, 0x00, 0x1c, 0xb6,
  0x19, 0xda, 0xf1, 0x97, 0xf6, 0x24, 0x22, 0xd2, 0xc0, 0x01, 0xda, 0xef,
  0x04, 0x11, 0xe9, 0xd9, 0xc2, 0xdb, 0x02, 0xb6, 0xdd, 0xf7, 0x00, 0xf5,
  0xf6, 0x23, 0xfb, 0x12, 0x1a, 0x22, 0x17, 0x82, 0xfd, 0xfa, 0xd6, 0xd6,
  0xf3, 0xf9, 0xf5, 0xf8, 0xca, 0x09, 0xdf, 0x21, 0x11, 0x31, 0xc9, 0xb5,
  0x10, 0xcd, 0xd6, 0xec, 0xd4, 0xfe, 0xf2, 0x08, 0x09, 0x10, 0xfa, 0x1e,
  0xe9, 0x26, 0xfc, 0x9f, 0x05, 0xf1, 0xea, 0xe8, 0xeb, 0x29, 0xff, 0xd1,
  0x01, 0x13, 0xd8, 0xfe, 0xf7, 0x2c, 0xcc, 0xae, 0x07, 0xe4, 0x18, 0xce,
  0xd7, 0x20, 0xf6, 0xd9, 0x13, 0x0f, 0xf4, 0x1c, 0xfd, 0x38, 0x00, 0xcd,
  0xd0, 0xe5, 0x0b, 0xab, 0xc0, 0xff, 0xcf, 0xfb, 0xe4, 0xe5, 0xd1, 0xef,
  0xd4, 0x0d, 0xff, 0xab, 0x1d, 0x06, 0x1a, 0xb6, 0xc5, 0xe5, 0x12, 0xff,
  0x10, 0x07, 0xd9, 0xef, 0x1e, 0x14, 0x19, 0x1e, 0xf8, 0x09, 0xdc, 0x26,
  0xe7, 0xf4, 0xec, 0xd5, 0xd9, 0x01, 0xb7, 0x09, 0x09, 0x04, 0x1f, 0x32,
  0x22, 0x0f, 0xe0, 0xf5, 0x07, 0xe6, 0xe9, 0xe5, 0xf7, 0x19, 0xba, 0x0e,
  0xe8, 0x27, 0xe1, 0x0b, 0xe8, 0x21, 0x0d, 0x29, 0xd7, 0x10, 0x03, 0x01,
  0xec, 0x19, 0xc8, 0xde, 0xcc, 0x33, 0x12, 0x04, 0x0b, 0x07, 0x17, 0x10,
  0xe4, 0x0d, 0x00, 0x06, 0xcd, 0x09, 0xfb, 0xe8, 0x07, 0x28, 0x12, 0x16,
  0xf2, 0x11, 0x01, 0x32, 0xce, 0xf8, 0xfe, 0xc8, 0xe0, 0x1f, 0xfb, 0xf8,
  0xfb, 0x27, 0x0d, 0x31, 0xf4, 0xea, 0xc7, 0xf9, 0xee, 0xd5, 0x13, 0xe6,
  0xc9, 0x1f, 0xf2, 0xe8, 0xfb, 0x25, 0x08, 0x0b, 0x04, 0xf3, 0xdf, 0xf8,
  0xf6, 0xed, 0x06, 0x18, 0xd6, 0xf6, 0xc3, 0xf8, 0xdd, 0x1d, 0x00, 0x31,
  0x1f, 0x19, 0xdc, 0x29, 0x52, 0xfe, 0xff, 0xff, 0x04, 0x00, 0x00, 0x00,
  0x1c, 0x00, 0x00, 0x00, 0x80, 0xff, 0xff, 0xff, 0x09, 0x00, 0x00, 0x00,
  0x15, 0x00, 0x00, 0x00, 0x2a, 0x00, 0x00, 0x00, 0x9e, 0xff, 0xff, 0xff,
  0x3a, 0x00, 0x00, 0x00, 0x53, 0x00, 0x00, 0x00, 0x7a, 0xfe, 0xff, 0xff,
  0x04, 0x00, 0x00, 0x00, 0x08, 0x00, 0x00, 0x00, 0xff, 0xff, 0xff, 0xff,
  0x80, 0x00, 0x00, 0x00, 0x2c, 0xd4, 0xff, 0xff, 0x30, 0xd4, 0xff, 0xff,
  0x34, 0xd4, 0xff, 0xff, 0x0f, 0x00, 0x00, 0x00, 0x4d, 0x4c, 0x49, 0x52,
  0x20, 0x43, 0x6f, 0x6e, 0x76, 0x65, 0x72, 0x74, 0x65, 0x64, 0x2e, 0x00,
  0x01, 0x00, 0x00, 0x00, 0x14, 0x00, 0x00, 0x00, 0x00, 0x00, 0x0e, 0x00,
  0x18, 0x00, 0x14, 0x00, 0x10, 0x00, 0x0c, 0x00, 0x08, 0x00, 0x04, 0x00,
  0x0e, 0x00, 0x00, 0x00, 0x14, 0x00, 0x00, 0x00, 0x1c, 0x00, 0x00, 0x00,
  0x00, 0x07, 0x00, 0x00, 0x04, 0x07, 0x00, 0x00, 0x0c, 0x07, 0x00, 0x00,
  0x04, 0x00, 0x00, 0x00, 0x6d, 0x61, 0x69, 0x6e, 0x00, 0x00, 0x00, 0x00,
  0x1e, 0x00, 0x00, 0x00, 0xc8, 0x06, 0x00, 0x00, 0x9c, 0x06, 0x00, 0x00,
  0x4c, 0x06, 0x00, 0x00, 0x08, 0x06, 0x00, 0x00, 0xd4, 0x05, 0x00, 0x00,
  0x80, 0x05, 0x00, 0x00, 0x3c, 0x05, 0x00, 0x00, 0x08, 0x05, 0x00, 0x00,
  0xd4, 0x04, 0x00, 0x00, 0x90, 0x04, 0x00, 0x00, 0x4c, 0x04, 0x00, 0x00,
  0x18, 0x04, 0x00, 0x00, 0xe4, 0x03, 0x00, 0x00, 0xa0, 0x03, 0x00, 0x00,
  0x5c, 0x03, 0x00, 0x00, 0x28, 0x03, 0x00, 0x00, 0xf4, 0x02, 0x00, 0x00,
  0xb0, 0x02, 0x00, 0x00, 0x6c, 0x02, 0x00, 0x00, 0x38, 0x02, 0x00, 0x00,
  0x04, 0x02, 0x00, 0x00, 0xc0, 0x01, 0x00, 0x00, 0x7c, 0x01, 0x00, 0x00,
  0x48, 0x01, 0x00, 0x00, 0x14, 0x01, 0x00, 0x00, 0xd0, 0x00, 0x00, 0x00,
  0x90, 0x00, 0x00, 0x00, 0x68, 0x00, 0x00, 0x00, 0x24, 0x00, 0x00, 0x00,
  0x04, 0x00, 0x00, 0x00, 0xba, 0xf9, 0xff, 0xff, 0x08, 0x00, 0x00, 0x00,
  0x0c, 0x00, 0x00, 0x00, 0x01, 0x00, 0x00, 0x00, 0x3a, 0x00, 0x00, 0x00,
  0x01, 0x00, 0x00, 0x00, 0x39, 0x00, 0x00, 0x00, 0x4e, 0xfa, 0xff, 0xff,
  0x14, 0x00, 0x00, 0x00, 0x00, 0x00, 0x00, 0x08, 0x10, 0x00, 0x00, 0x00,
  0x14, 0x00, 0x00, 0x00, 0x07, 0x00, 0x00, 0x00, 0x38, 0xd5, 0xff, 0xff,
  0x01, 0x00, 0x00, 0x00, 0x39, 0x00, 0x00, 0x00, 0x03, 0x00, 0x00, 0x00,
  0x38, 0x00, 0x00, 0x00, 0x04, 0x00, 0x00, 0x00, 0x03, 0x00, 0x00, 0x00,
  0x00, 0x00, 0x0a, 0x00, 0x10, 0x00, 0x0c, 0x00, 0x08, 0x00, 0x04, 0x00,
  0x0a, 0x00, 0x00, 0x00, 0x0c, 0x00, 0x00, 0x00, 0x10, 0x00, 0x00, 0x00,
  0x06, 0x00, 0x00, 0x00, 0x01, 0x00, 0x00, 0x00, 0x38, 0x00, 0x00, 0x00,
  0x02, 0x00, 0x00, 0x00, 0x37, 0x00, 0x00, 0x00, 0x02, 0x00, 0x00, 0x00,
  0xb2, 0xfa, 0xff, 0xff, 0x1c, 0x00, 0x00, 0x00, 0x00, 0x00, 0x00, 0x0a,
  0x1c, 0x00, 0x00, 0x00, 0x20, 0x00, 0x00, 0x00, 0x05, 0x00, 0x00, 0x00,
  0x00, 0x00, 0x06, 0x00, 0x08, 0x00, 0x04, 0x00, 0x06, 0x00, 0x00, 0x00,
  0x03, 0x00, 0x00, 0x00, 0x01, 0x00, 0x00, 0x00, 0x37, 0x00, 0x00, 0x00,
  0x02, 0x00, 0x00, 0x00, 0x2a, 0x00, 0x00, 0x00, 0x36, 0x00, 0x00, 0x00,
  0xee, 0xfa, 0xff, 0xff, 0x14, 0x00, 0x00, 0x00, 0x00, 0x00, 0x00, 0x05,
  0x24, 0x00, 0x00, 0x00, 0x28, 0x00, 0x00, 0x00, 0x04, 0x00, 0x00, 0x00,
  0x9e, 0xfb, 0xff, 0xff, 0x02, 0x00, 0x00, 0x00, 0x02, 0x00, 0x00, 0x00,
  0x02, 0x00, 0x00, 0x00, 0x02, 0x00, 0x00, 0x00, 0x00, 0x00, 0x00, 0x01,
  0x01, 0x00, 0x00, 0x00, 0x36, 0x00, 0x00, 0x00, 0x01, 0x00, 0x00, 0x00,
  0x35, 0x00, 0x00, 0x00, 0x2e, 0xfb, 0xff, 0xff, 0x14, 0x00, 0x00, 0x00,
  0x00, 0x00, 0x00, 0x0b, 0x10, 0x00, 0x00, 0x00, 0x14, 0x00, 0x00, 0x00,
  0x03, 0x00, 0x00, 0x00, 0x18, 0xd6, 0xff, 0xff, 0x01, 0x00, 0x00, 0x00,
  0x35, 0x00, 0x00, 0x00, 0x02, 0x00, 0x00, 0x00, 0x34, 0x00, 0x00, 0x00,
  0x05, 0x00, 0x00, 0x00, 0x5e, 0xfb, 0xff, 0xff, 0x14, 0x00, 0x00, 0x00,
  0x00, 0x00, 0x00, 0x15, 0x10, 0x00, 0x00, 0x00, 0x14, 0x00, 0x00, 0x00,
  0x02, 0x00, 0x00, 0x00, 0x48, 0xd6, 0xff, 0xff, 0x01, 0x00, 0x00, 0x00,
  0x34, 0x00, 0x00, 0x00, 0x02, 0x00, 0x00, 0x00, 0x33, 0x00, 0x00, 0x00,
  0x06, 0x00, 0x00, 0x00, 0x8e, 0xfb, 0xff, 0xff, 0x14, 0x00, 0x00, 0x00,
  0x00, 0x00, 0x00, 0x01, 0x1c, 0x00, 0x00, 0x00, 0x20, 0x00, 0x00, 0x00,
  0x01, 0x00, 0x00, 0x00, 0x80, 0xfb, 0xff, 0xff, 0x00, 0x00, 0x00, 0x01,
  0x01, 0x00, 0x00, 0x00, 0x01, 0x00, 0x00, 0x00, 0x01, 0x00, 0x00, 0x00,
  0x33, 0x00, 0x00, 0x00, 0x03, 0x00, 0x00, 0x00, 0x32, 0x00, 0x00, 0x00,
  0x08, 0x00, 0x00, 0x00, 0x07, 0x00, 0x00, 0x00, 0xce, 0xfb, 0xff, 0xff,
  0x14, 0x00, 0x00, 0x00, 0x00, 0x00, 0x00, 0x05, 0x24, 0x00, 0x00, 0x00,
  0x28, 0x00, 0x00, 0x00, 0x04, 0x00, 0x00, 0x00, 0x7e, 0xfc, 0xff, 0xff,
  0x02, 0x00, 0x00, 0x00, 0x02, 0x00, 0x00, 0x00, 0x02, 0x00, 0x00, 0x00,
  0x02, 0x00, 0x00, 0x00, 0x00, 0x00, 0x00, 0x01, 0x01, 0x00, 0x00, 0x00,
  0x32, 0x00, 0x00, 0x00, 0x01, 0x00, 0x00, 0x00, 0x31, 0x00, 0x00, 0x00,
  0x0e, 0xfc, 0xff, 0xff, 0x14, 0x00, 0x00, 0x00, 0x00, 0x00, 0x00, 0x0b,
  0x10, 0x00, 0x00, 0x00, 0x14, 0x00, 0x00, 0x00, 0x03, 0x00, 0x00, 0x00,
  0xf8, 0xd6, 0xff, 0xff, 0x01, 0x00, 0x00, 0x00, 0x31, 0x00, 0x00, 0x00,
  0x02, 0x00, 0x00, 0x00, 0x30, 0x00, 0x00, 0x00, 0x09, 0x00, 0x00, 0x00,
  0x3e, 0xfc, 0xff, 0xff, 0x14, 0x00, 0x00, 0x00, 0x00, 0x00, 0x00, 0x15,
  0x10, 0x00, 0x00, 0x00, 0x14, 0x00, 0x00, 0x00, 0x02, 0x00, 0x00, 0x00,
  0x28, 0xd7, 0xff, 0xff, 0x01, 0x00, 0x00, 0x00, 0x30, 0x00, 0x00, 0x00,
  0x02, 0x00, 0x00, 0x00, 0x2f, 0x00, 0x00, 0x00, 0x0a, 0x00, 0x00, 0x00,
  0x6e, 0xfc, 0xff, 0xff, 0x14, 0x00, 0x00, 0x00, 0x00, 0x00, 0x00, 0x01,
  0x1c, 0x00, 0x00, 0x00, 0x20, 0x00, 0x00, 0x00, 0x01, 0x00, 0x00, 0x00,
  0x60, 0xfc, 0xff, 0xff, 0x00, 0x00, 0x00, 0x01, 0x01, 0x00, 0x00, 0x00,
  0x01, 0x00, 0x00, 0x00, 0x01, 0x00, 0x00, 0x00, 0x2f, 0x00, 0x00, 0x00,
  0x03, 0x00, 0x00, 0x00, 0x2e, 0x00, 0x00, 0x00, 0x0c, 0x00, 0x00, 0x00,
  0x0b, 0x00, 0x00, 0x00, 0xae, 0xfc, 0xff, 0xff, 0x14, 0x00, 0x00, 0x00,
  0x00, 0x00, 0x00, 0x05, 0x24, 0x00, 0x00, 0x00, 0x28, 0x00, 0x00, 0x00,
  0x04, 0x00, 0x00, 0x00, 0x5e, 0xfd, 0xff, 0xff, 0x02, 0x00, 0x00, 0x00,
  0x02, 0x00, 0x00, 0x00, 0x02, 0x00, 0x00, 0x00, 0x02, 0x00, 0x00, 0x00,
  0x00, 0x00, 0x00, 0x01, 0x01, 0x00, 0x00, 0x00, 0x2e, 0x00, 0x00, 0x00,
  0x01, 0x00, 0x00, 0x00, 0x2d, 0x00, 0x00, 0x00, 0xee, 0xfc, 0xff, 0xff,
  0x14, 0x00, 0x00, 0x00, 0x00, 0x00, 0x00, 0x0b, 0x10, 0x00, 0x00, 0x00,
  0x14, 0x00, 0x00, 0x00, 0x03, 0x00, 0x00, 0x00, 0xd8, 0xd7, 0xff, 0xff,
  0x01, 0x00, 0x00, 0x00, 0x2d, 0x00, 0x00, 0x00, 0x02, 0x00, 0x00, 0x00,
  0x2c, 0x00, 0x00, 0x00, 0x0d, 0x00, 0x00, 0x00, 0x1e, 0xfd, 0xff, 0xff,
  0x14, 0x00, 0x00, 0x00, 0x00, 0x00, 0x00, 0x15, 0x10, 0x00, 0x00, 0x00,
  0x14, 0x00, 0x00, 0x00, 0x02, 0x00, 0x00, 0x00, 0x08, 0xd8, 0xff, 0xff,
  0x01, 0x00, 0x00, 0x00, 0x2c, 0x00, 0x00, 0x00, 0x02, 0x00, 0x00, 0x00,
  0x2b, 0x00, 0x00, 0x00, 0x0e, 0x00, 0x00, 0x00, 0x4e, 0xfd, 0xff, 0xff,
  0x14, 0x00, 0x00, 0x00, 0x00, 0x00, 0x00, 0x01, 0x1c, 0x00, 0x00, 0x00,
  0x20, 0x00, 0x00, 0x00, 0x01, 0x00, 0x00, 0x00, 0x40, 0xfd, 0xff, 0xff,
  0x00, 0x00, 0x00, 0x01, 0x01, 0x00, 0x00, 0x00, 0x01, 0x00, 0x00, 0x00,
  0x01, 0x00, 0x00, 0x00, 0x2b, 0x00, 0x00, 0x00, 0x03, 0x00, 0x00, 0x00,
  0x1d, 0x00, 0x00, 0x00, 0x10, 0x00, 0x00, 0x00, 0x0f, 0x00, 0x00, 0x00,
  0x8e, 0xfd, 0xff, 0xff, 0x14, 0x00, 0x00, 0x00, 0x00, 0x00, 0x00, 0x05,
  0x24, 0x00, 0x00, 0x00, 0x28, 0x00, 0x00, 0x00, 0x04, 0x00, 0x00, 0x00,
  0x3e, 0xfe, 0xff, 0xff, 0x02, 0x00, 0x00, 0x00, 0x02, 0x00, 0x00, 0x00,
  0x02, 0x00, 0x00, 0x00, 0x02, 0x00, 0x00, 0x00, 0x00, 0x00, 0x00, 0x01,
  0x01, 0x00, 0x00, 0x00, 0x2a, 0x00, 0x00, 0x00, 0x01, 0x00, 0x00, 0x00,
  0x29, 0x00, 0x00, 0x00, 0xce, 0xfd, 0xff, 0xff, 0x14, 0x00, 0x00, 0x00,
  0x00, 0x00, 0x00, 0x0b, 0x10, 0x00, 0x00, 0x00, 0x14, 0x00, 0x00, 0x00,
  0x03, 0x00, 0x00, 0x00, 0xb8, 0xd8, 0xff, 0xff, 0x01, 0x00, 0x00, 0x00,
  0x29, 0x00, 0x00, 0x00, 0x02, 0x00, 0x00, 0x00, 0x28, 0x00, 0x00, 0x00,
  0x11, 0x00, 0x00, 0x00, 0xfe, 0xfd, 0xff, 0xff, 0x14, 0x00, 0x00, 0x00,
  0x00, 0x00, 0x00, 0x15, 0x10, 0x00, 0x00, 0x00, 0x14, 0x00, 0x00, 0x00,
  0x02, 0x00, 0x00, 0x00, 0xe8, 0xd8, 0xff, 0xff, 0x01, 0x00, 0x00, 0x00,
  0x28, 0x00, 0x00, 0x00, 0x02, 0x00, 0x00, 0x00, 0x27, 0x00, 0x00, 0x00,
  0x12, 0x00, 0x00, 0x00, 0x2e, 0xfe, 0xff, 0xff, 0x14, 0x00, 0x00, 0x00,
  0x00, 0x00, 0x00, 0x01, 0x1c, 0x00, 0x00, 0x00, 0x20, 0x00, 0x00, 0x00,
  0x01, 0x00, 0x00, 0x00, 0x20, 0xfe, 0xff, 0xff, 0x00, 0x00, 0x00, 0x01,
  0x01, 0x00, 0x00, 0x00, 0x01, 0x00, 0x00, 0x00, 0x01, 0x00, 0x00, 0x00,
  0x27, 0x00, 0x00, 0x00, 0x03, 0x00, 0x00, 0x00, 0x26, 0x00, 0x00, 0x00,
  0x14, 0x00, 0x00, 0x00, 0x13, 0x00, 0x00, 0x00, 0x6e, 0xfe, 0xff, 0xff,
  0x14, 0x00, 0x00, 0x00, 0x00, 0x00, 0x00, 0x05, 0x24, 0x00, 0x00, 0x00,
  0x28, 0x00, 0x00, 0x00, 0x04, 0x00, 0x00, 0x00, 0x1e, 0xff, 0xff, 0xff,
  0x02, 0x00, 0x00, 0x00, 0x02, 0x00, 0x00, 0x00, 0x02, 0x00, 0x00, 0x00,
  0x02, 0x00, 0x00, 0x00, 0x00, 0x00, 0x00, 0x01, 0x01, 0x00, 0x00, 0x00,
  0x26, 0x00, 0x00, 0x00, 0x01, 0x00, 0x00, 0x00, 0x25, 0x00, 0x00, 0x00,
  0xae, 0xfe, 0xff, 0xff, 0x14, 0x00, 0x00, 0x00, 0x00, 0x00, 0x00, 0x0b,
  0x10, 0x00, 0x00, 0x00, 0x14, 0x00, 0x00, 0x00, 0x03, 0x00, 0x00, 0x00,
  0x98, 0xd9, 0xff, 0xff, 0x01, 0x00, 0x00, 0x00, 0x25, 0x00, 0x00, 0x00,
  0x02, 0x00, 0x00, 0x00, 0x24, 0x00, 0x00, 0x00, 0x15, 0x00, 0x00, 0x00,
  0xde, 0xfe, 0xff, 0xff, 0x14, 0x00, 0x00, 0x00, 0x00, 0x00, 0x00, 0x15,
  0x10, 0x00, 0x00, 0x00, 0x14, 0x00, 0x00, 0x00, 0x02, 0x00, 0x00, 0x00,
  0xc8, 0xd9, 0xff, 0xff, 0x01, 0x00, 0x00, 0x00, 0x24, 0x00, 0x00, 0x00,
  0x02, 0x00, 0x00, 0x00, 0x23, 0x00, 0x00, 0x00, 0x16, 0x00, 0x00, 0x00,
  0x0e, 0xff, 0xff, 0xff, 0x14, 0x00, 0x00, 0x00, 0x00, 0x00, 0x00, 0x01,
  0x1c, 0x00, 0x00, 0x00, 0x20, 0x00, 0x00, 0x00, 0x01, 0x00, 0x00, 0x00,
  0x00, 0xff, 0xff, 0xff, 0x00, 0x00, 0x00, 0x01, 0x01, 0x00, 0x00, 0x00,
  0x01, 0x00, 0x00, 0x00, 0x01, 0x00, 0x00, 0x00, 0x23, 0x00, 0x00, 0x00,
  0x03, 0x00, 0x00, 0x00, 0x22, 0x00, 0x00, 0x00, 0x18, 0x00, 0x00, 0x00,
  0x17, 0x00, 0x00, 0x00, 0x4e, 0xff, 0xff, 0xff, 0x24, 0x00, 0x00, 0x00,
  0x00, 0x00, 0x00, 0x05, 0x34, 0x00, 0x00, 0x00, 0x38, 0x00, 0x00, 0x00,
  0x04, 0x00, 0x00, 0x00, 0x00, 0x00, 0x0e, 0x00, 0x18, 0x00, 0x17, 0x00,
  0x10, 0x00, 0x0c, 0x00, 0x08, 0x00, 0x04, 0x00, 0x0e, 0x00, 0x00, 0x00,
  0x02, 0x00, 0x00, 0x00, 0x02, 0x00, 0x00, 0x00, 0x02, 0x00, 0x00, 0x00,
  0x02, 0x00, 0x00, 0x00, 0x00, 0x00, 0x00, 0x01, 0x01, 0x00, 0x00, 0x00,
  0x22, 0x00, 0x00, 0x00, 0x01, 0x00, 0x00, 0x00, 0x21, 0x00, 0x00, 0x00,
  0x9e, 0xff, 0xff, 0xff, 0x14, 0x00, 0x00, 0x00, 0x00, 0x00, 0x00, 0x0b,
  0x10, 0x00, 0x00, 0x00, 0x14, 0x00, 0x00, 0x00, 0x03, 0x00, 0x00, 0x00,
  0x88, 0xda, 0xff, 0xff, 0x01, 0x00, 0x00, 0x00, 0x21, 0x00, 0x00, 0x00,
  0x02, 0x00, 0x00, 0x00, 0x20, 0x00, 0x00, 0x00, 0x19, 0x00, 0x00, 0x00,
  0xce, 0xff, 0xff, 0xff, 0x14, 0x00, 0x00, 0x00, 0x00, 0x00, 0x00, 0x15,
  0x10, 0x00, 0x00, 0x00, 0x14, 0x00, 0x00, 0x00, 0x02, 0x00, 0x00, 0x00,
  0xb8, 0xda, 0xff, 0xff, 0x01, 0x00, 0x00, 0x00, 0x20, 0x00, 0x00, 0x00,
  0x02, 0x00, 0x00, 0x00, 0x1f, 0x00, 0x00, 0x00, 0x1a, 0x00, 0x00, 0x00,
  0x00, 0x00, 0x0e, 0x00, 0x18, 0x00, 0x14, 0x00, 0x10, 0x00, 0x0c, 0x00,
  0x0b, 0x00, 0x04, 0x00, 0x0e, 0x00, 0x00, 0x00, 0x20, 0x00, 0x00, 0x00,
  0x00, 0x00, 0x00, 0x01, 0x28, 0x00, 0x00, 0x00, 0x2c, 0x00, 0x00, 0x00,
  0x01, 0x00, 0x00, 0x00, 0x0c, 0x00, 0x10, 0x00, 0x00, 0x00, 0x0c, 0x00,
  0x08, 0x00, 0x07, 0x00, 0x0c, 0x00, 0x00, 0x00, 0x00, 0x00, 0x00, 0x01,
  0x01, 0x00, 0x00, 0x00, 0x01, 0x00, 0x00, 0x00, 0x01, 0x00, 0x00, 0x00,
  0x1f, 0x00, 0x00, 0x00, 0x03, 0x00, 0x00, 0x00, 0x1e, 0x00, 0x00, 0x00,
  0x1c, 0x00, 0x00, 0x00, 0x1b, 0x00, 0x00, 0x00, 0xe2, 0xff, 0xff, 0xff,
  0x08, 0x00, 0x00, 0x00, 0x0c, 0x00, 0x00, 0x00, 0x01, 0x00, 0x00, 0x00,
  0x1e, 0x00, 0x00, 0x00, 0x01, 0x00, 0x00, 0x00, 0x01, 0x00, 0x00, 0x00,
  0x00, 0x00, 0x0a, 0x00, 0x0c, 0x00, 0x00, 0x00, 0x08, 0x00, 0x04, 0x00,
  0x0a, 0x00, 0x00, 0x00, 0x08, 0x00, 0x00, 0x00, 0x0c, 0x00, 0x00, 0x00,
  0x01, 0x00, 0x00, 0x00, 0x1d, 0x00, 0x00, 0x00, 0x01, 0x00, 0x00, 0x00,
  0x00, 0x00, 0x00, 0x00, 0x01, 0x00, 0x00, 0x00, 0x3a, 0x00, 0x00, 0x00,
  0x02, 0x00, 0x00, 0x00, 0x00, 0x00, 0x00, 0x00, 0x01, 0x00, 0x00, 0x00,
  0x3b, 0x00, 0x00, 0x00, 0x48, 0x25, 0x00, 0x00, 0xa0, 0x24, 0x00, 0x00,
  0x54, 0x24, 0x00, 0x00, 0xc8, 0x23, 0x00, 0x00, 0x5c, 0x23, 0x00, 0x00,
  0xd8, 0x22, 0x00, 0x00, 0x5c, 0x22, 0x00, 0x00, 0x90, 0x21, 0x00, 0x00,
  0xc4, 0x20, 0x00, 0x00, 0x40, 0x20, 0x00, 0x00, 0xc4, 0x1f, 0x00, 0x00,
  0xf8, 0x1e, 0x00, 0x00, 0x2c, 0x1e, 0x00, 0x00, 0xb0, 0x1d, 0x00, 0x00,
  0x34, 0x1d, 0x00, 0x00, 0x68, 0x1c, 0x00, 0x00, 0xa4, 0x1b, 0x00, 0x00,
  0x28, 0x1b, 0x00, 0x00, 0xac, 0x1a, 0x00, 0x00, 0xe0, 0x19, 0x00, 0x00,
  0x1c, 0x19, 0x00, 0x00, 0xa0, 0x18, 0x00, 0x00, 0x24, 0x18, 0x00, 0x00,
  0x58, 0x17, 0x00, 0x00, 0x94, 0x16, 0x00, 0x00, 0x18, 0x16, 0x00, 0x00,
  0x9c, 0x15, 0x00, 0x00, 0xd0, 0x14, 0x00, 0x00, 0x0c, 0x14, 0x00, 0x00,
  0x88, 0x13, 0x00, 0x00, 0x04, 0x13, 0x00, 0x00, 0x08, 0x12, 0x00, 0x00,
  0x64, 0x11, 0x00, 0x00, 0xc0, 0x10, 0x00, 0x00, 0x2c, 0x10, 0x00, 0x00,
  0x30, 0x0f, 0x00, 0x00, 0x8c, 0x0e, 0x00, 0x00, 0xe8, 0x0d, 0x00, 0x00,
  0x54, 0x0d, 0x00, 0x00, 0x58, 0x0c, 0x00, 0x00, 0xb4, 0x0b, 0x00, 0x00,
  0x10, 0x0b, 0x00, 0x00, 0x7c, 0x0a, 0x00, 0x00, 0x80, 0x09, 0x00, 0x00,
  0xdc, 0x08, 0x00, 0x00, 0x38, 0x08, 0x00, 0x00, 0xa4, 0x07, 0x00, 0x00,
  0xa8, 0x06, 0x00, 0x00, 0x04, 0x06, 0x00, 0x00, 0x60, 0x05, 0x00, 0x00,
  0xcc, 0x04, 0x00, 0x00, 0xe8, 0x03, 0x00, 0x00, 0x44, 0x03, 0x00, 0x00,
  0xa0, 0x02, 0x00, 0x00, 0x0c, 0x02, 0x00, 0x00, 0x78, 0x01, 0x00, 0x00,
  0xfc, 0x00, 0x00, 0x00, 0x80, 0x00, 0x00, 0x00, 0x04, 0x00, 0x00, 0x00,
  0xba, 0xdb, 0xff, 0xff, 0x00, 0x00, 0x00, 0x01, 0x18, 0x00, 0x00, 0x00,
  0x20, 0x00, 0x00, 0x00, 0x3c, 0x00, 0x00, 0x00, 0x3b, 0x00, 0x00, 0x00,
  0x00, 0x00, 0x00, 0x03, 0x50, 0x00, 0x00, 0x00, 0x02, 0x00, 0x00, 0x00,
  0xff, 0xff, 0xff, 0xff, 0x07, 0x00, 0x00, 0x00, 0x9c, 0xdb, 0xff, 0xff,
  0x08, 0x00, 0x00, 0x00, 0x10, 0x00, 0x00, 0x00, 0x01, 0x00, 0x00, 0x00,
  0xa4, 0x00, 0x00, 0x00, 0x00, 0x00, 0x00, 0x00, 0x01, 0x00, 0x00, 0x00,
  0xc0, 0xa6, 0xc0, 0x3e, 0x19, 0x00, 0x00, 0x00, 0x53, 0x74, 0x61, 0x74,
  0x65, 0x66, 0x75, 0x6c, 0x50, 0x61, 0x72, 0x74, 0x69, 0x74, 0x69, 0x6f,
  0x6e, 0x65, 0x64, 0x43, 0x61, 0x6c, 0x6c, 0x3a, 0x30, 0x00, 0x00, 0x00,
  0x02, 0x00, 0x00, 0x00, 0x01, 0x00, 0x00, 0x00, 0x07, 0x00, 0x00, 0x00,
  0x32, 0xdc, 0xff, 0xff, 0x00, 0x00, 0x00, 0x01, 0x18, 0x00, 0x00, 0x00,
  0x20, 0x00, 0x00, 0x00, 0x3c, 0x00, 0x00, 0x00, 0x3a, 0x00, 0x00, 0x00,
  0x00, 0x00, 0x00, 0x09, 0x50, 0x00, 0x00, 0x00, 0x02, 0x00, 0x00, 0x00,
  0xff, 0xff, 0xff, 0xff, 0x07, 0x00, 0x00, 0x00, 0x14, 0xdc, 0xff, 0xff,
  0x08, 0x00, 0x00, 0x00, 0x10, 0x00, 0x00, 0x00, 0x01, 0x00, 0x00, 0x00,
  0x24, 0x00, 0x00, 0x00, 0x00, 0x00, 0x00, 0x00, 0x01, 0x00, 0x00, 0x00,
  0xc0, 0xa6, 0xc0, 0x3e, 0x1a, 0x00, 0x00, 0x00, 0x53, 0x74, 0x61, 0x74,
  0x65, 0x66, 0x75, 0x6c, 0x50, 0x61, 0x72, 0x74, 0x69, 0x74, 0x69, 0x6f,
  0x6e, 0x65, 0x64, 0x43, 0x61, 0x6c, 0x6c, 0x3a, 0x30, 0x31, 0x00, 0x00,
  0x02, 0x00, 0x00, 0x00, 0x01, 0x00, 0x00, 0x00, 0x07, 0x00, 0x00, 0x00,
  0xaa, 0xdc, 0xff, 0xff, 0x00, 0x00, 0x00, 0x01, 0x18, 0x00, 0x00, 0x00,
  0x20, 0x00, 0x00, 0x00, 0x3c, 0x00, 0x00, 0x00, 0x39, 0x00, 0x00, 0x00,
  0x00, 0x00, 0x00, 0x09, 0x50, 0x00, 0x00, 0x00, 0x02, 0x00, 0x00, 0x00,
  0xff, 0xff, 0xff, 0xff, 0x80, 0x00, 0x00, 0x00, 0x8c, 0xdc, 0xff, 0xff,
  0x08, 0x00, 0x00, 0x00, 0x10, 0x00, 0x00, 0x00, 0x01, 0x00, 0x00, 0x00,
  0x88, 0xff, 0xff, 0xff, 0xff, 0xff, 0xff, 0xff, 0x01, 0x00, 0x00, 0x00,
  0x60, 0xd6, 0xdf, 0x3d, 0x19, 0x00, 0x00, 0x00, 0x6d, 0x6f, 0x64, 0x65,
  0x6c, 0x5f, 0x31, 0x2f, 0x66, 0x6c, 0x61, 0x74, 0x74, 0x65, 0x6e, 0x5f,
  0x31, 0x2f, 0x52, 0x65, 0x73, 0x68, 0x61, 0x70, 0x65, 0x00, 0x00, 0x00,
  0x02, 0x00, 0x00, 0x00, 0x01, 0x00, 0x00, 0x00, 0x80, 0x00, 0x00, 0x00,
  0x22, 0xdd, 0xff, 0xff, 0x00, 0x00, 0x00, 0x01, 0x18, 0x00, 0x00, 0x00,
  0x28, 0x00, 0x00, 0x00, 0x48, 0x00, 0x00, 0x00, 0x38, 0x00, 0x00, 0x00,
  0x00, 0x00, 0x00, 0x09, 0x60, 0x00, 0x00, 0x00, 0x04, 0x00, 0x00, 0x00,
  0xff, 0xff, 0xff, 0xff, 0x08, 0x00, 0x00, 0x00, 0x01, 0x00, 0x00, 0x00,
  0x10, 0x00, 0x00, 0x00, 0x0c, 0xdd, 0xff, 0xff, 0x08, 0x00, 0x00, 0x00,
  0x14, 0x00, 0x00, 0x00, 0x01, 0x00, 0x00, 0x00, 0x88, 0xff, 0xff, 0xff,
  0xff, 0xff, 0xff, 0xff, 0x00, 0x00, 0x00, 0x00, 0x01, 0x00, 0x00, 0x00,
  0x60, 0xd6, 0xdf, 0x3d, 0x1c, 0x00, 0x00, 0x00, 0x6d, 0x6f, 0x64, 0x65,
  0x6c, 0x5f, 0x31, 0x2f, 0x63, 0x6f, 0x6e, 0x63, 0x61, 0x74, 0x65, 0x6e,
  0x61, 0x74, 0x65, 0x5f, 0x31, 0x2f, 0x63, 0x6f, 0x6e, 0x63, 0x61, 0x74,
  0x00, 0x00, 0x00, 0x00, 0x04, 0x00, 0x00, 0x00, 0x01, 0x00, 0x00, 0x00,
  0x08, 0x00, 0x00, 0x00, 0x01, 0x00, 0x00, 0x00, 0x10, 0x00, 0x00, 0x00,
  0xb2, 0xdd, 0xff, 0xff, 0x00, 0x00, 0x00, 0x01, 0x18, 0x00, 0x00, 0x00,
  0x28, 0x00, 0x00, 0x00, 0x44, 0x00, 0x00, 0x00, 0x37, 0x00, 0x00, 0x00,
  0x00, 0x00, 0x00, 0x09, 0x60, 0x00, 0x00, 0x00, 0x04, 0x00, 0x00, 0x00,
  0xff, 0xff, 0xff, 0xff, 0x08, 0x00, 0x00, 0x00, 0x01, 0x00, 0x00, 0x00,
  0x08, 0x00, 0x00, 0x00, 0x9c, 0xdd, 0xff, 0xff, 0x08, 0x00, 0x00, 0x00,
  0x10, 0x00, 0x00, 0x00, 0x01, 0x00, 0x00, 0x00, 0x88, 0xff, 0xff, 0xff,
  0xff, 0xff, 0xff, 0xff, 0x01, 0x00, 0x00, 0x00, 0x60, 0xd6, 0xdf, 0x3d,
  0x20, 0x00, 0x00, 0x00, 0x6d, 0x6f, 0x64, 0x65, 0x6c, 0x5f, 0x31, 0x2f,
  0x6d, 0x61, 0x78, 0x5f, 0x70, 0x6f, 0x6f, 0x6c, 0x69, 0x6e, 0x67, 0x32,
  0x64, 0x5f, 0x31, 0x31, 0x2f, 0x4d, 0x61, 0x78, 0x50, 0x6f, 0x6f, 0x6c,
  0x00, 0x00, 0x00, 0x00, 0x04, 0x00, 0x00, 0x00, 0x01, 0x00, 0x00, 0x00,
  0x08, 0x00, 0x00, 0x00, 0x01, 0x00, 0x00, 0x00, 0x08, 0x00, 0x00, 0x00,
  0x42, 0xde, 0xff, 0xff, 0x00, 0x00, 0x00, 0x01, 0x18, 0x00, 0x00, 0x00,
  0x28, 0x00, 0x00, 0x00, 0x44, 0x00, 0x00, 0x00, 0x36, 0x00, 0x00, 0x00,
  0x00, 0x00, 0x00, 0x09, 0x70, 0x00, 0x00, 0x00, 0x04, 0x00, 0x00, 0x00,
  0xff, 0xff, 0xff, 0xff, 0x10, 0x00, 0x00, 0x00, 0x03, 0x00, 0x00, 0x00,
  0x08, 0x00, 0x00, 0x00, 0x2c, 0xde, 0xff, 0xff, 0x08, 0x00, 0x00, 0x00,
  0x10, 0x00, 0x00, 0x00, 0x01, 0x00, 0x00, 0x00, 0x88, 0xff, 0xff, 0xff,
  0xff, 0xff, 0xff, 0xff, 0x01, 0x00, 0x00, 0x00, 0x60, 0xd6, 0xdf, 0x3d,
  0x30, 0x00, 0x00, 0x00, 0x6d, 0x6f, 0x64, 0x65, 0x6c, 0x5f, 0x31, 0x2f,
  0x62, 0x61, 0x74, 0x63, 0x68, 0x5f, 0x6e, 0x6f, 0x72, 0x6d, 0x61, 0x6c,
  0x69, 0x7a, 0x61, 0x74, 0x69, 0x6f, 0x6e, 0x5f, 0x31, 0x31, 0x2f, 0x46,
  0x75, 0x73, 0x65, 0x64, 0x42, 0x61, 0x74, 0x63, 0x68, 0x4e, 0x6f, 0x72,
  0x6d, 0x56, 0x33, 0x33, 0x00, 0x00, 0x00, 0x00, 0x04, 0x00, 0x00, 0x00,
  0x01, 0x00, 0x00, 0x00, 0x10, 0x00, 0x00, 0x00, 0x03, 0x00, 0x00, 0x00,
  0x08, 0x00, 0x00, 0x00, 0xe2, 0xde, 0xff, 0xff, 0x00, 0x00, 0x00, 0x01,
  0x18, 0x00, 0x00, 0x00, 0x28, 0x00, 0x00, 0x00, 0x44, 0x00, 0x00, 0x00,
  0x35, 0x00, 0x00, 0x00, 0x00, 0x00, 0x00, 0x09, 0x70, 0x00, 0x00, 0x00,
  0x04, 0x00, 0x00, 0x00, 0xff, 0xff, 0xff, 0xff, 0x10, 0x00, 0x00, 0x00,
  0x03, 0x00, 0x00, 0x00, 0x08, 0x00, 0x00, 0x00, 0xcc, 0xde, 0xff, 0xff,
  0x08, 0x00, 0x00, 0x00, 0x10, 0x00, 0x00, 0x00, 0x01, 0x00, 0x00, 0x00,
  0x8b, 0xff, 0xff, 0xff, 0xff, 0xff, 0xff, 0xff, 0x01, 0x00, 0x00, 0x00,
  0x49, 0x98, 0x87, 0x3d, 0x30, 0x00, 0x00, 0x00, 0x6d, 0x6f, 0x64, 0x65,
  0x6c, 0x5f, 0x31, 0x2f, 0x62, 0x61, 0x74, 0x63, 0x68, 0x5f, 0x6e, 0x6f,
  0x72, 0x6d, 0x61, 0x6c, 0x69, 0x7a, 0x61, 0x74, 0x69, 0x6f, 0x6e, 0x5f,
  0x31, 0x31, 0x2f, 0x46, 0x75, 0x73, 0x65, 0x64, 0x42, 0x61, 0x74, 0x63,
  0x68, 0x4e, 0x6f, 0x72, 0x6d, 0x56, 0x33, 0x32, 0x00, 0x00, 0x00, 0x00,
  0x04, 0x00, 0x00, 0x00, 0x01, 0x00, 0x00, 0x00, 0x10, 0x00, 0x00, 0x00,
  0x03, 0x00, 0x00, 0x00, 0x08, 0x00, 0x00, 0x00, 0x82, 0xdf, 0xff, 0xff,
  0x00, 0x00, 0x00, 0x01, 0x18, 0x00, 0x00, 0x00, 0x28, 0x00, 0x00, 0x00,
  0x44, 0x00, 0x00, 0x00, 0x34, 0x00, 0x00, 0x00, 0x00, 0x00, 0x00, 0x09,
  0xb0, 0x00, 0x00, 0x00, 0x04, 0x00, 0x00, 0x00, 0xff, 0xff, 0xff, 0xff,
  0x10, 0x00, 0x00, 0x00, 0x03, 0x00, 0x00, 0x00, 0x08, 0x00, 0x00, 0x00,
  0x6c, 0xdf, 0xff, 0xff, 0x08, 0x00, 0x00, 0x00, 0x10, 0x00, 0x00, 0x00,
  0x01, 0x00, 0x00, 0x00, 0x80, 0xff, 0xff, 0xff, 0xff, 0xff, 0xff, 0xff,
  0x01, 0x00, 0x00, 0x00, 0x4d, 0xbd, 0x81, 0x3d, 0x72, 0x00, 0x00, 0x00,
  0x6d, 0x6f, 0x64, 0x65, 0x6c, 0x5f, 0x31, 0x2f, 0x63, 0x6f, 0x6e, 0x76,
  0x32, 0x64, 0x5f, 0x31, 0x31, 0x2f, 0x52, 0x65, 0x6c, 0x75, 0x3b, 0x6d,
  0x6f, 0x64, 0x65, 0x6c, 0x5f, 0x31, 0x2f, 0x63, 0x6f, 0x6e, 0x76, 0x32,
  0x64, 0x5f, 0x31, 0x31, 0x2f, 0x42, 0x69, 0x61, 0x73, 0x41, 0x64, 0x64,
  0x3b, 0x6d, 0x6f, 0x64, 0x65, 0x6c, 0x5f, 0x31, 0x2f, 0x63, 0x6f, 0x6e,
  0x76, 0x32, 0x64, 0x5f, 0x31, 0x31, 0x2f, 0x43, 0x6f, 0x6e, 0x76, 0x32,
  0x44, 0x3b, 0x6d, 0x6f, 0x64, 0x65, 0x6c, 0x5f, 0x31, 0x2f, 0x63, 0x6f,
  0x6e, 0x76, 0x32, 0x64, 0x5f, 0x31, 0x31, 0x2f, 0x42, 0x69, 0x61, 0x73,
  0x41, 0x64, 0x64, 0x2f, 0x52, 0x65, 0x61, 0x64, 0x56, 0x61, 0x72, 0x69,
  0x61, 0x62, 0x6c, 0x65, 0x4f, 0x70, 0x00, 0x00, 0x04, 0x00, 0x00, 0x00,
  0x01, 0x00, 0x00, 0x00, 0x10, 0x00, 0x00, 0x00, 0x03, 0x00, 0x00, 0x00,
  0x08, 0x00, 0x00, 0x00, 0x62, 0xe0, 0xff, 0xff, 0x00, 0x00, 0x00, 0x01,
  0x18, 0x00, 0x00, 0x00, 0x28, 0x00, 0x00, 0x00, 0x44, 0x00, 0x00, 0x00,
  0x33, 0x00, 0x00, 0x00, 0x00, 0x00, 0x00, 0x09, 0x60, 0x00, 0x00, 0x00,
  0x04, 0x00, 0x00, 0x00, 0xff, 0xff, 0xff, 0xff, 0x10, 0x00, 0x00, 0x00,
  0x03, 0x00, 0x00, 0x00, 0x08, 0x00, 0x00, 0x00, 0x4c, 0xe0, 0xff, 0xff,
  0x08, 0x00, 0x00, 0x00, 0x10, 0x00, 0x00, 0x00, 0x01, 0x00, 0x00, 0x00,
  0x91, 0xff, 0xff, 0xff, 0xff, 0xff, 0xff, 0xff, 0x01, 0x00, 0x00, 0x00,
  0xd0, 0x81, 0x2d, 0x3d, 0x20, 0x00, 0x00, 0x00, 0x6d, 0x6f, 0x64, 0x65,
  0x6c, 0x5f, 0x31, 0x2f, 0x6d, 0x61, 0x78, 0x5f, 0x70, 0x6f, 0x6f, 0x6c,
  0x69, 0x6e, 0x67, 0x32, 0x64, 0x5f, 0x31, 0x30, 0x2f, 0x4d, 0x61, 0x78,
  0x50, 0x6f, 0x6f, 0x6c, 0x00, 0x00, 0x00, 0x00, 0x04, 0x00, 0x00, 0x00,
  0x01, 0x00, 0x00, 0x00, 0x10, 0x00, 0x00, 0x00, 0x03, 0x00, 0x00, 0x00,
  0x08, 0x00, 0x00, 0x00, 0xf2, 0xe0, 0xff, 0xff, 0x00, 0x00, 0x00, 0x01,
  0x18, 0x00, 0x00, 0x00, 0x28, 0x00, 0x00, 0x00, 0x44, 0x00, 0x00, 0x00,
  0x32, 0x00, 0x00, 0x00, 0x00, 0x00, 0x00, 0x09, 0x70, 0x00, 0x00, 0x00,
  0x04, 0x00, 0x00, 0x00, 0xff, 0xff, 0xff, 0xff, 0x20, 0x00, 0x00, 0x00,
  0x06, 0x00, 0x00, 0x00, 0x08, 0x00, 0x00, 0x00, 0xdc, 0xe0, 0xff, 0xff,
  0x08, 0x00, 0x00, 0x00, 0x10, 0x00, 0x00, 0x00, 0x01, 0x00, 0x00, 0x00,
  0x91, 0xff, 0xff, 0xff, 0xff, 0xff, 0xff, 0xff, 0x01, 0x00, 0x00, 0x00,
  0xd0, 0x81, 0x2d, 0x3d, 0x30, 0x00, 0x00, 0x00, 0x6d, 0x6f, 0x64, 0x65,
  0x6c, 0x5f, 0x31, 0x2f, 0x62, 0x61, 0x74, 0x63, 0x68, 0x5f, 0x6e, 0x6f,
  0x72, 0x6d, 0x61, 0x6c, 0x69, 0x7a, 0x61, 0x74, 0x69, 0x6f, 0x6e, 0x5f,
  0x31, 0x30, 0x2f, 0x46, 0x75, 0x73, 0x65, 0x64, 0x42, 0x61, 0x74, 0x63,
  0x68, 0x4e, 0x6f, 0x72, 0x6d, 0x56, 0x33, 0x33, 0x00, 0x00, 0x00, 0x00,
  0x04, 0x00, 0x00, 0x00, 0x01, 0x00, 0x00, 0x00, 0x20, 0x00, 0x00, 0x00,
  0x06, 0x00, 0x00, 0x00, 0x08, 0x00, 0x00, 0x00, 0x92, 0xe1, 0xff, 0xff,
  0x00, 0x00, 0x00, 0x01, 0x18, 0x00, 0x00, 0x00, 0x28, 0x00, 0x00, 0x00,
  0x44, 0x00, 0x00, 0x00, 0x31, 0x00, 0x00, 0x00, 0x00, 0x00, 0x00, 0x09,
  0x70, 0x00, 0x00, 0x00, 0x04, 0x00, 0x00, 0x00, 0xff, 0xff, 0xff, 0xff,
  0x20, 0x00, 0x00, 0x00, 0x06, 0x00, 0x00, 0x00, 0x08, 0x00, 0x00, 0x00,
  0x7c, 0xe1, 0xff, 0xff, 0x08, 0x00, 0x00, 0x00, 0x10, 0x00, 0x00, 0x00,
  0x01, 0x00, 0x00, 0x00, 0x90, 0xff, 0xff, 0xff, 0xff, 0xff, 0xff, 0xff,
  0x01, 0x00, 0x00, 0x00, 0xc0, 0x08, 0x36, 0x3d, 0x30, 0x00, 0x00, 0x00,
  0x6d, 0x6f, 0x64, 0x65, 0x6c, 0x5f, 0x31, 0x2f, 0x62, 0x61, 0x74, 0x63,
  0x68, 0x5f, 0x6e, 0x6f, 0x72, 0x6d, 0x61, 0x6c, 0x69, 0x7a, 0x61, 0x74,
  0x69, 0x6f, 0x6e, 0x5f, 0x31, 0x30, 0x2f, 0x46, 0x75, 0x73, 0x65, 0x64,
  0x42, 0x61, 0x74, 0x63, 0x68, 0x4e, 0x6f, 0x72, 0x6d, 0x56, 0x33, 0x32,
  0x00, 0x00, 0x00, 0x00, 0x04, 0x00, 0x00, 0x00, 0x01, 0x00, 0x00, 0x00,
  0x20, 0x00, 0x00, 0x00, 0x06, 0x00, 0x00, 0x00, 0x08, 0x00, 0x00, 0x00,
  0x32, 0xe2, 0xff, 0xff, 0x00, 0x00, 0x00, 0x01, 0x18, 0x00, 0x00, 0x00,
  0x28, 0x00, 0x00, 0x00, 0x44, 0x00, 0x00, 0x00, 0x30, 0x00, 0x00, 0x00,
  0x00, 0x00, 0x00, 0x09, 0xc8, 0x00, 0x00, 0x00, 0x04, 0x00, 0x00, 0x00,
  0xff, 0xff, 0xff, 0xff, 0x20, 0x00, 0x00, 0x00, 0x06, 0x00, 0x00, 0x00,
  0x08, 0x00, 0x00, 0x00, 0x1c, 0xe2, 0xff, 0xff, 0x08, 0x00, 0x00, 0x00,
  0x10, 0x00, 0x00, 0x00, 0x01, 0x00, 0x00, 0x00, 0x80, 0xff, 0xff, 0xff,
  0xff, 0xff, 0xff, 0xff, 0x01, 0x00, 0x00, 0x00, 0x21, 0xd7, 0x46, 0x3d,
  0x8b, 0x00, 0x00, 0x00, 0x6d, 0x6f, 0x64, 0x65, 0x6c, 0x5f, 0x31, 0x2f,
  0x63, 0x6f, 0x6e, 0x76, 0x32, 0x64, 0x5f, 0x31, 0x30, 0x2f, 0x52, 0x65,
  0x6c, 0x75, 0x3b, 0x6d, 0x6f, 0x64, 0x65, 0x6c, 0x5f, 0x31, 0x2f, 0x63,
  0x6f, 0x6e, 0x76, 0x32, 0x64, 0x5f, 0x31, 0x30, 0x2f, 0x42, 0x69, 0x61,
  0x73, 0x41, 0x64, 0x64, 0x3b, 0x6d, 0x6f, 0x64, 0x65, 0x6c, 0x5f, 0x31,
  0x2f, 0x63, 0x6f, 0x6e, 0x76, 0x32, 0x64, 0x5f, 0x31, 0x31, 0x2f, 0x43,
  0x6f, 0x6e, 0x76, 0x32, 0x44, 0x3b, 0x6d, 0x6f, 0x64, 0x65, 0x6c, 0x5f,
  0x31, 0x2f, 0x63, 0x6f, 0x6e, 0x76, 0x32, 0x64, 0x5f, 0x31, 0x30, 0x2f,
  0x43, 0x6f, 0x6e, 0x76, 0x32, 0x44, 0x3b, 0x6d, 0x6f, 0x64, 0x65, 0x6c,
  0x5f, 0x31, 0x2f, 0x63, 0x6f, 0x6e, 0x76, 0x32, 0x64, 0x5f, 0x31, 0x30,
  0x2f, 0x42, 0x69, 0x61, 0x73, 0x41, 0x64, 0x64, 0x2f, 0x52, 0x65, 0x61,
  0x64, 0x56, 0x61, 0x72, 0x69, 0x61, 0x62, 0x6c, 0x65, 0x4f, 0x70, 0x00,
  0x04, 0x00, 0x00, 0x00, 0x01, 0x00, 0x00, 0x00, 0x20, 0x00, 0x00, 0x00,
  0x06, 0x00, 0x00, 0x00, 0x08, 0x00, 0x00, 0x00, 0x2a, 0xe3, 0xff, 0xff,
  0x00, 0x00, 0x00, 0x01, 0x18, 0x00, 0x00, 0x00, 0x28, 0x00, 0x00, 0x00,
  0x48, 0x00, 0x00, 0x00, 0x2f, 0x00, 0x00, 0x00, 0x00, 0x00, 0x00, 0x09,
  0x60, 0x00, 0x00, 0x00, 0x04, 0x00, 0x00, 0x00, 0xff, 0xff, 0xff, 0xff,
  0x20, 0x00, 0x00, 0x00, 0x06, 0x00, 0x00, 0x00, 0x08, 0x00, 0x00, 0x00,
  0x14, 0xe3, 0xff, 0xff, 0x08, 0x00, 0x00, 0x00, 0x14, 0x00, 0x00, 0x00,
  0x01, 0x00, 0x00, 0x00, 0x88, 0xff, 0xff, 0xff, 0xff, 0xff, 0xff, 0xff,
  0x00, 0x00, 0x00, 0x00, 0x01, 0x00, 0x00, 0x00, 0xc1, 0x7f, 0x81, 0x3d,
  0x1f, 0x00, 0x00, 0x00, 0x6d, 0x6f, 0x64, 0x65, 0x6c, 0x5f, 0x31, 0x2f,
  0x6d, 0x61, 0x78, 0x5f, 0x70, 0x6f, 0x6f, 0x6c, 0x69, 0x6e, 0x67, 0x32,
  0x64, 0x5f, 0x39, 0x2f, 0x4d, 0x61, 0x78, 0x50, 0x6f, 0x6f, 0x6c, 0x00,
  0x04, 0x00, 0x00, 0x00, 0x01, 0x00, 0x00, 0x00, 0x20, 0x00, 0x00, 0x00,
  0x06, 0x00, 0x00, 0x00, 0x08, 0x00, 0x00, 0x00, 0xba, 0xe3, 0xff, 0xff,
  0x00, 0x00, 0x00, 0x01, 0x18, 0x00, 0x00, 0x00, 0x28, 0x00, 0x00, 0x00,
  0x48, 0x00, 0x00, 0x00, 0x2e, 0x00, 0x00, 0x00, 0x00, 0x00, 0x00, 0x09,
  0x70, 0x00, 0x00, 0x00, 0x04, 0x00, 0x00, 0x00, 0xff, 0xff, 0xff, 0xff,
  0x40, 0x00, 0x00, 0x00, 0x0d, 0x00, 0x00, 0x00, 0x08, 0x00, 0x00, 0x00,
  0xa4, 0xe3, 0xff, 0xff, 0x08, 0x00, 0x00, 0x00, 0x14, 0x00, 0x00, 0x00,
  0x01, 0x00, 0x00, 0x00, 0x88, 0xff, 0xff, 0xff, 0xff, 0xff, 0xff, 0xff,
  0x00, 0x00, 0x00, 0x00, 0x01, 0x00, 0x00, 0x00, 0xc1, 0x7f, 0x81, 0x3d,
  0x2f, 0x00, 0x00, 0x00, 0x6d, 0x6f, 0x64, 0x65, 0x6c, 0x5f, 0x31, 0x2f,
  0x62, 0x61, 0x74, 0x63, 0x68, 0x5f, 0x6e, 0x6f, 0x72, 0x6d, 0x61, 0x6c,
  0x69, 0x7a, 0x61, 0x74, 0x69, 0x6f, 0x6e, 0x5f, 0x39, 0x2f, 0x46, 0x75,
  0x73, 0x65, 0x64, 0x42, 0x61, 0x74, 0x63, 0x68, 0x4e, 0x6f, 0x72, 0x6d,
  0x56, 0x33, 0x33, 0x00, 0x04, 0x00, 0x00, 0x00, 0x01, 0x00, 0x00, 0x00,
  0x40, 0x00, 0x00, 0x00, 0x0d, 0x00, 0x00, 0x00, 0x08, 0x00, 0x00, 0x00,
  0x5a, 0xe4, 0xff, 0xff, 0x00, 0x00, 0x00, 0x01, 0x18, 0x00, 0x00, 0x00,
  0x28, 0x00, 0x00, 0x00, 0x48, 0x00, 0x00, 0x00, 0x2d, 0x00, 0x00, 0x00,
  0x00, 0x00, 0x00, 0x09, 0x70, 0x00, 0x00, 0x00, 0x04, 0x00, 0x00, 0x00,
  0xff, 0xff, 0xff, 0xff, 0x40, 0x00, 0x00, 0x00, 0x0d, 0x00, 0x00, 0x00,
  0x08, 0x00, 0x00, 0x00, 0x44, 0xe4, 0xff, 0xff, 0x08, 0x00, 0x00, 0x00,
  0x14, 0x00, 0x00, 0x00, 0x01, 0x00, 0x00, 0x00, 0x88, 0xff, 0xff, 0xff,
  0xff, 0xff, 0xff, 0xff, 0x00, 0x00, 0x00, 0x00, 0x01, 0x00, 0x00, 0x00,
  0xc5, 0x9e, 0x84, 0x3d, 0x2f, 0x00, 0x00, 0x00, 0x6d, 0x6f, 0x64, 0x65,
  0x6c, 0x5f, 0x31, 0x2f, 0x62, 0x61, 0x74, 0x63, 0x68, 0x5f, 0x6e, 0x6f,
  0x72, 0x6d, 0x61, 0x6c, 0x69, 0x7a, 0x61, 0x74, 0x69, 0x6f, 0x6e, 0x5f,
  0x39, 0x2f, 0x46, 0x75, 0x73, 0x65, 0x64, 0x42, 0x61, 0x74, 0x63, 0x68,
  0x4e, 0x6f, 0x72, 0x6d, 0x56, 0x33, 0x32, 0x00, 0x04, 0x00, 0x00, 0x00,
  0x01, 0x00, 0x00, 0x00, 0x40, 0x00, 0x00, 0x00, 0x0d, 0x00, 0x00, 0x00,
  0x08, 0x00, 0x00, 0x00, 0xfa, 0xe4, 0xff, 0xff, 0x00, 0x00, 0x00, 0x01,
  0x18, 0x00, 0x00, 0x00, 0x28, 0x00, 0x00, 0x00, 0x48, 0x00, 0x00, 0x00,
  0x2c, 0x00, 0x00, 0x00, 0x00, 0x00, 0x00, 0x09, 0xc8, 0x00, 0x00, 0x00,
  0x04, 0x00, 0x00, 0x00, 0xff, 0xff, 0xff, 0xff, 0x40, 0x00, 0x00, 0x00,
  0x0d, 0x00, 0x00, 0x00, 0x08, 0x00, 0x00, 0x00, 0xe4, 0xe4, 0xff, 0xff,
  0x08, 0x00, 0x00, 0x00, 0x14, 0x00, 0x00, 0x00, 0x01, 0x00, 0x00, 0x00,
  0x80, 0xff, 0xff, 0xff, 0xff, 0xff, 0xff, 0xff, 0x00, 0x00, 0x00, 0x00,
  0x01, 0x00, 0x00, 0x00, 0x92, 0x02, 0x18, 0x3f, 0x87, 0x00, 0x00, 0x00,
  0x6d, 0x6f, 0x64, 0x65, 0x6c, 0x5f, 0x31, 0x2f, 0x63, 0x6f, 0x6e, 0x76,
  0x32, 0x64, 0x5f, 0x39, 0x2f, 0x52, 0x65, 0x6c, 0x75, 0x3b, 0x6d, 0x6f,
  0x64, 0x65, 0x6c, 0x5f, 0x31, 0x2f, 0x63, 0x6f, 0x6e, 0x76, 0x32, 0x64,
  0x5f, 0x39, 0x2f, 0x42, 0x69, 0x61, 0x73, 0x41, 0x64, 0x64, 0x3b, 0x6d,
  0x6f, 0x64, 0x65, 0x6c, 0x5f, 0x31, 0x2f, 0x63, 0x6f, 0x6e, 0x76, 0x32,
  0x64, 0x5f, 0x31, 0x31, 0x2f, 0x43, 0x6f, 0x6e, 0x76, 0x32, 0x44, 0x3b,
  0x6d, 0x6f, 0x64, 0x65, 0x6c, 0x5f, 0x31, 0x2f, 0x63, 0x6f, 0x6e, 0x76,
  0x32, 0x64, 0x5f, 0x39, 0x2f, 0x43, 0x6f, 0x6e, 0x76, 0x32, 0x44, 0x3b,
  0x6d, 0x6f, 0x64, 0x65, 0x6c, 0x5f, 0x31, 0x2f, 0x63, 0x6f, 0x6e, 0x76,
  0x32, 0x64, 0x5f, 0x39, 0x2f, 0x42, 0x69, 0x61, 0x73, 0x41, 0x64, 0x64,
  0x2f, 0x52, 0x65, 0x61, 0x64, 0x56, 0x61, 0x72, 0x69, 0x61, 0x62, 0x6c,
  0x65, 0x4f, 0x70, 0x00, 0x04, 0x00, 0x00, 0x00, 0x01, 0x00, 0x00, 0x00,
  0x40, 0x00, 0x00, 0x00, 0x0d, 0x00, 0x00, 0x00, 0x08, 0x00, 0x00, 0x00,
  0xf2, 0xe5, 0xff, 0xff, 0x00, 0x00, 0x00, 0x01, 0x18, 0x00, 0x00, 0x00,
  0x28, 0x00, 0x00, 0x00, 0x48, 0x00, 0x00, 0x00, 0x2b, 0x00, 0x00, 0x00,
  0x00, 0x00, 0x00, 0x09, 0x60, 0x00, 0x00, 0x00, 0x04, 0x00, 0x00, 0x00,
  0xff, 0xff, 0xff, 0xff, 0x08, 0x00, 0x00, 0x00, 0x01, 0x00, 0x00, 0x00,
  0x08, 0x00, 0x00, 0x00, 0xdc, 0xe5, 0xff, 0xff, 0x08, 0x00, 0x00, 0x00,
  0x14, 0x00, 0x00, 0x00, 0x01, 0x00, 0x00, 0x00, 0x88, 0xff, 0xff, 0xff,
  0xff, 0xff, 0xff, 0xff, 0x00, 0x00, 0x00, 0x00, 0x01, 0x00, 0x00, 0x00,
  0x60, 0xd6, 0xdf, 0x3d, 0x1f, 0x00, 0x00, 0x00, 0x6d, 0x6f, 0x64, 0x65,
  0x6c, 0x5f, 0x31, 0x2f, 0x6d, 0x61, 0x78, 0x5f, 0x70, 0x6f, 0x6f, 0x6c,
  0x69, 0x6e, 0x67, 0x32, 0x64, 0x5f, 0x38, 0x2f, 0x4d, 0x61, 0x78, 0x50,
  0x6f, 0x6f, 0x6c, 0x00, 0x04, 0x00, 0x00, 0x00, 0x01, 0x00, 0x00, 0x00,
  0x08, 0x00, 0x00, 0x00, 0x01, 0x00, 0x00, 0x00, 0x08, 0x00, 0x00, 0x00,
  0x82, 0xe6, 0xff, 0xff, 0x00, 0x00, 0x00, 0x01, 0x18, 0x00, 0x00, 0x00,
  0x28, 0x00, 0x00, 0x00, 0x48, 0x00, 0x00, 0x00, 0x2a, 0x00, 0x00, 0x00,
  0x00, 0x00, 0x00, 0x09, 0x70, 0x00, 0x00, 0x00, 0x04, 0x00, 0x00, 0x00,
  0xff, 0xff, 0xff, 0xff, 0x10, 0x00, 0x00, 0x00, 0x03, 0x00, 0x00, 0x00,
  0x08, 0x00, 0x00, 0x00, 0x6c, 0xe6, 0xff, 0xff, 0x08, 0x00, 0x00, 0x00,
  0x14, 0x00, 0x00, 0x00, 0x01, 0x00, 0x00, 0x00, 0x88, 0xff, 0xff, 0xff,
  0xff, 0xff, 0xff, 0xff, 0x00, 0x00, 0x00, 0x00, 0x01, 0x00, 0x00, 0x00,
  0x60, 0xd6, 0xdf, 0x3d, 0x2f, 0x00, 0x00, 0x00, 0x6d, 0x6f, 0x64, 0x65,
  0x6c, 0x5f, 0x31, 0x2f, 0x62, 0x61, 0x74, 0x63, 0x68, 0x5f, 0x6e, 0x6f,
  0x72, 0x6d, 0x61, 0x6c, 0x69, 0x7a, 0x61, 0x74, 0x69, 0x6f, 0x6e, 0x5f,
  0x38, 0x2f, 0x46, 0x75, 0x73, 0x65, 0x64, 0x42, 0x61, 0x74, 0x63, 0x68,
  0x4e, 0x6f, 0x72, 0x6d, 0x56, 0x33, 0x33, 0x00, 0x04, 0x00, 0x00, 0x00,
  0x01, 0x00, 0x00, 0x00, 0x10, 0x00, 0x00, 0x00, 0x03, 0x00, 0x00, 0x00,
  0x08, 0x00, 0x00, 0x00, 0x22, 0xe7, 0xff, 0xff, 0x00, 0x00, 0x00, 0x01,
  0x18, 0x00, 0x00, 0x00, 0x28, 0x00, 0x00, 0x00, 0x48, 0x00, 0x00, 0x00,
  0x29, 0x00, 0x00, 0x00, 0x00, 0x00, 0x00, 0x09, 0x70, 0x00, 0x00, 0x00,
  0x04, 0x00, 0x00, 0x00, 0xff, 0xff, 0xff, 0xff, 0x10, 0x00, 0x00, 0x00,
  0x03, 0x00, 0x00, 0x00, 0x08, 0x00, 0x00, 0x00, 0x0c, 0xe7, 0xff, 0xff,
  0x08, 0x00, 0x00, 0x00, 0x14, 0x00, 0x00, 0x00, 0x01, 0x00, 0x00, 0x00,
  0x88, 0xff, 0xff, 0xff, 0xff, 0xff, 0xff, 0xff, 0x00, 0x00, 0x00, 0x00,
  0x01, 0x00, 0x00, 0x00, 0x1c, 0x61, 0xe3, 0x3d, 0x2f, 0x00, 0x00, 0x00,
  0x6d, 0x6f, 0x64, 0x65, 0x6c, 0x5f, 0x31, 0x2f, 0x62, 0x61, 0x74, 0x63,
  0x68, 0x5f, 0x6e, 0x6f, 0x72, 0x6d, 0x61, 0x6c, 0x69, 0x7a, 0x61, 0x74,
  0x69, 0x6f, 0x6e, 0x5f, 0x38, 0x2f, 0x46, 0x75, 0x73, 0x65, 0x64, 0x42,
  0x61, 0x74, 0x63, 0x68, 0x4e, 0x6f, 0x72, 0x6d, 0x56, 0x33, 0x32, 0x00,
  0x04, 0x00, 0x00, 0x00, 0x01, 0x00, 0x00, 0x00, 0x10, 0x00, 0x00, 0x00,
  0x03, 0x00, 0x00, 0x00, 0x08, 0x00, 0x00, 0x00, 0xc2, 0xe7, 0xff, 0xff,
  0x00, 0x00, 0x00, 0x01, 0x18, 0x00, 0x00, 0x00, 0x28, 0x00, 0x00, 0x00,
  0x48, 0x00, 0x00, 0x00, 0x28, 0x00, 0x00, 0x00, 0x00, 0x00, 0x00, 0x09,
  0xc8, 0x00, 0x00, 0x00, 0x04, 0x00, 0x00, 0x00, 0xff, 0xff, 0xff, 0xff,
  0x10, 0x00, 0x00, 0x00, 0x03, 0x00, 0x00, 0x00, 0x08, 0x00, 0x00, 0x00,
  0xac, 0xe7, 0xff, 0xff, 0x08, 0x00, 0x00, 0x00, 0x14, 0x00, 0x00, 0x00,
  0x01, 0x00, 0x00, 0x00, 0x80, 0xff, 0xff, 0xff, 0xff, 0xff, 0xff, 0xff,
  0x00, 0x00, 0x00, 0x00, 0x01, 0x00, 0x00, 0x00, 0x33, 0x25, 0xdc, 0x3d,
  0x87, 0x00, 0x00, 0x00, 0x6d, 0x6f, 0x64, 0x65, 0x6c, 0x5f, 0x31, 0x2f,
  0x63, 0x6f, 0x6e, 0x76, 0x32, 0x64, 0x5f, 0x38, 0x2f, 0x52, 0x65, 0x6c,
  0x75, 0x3b, 0x6d, 0x6f, 0x64, 0x65, 0x6c, 0x5f, 0x31, 0x2f, 0x63, 0x6f,
  0x6e, 0x76, 0x32, 0x64, 0x5f, 0x38, 0x2f, 0x42, 0x69, 0x61, 0x73, 0x41,
  0x64, 0x64, 0x3b, 0x6d, 0x6f, 0x64, 0x65, 0x6c, 0x5f, 0x31, 0x2f, 0x63,
  0x6f, 0x6e, 0x76, 0x32, 0x64, 0x5f, 0x31, 0x31, 0x2f, 0x43, 0x6f, 0x6e,
  0x76, 0x32, 0x44, 0x3b, 0x6d, 0x6f, 0x64, 0x65, 0x6c, 0x5f, 0x31, 0x2f,
  0x63, 0x6f, 0x6e, 0x76, 0x32, 0x64, 0x5f, 0x38, 0x2f, 0x43, 0x6f, 0x6e,
  0x76, 0x32, 0x44, 0x3b, 0x6d, 0x6f, 0x64, 0x65, 0x6c, 0x5f, 0x31, 0x2f,
  0x63, 0x6f, 0x6e, 0x76, 0x32, 0x64, 0x5f, 0x38, 0x2f, 0x42, 0x69, 0x61,
  0x73, 0x41, 0x64, 0x64, 0x2f, 0x52, 0x65, 0x61, 0x64, 0x56, 0x61, 0x72,
  0x69, 0x61, 0x62, 0x6c, 0x65, 0x4f, 0x70, 0x00, 0x04, 0x00, 0x00, 0x00,
  0x01, 0x00, 0x00, 0x00, 0x10, 0x00, 0x00, 0x00, 0x03, 0x00, 0x00, 0x00,
  0x08, 0x00, 0x00, 0x00, 0xba, 0xe8, 0xff, 0xff, 0x00, 0x00, 0x00, 0x01,
  0x18, 0x00, 0x00, 0x00, 0x28, 0x00, 0x00, 0x00, 0x48, 0x00, 0x00, 0x00,
  0x27, 0x00, 0x00, 0x00, 0x00, 0x00, 0x00, 0x09, 0x60, 0x00, 0x00, 0x00,
  0x04, 0x00, 0x00, 0x00, 0xff, 0xff, 0xff, 0xff, 0x10, 0x00, 0x00, 0x00,
  0x03, 0x00, 0x00, 0x00, 0x08, 0x00, 0x00, 0x00, 0xa4, 0xe8, 0xff, 0xff,
  0x08, 0x00, 0x00, 0x00, 0x14, 0x00, 0x00, 0x00, 0x01, 0x00, 0x00, 0x00,
  0x87, 0xff, 0xff, 0xff, 0xff, 0xff, 0xff, 0xff, 0x00, 0x00, 0x00, 0x00,
  0x01, 0x00, 0x00, 0x00, 0x0e, 0x17, 0xd5, 0x3d, 0x1f, 0x00, 0x00, 0x00,
  0x6d, 0x6f, 0x64, 0x65, 0x6c, 0x5f, 0x31, 0x2f, 0x6d, 0x61, 0x78, 0x5f,
  0x70, 0x6f, 0x6f, 0x6c, 0x69, 0x6e, 0x67, 0x32, 0x64, 0x5f, 0x37, 0x2f,
  0x4d, 0x61, 0x78, 0x50, 0x6f, 0x6f, 0x6c, 0x00, 0x04, 0x00, 0x00, 0x00,
  0x01, 0x00, 0x00, 0x00, 0x10, 0x00, 0x00, 0x00, 0x03, 0x00, 0x00, 0x00,
  0x08, 0x00, 0x00, 0x00, 0x4a, 0xe9, 0xff, 0xff, 0x00, 0x00, 0x00, 0x01,
  0x18, 0x00, 0x00, 0x00, 0x28, 0x00, 0x00, 0x00, 0x48, 0x00, 0x00, 0x00,
  0x26, 0x00, 0x00, 0x00, 0x00, 0x00, 0x00, 0x09, 0x70, 0x00, 0x00, 0x00,
  0x04, 0x00, 0x00, 0x00, 0xff, 0xff, 0xff, 0xff, 0x20, 0x00, 0x00, 0x00,
  0x06, 0x00, 0x00, 0x00, 0x08, 0x00, 0x00, 0x00, 0x34, 0xe9, 0xff, 0xff,
  0x08, 0x00, 0x00, 0x00, 0x14, 0x00, 0x00, 0x00, 0x01, 0x00, 0x00, 0x00,
  0x87, 0xff, 0xff, 0xff, 0xff, 0xff, 0xff, 0xff, 0x00, 0x00, 0x00, 0x00,
  0x01, 0x00, 0x00, 0x00, 0x0e, 0x17, 0xd5, 0x3d, 0x2f, 0x00, 0x00, 0x00,
  0x6d, 0x6f, 0x64, 0x65, 0x6c, 0x5f, 0x31, 0x2f, 0x62, 0x61, 0x74, 0x63,
  0x68, 0x5f, 0x6e, 0x6f, 0x72, 0x6d, 0x61, 0x6c, 0x69, 0x7a, 0x61, 0x74,
  0x69, 0x6f, 0x6e, 0x5f, 0x37, 0x2f, 0x46, 0x75, 0x73, 0x65, 0x64, 0x42,
  0x61, 0x74, 0x63, 0x68, 0x4e, 0x6f, 0x72, 0x6d, 0x56, 0x33, 0x33, 0x00,
  0x04, 0x00, 0x00, 0x00, 0x01, 0x00, 0x00, 0x00, 0x20, 0x00, 0x00, 0x00,
  0x06, 0x00, 0x00, 0x00, 0x08, 0x00, 0x00, 0x00, 0xea, 0xe9, 0xff, 0xff,
  0x00, 0x00, 0x00, 0x01, 0x18, 0x00, 0x00, 0x00, 0x28, 0x00, 0x00, 0x00,
  0x48, 0x00, 0x00, 0x00, 0x25, 0x00, 0x00, 0x00, 0x00, 0x00, 0x00, 0x09,
  0x70, 0x00, 0x00, 0x00, 0x04, 0x00, 0x00, 0x00, 0xff, 0xff, 0xff, 0xff,
  0x20, 0x00, 0x00, 0x00, 0x06, 0x00, 0x00, 0x00, 0x08, 0x00, 0x00, 0x00,
  0xd4, 0xe9, 0xff, 0xff, 0x08, 0x00, 0x00, 0x00, 0x14, 0x00, 0x00, 0x00,
  0x01, 0x00, 0x00, 0x00, 0x86, 0xff, 0xff, 0xff, 0xff, 0xff, 0xff, 0xff,
  0x00, 0x00, 0x00, 0x00, 0x01, 0x00, 0x00, 0x00, 0xe5, 0x91, 0xd9, 0x3d,
  0x2f, 0x00, 0x00, 0x00, 0x6d, 0x6f, 0x64, 0x65, 0x6c, 0x5f, 0x31, 0x2f,
  0x62, 0x61, 0x74, 0x63, 0x68, 0x5f, 0x6e, 0x6f, 0x72, 0x6d, 0x61, 0x6c,
  0x69, 0x7a, 0x61, 0x74, 0x69, 0x6f, 0x6e, 0x5f, 0x37, 0x2f, 0x46, 0x75,
  0x73, 0x65, 0x64, 0x42, 0x61, 0x74, 0x63, 0x68, 0x4e, 0x6f, 0x72, 0x6d,
  0x56, 0x33, 0x32, 0x00, 0x04, 0x00, 0x00, 0x00, 0x01, 0x00, 0x00, 0x00,
  0x20, 0x00, 0x00, 0x00, 0x06, 0x00, 0x00, 0x00, 0x08, 0x00, 0x00, 0x00,
  0x8a, 0xea, 0xff, 0xff, 0x00, 0x00, 0x00, 0x01, 0x18, 0x00, 0x00, 0x00,
  0x28, 0x00, 0x00, 0x00, 0x48, 0x00, 0x00, 0x00, 0x24, 0x00, 0x00, 0x00,
  0x00, 0x00, 0x00, 0x09, 0xc8, 0x00, 0x00, 0x00, 0x04, 0x00, 0x00, 0x00,
  0xff, 0xff, 0xff, 0xff, 0x20, 0x00, 0x00, 0x00, 0x06, 0x00, 0x00, 0x00,
  0x08, 0x00, 0x00, 0x00, 0x74, 0xea, 0xff, 0xff, 0x08, 0x00, 0x00, 0x00,
  0x14, 0x00, 0x00, 0x00, 0x01, 0x00, 0x00, 0x00, 0x80, 0xff, 0xff, 0xff,
  0xff, 0xff, 0xff, 0xff, 0x00, 0x00, 0x00, 0x00, 0x01, 0x00, 0x00, 0x00,
  0x96, 0x0f, 0xd4, 0x3d, 0x87, 0x00, 0x00, 0x00, 0x6d, 0x6f, 0x64, 0x65,
  0x6c, 0x5f, 0x31, 0x2f, 0x63, 0x6f, 0x6e, 0x76, 0x32, 0x64, 0x5f, 0x37,
  0x2f, 0x52, 0x65, 0x6c, 0x75, 0x3b, 0x6d, 0x6f, 0x64, 0x65, 0x6c, 0x5f,
  0x31, 0x2f, 0x63, 0x6f, 0x6e, 0x76, 0x32, 0x64, 0x5f, 0x37, 0x2f, 0x42,
  0x69, 0x61, 0x73, 0x41, 0x64, 0x64, 0x3b, 0x6d, 0x6f, 0x64, 0x65, 0x6c,
  0x5f, 0x31, 0x2f, 0x63, 0x6f, 0x6e, 0x76, 0x32, 0x64, 0x5f, 0x31, 0x31,
  0x2f, 0x43, 0x6f, 0x6e, 0x76, 0x32, 0x44, 0x3b, 0x6d, 0x6f, 0x64, 0x65,
  0x6c, 0x5f, 0x31, 0x2f, 0x63, 0x6f, 0x6e, 0x76, 0x32, 0x64, 0x5f, 0x37,
  0x2f, 0x43, 0x6f, 0x6e, 0x76, 0x32, 0x44, 0x3b, 0x6d, 0x6f, 0x64, 0x65,
  0x6c, 0x5f, 0x31, 0x2f, 0x63, 0x6f, 0x6e, 0x76, 0x32, 0x64, 0x5f, 0x37,
  0x2f, 0x42, 0x69, 0x61, 0x73, 0x41, 0x64, 0x64, 0x2f, 0x52, 0x65, 0x61,
  0x64, 0x56, 0x61, 0x72, 0x69, 0x61, 0x62, 0x6c, 0x65, 0x4f, 0x70, 0x00,
  0x04, 0x00, 0x00, 0x00, 0x01, 0x00, 0x00, 0x00, 0x20, 0x00, 0x00, 0x00,
  0x06, 0x00, 0x00, 0x00, 0x08, 0x00, 0x00, 0x00, 0x82, 0xeb, 0xff, 0xff,
  0x00, 0x00, 0x00, 0x01, 0x18, 0x00, 0x00, 0x00, 0x28, 0x00, 0x00, 0x00,
  0x48, 0x00, 0x00, 0x00, 0x23, 0x00, 0x00, 0x00, 0x00, 0x00, 0x00, 0x09,
  0x60, 0x00, 0x00, 0x00, 0x04, 0x00, 0x00, 0x00, 0xff, 0xff, 0xff, 0xff,
  0x20, 0x00, 0x00, 0x00, 0x06, 0x00, 0x00, 0x00, 0x08, 0x00, 0x00, 0x00,
  0x6c, 0xeb, 0xff, 0xff, 0x08, 0x00, 0x00, 0x00, 0x14, 0x00, 0x00, 0x00,
  0x01, 0x00, 0x00, 0x00, 0x84, 0xff, 0xff, 0xff, 0xff, 0xff, 0xff, 0xff,
  0x00, 0x00, 0x00, 0x00, 0x01, 0x00, 0x00, 0x00, 0x00, 0x18, 0x32, 0x3e,
  0x1f, 0x00, 0x00, 0x00, 0x6d, 0x6f, 0x64, 0x65, 0x6c, 0x5f, 0x31, 0x2f,
  0x6d, 0x61, 0x78, 0x5f, 0x70, 0x6f, 0x6f, 0x6c, 0x69, 0x6e, 0x67, 0x32,
  0x64, 0x5f, 0x36, 0x2f, 0x4d, 0x61, 0x78, 0x50, 0x6f, 0x6f, 0x6c, 0x00,
  0x04, 0x00, 0x00, 0x00, 0x01, 0x00, 0x00, 0x00, 0x20, 0x00, 0x00, 0x00,
  0x06, 0x00, 0x00, 0x00, 0x08, 0x00, 0x00, 0x00, 0x12, 0xec, 0xff, 0xff,
  0x00, 0x00, 0x00, 0x01, 0x18, 0x00, 0x00, 0x00, 0x28, 0x00, 0x00, 0x00,
  0x48, 0x00, 0x00, 0x00, 0x22, 0x00, 0x00, 0x00, 0x00, 0x00, 0x00, 0x09,
  0x70, 0x00, 0x00, 0x00, 0x04, 0x00, 0x00, 0x00, 0xff, 0xff, 0xff, 0xff,
  0x40, 0x00, 0x00, 0x00, 0x0d, 0x00, 0x00, 0x00, 0x08, 0x00, 0x00, 0x00,
  0xfc, 0xeb, 0xff, 0xff, 0x08, 0x00, 0x00, 0x00, 0x14, 0x00, 0x00, 0x00,
  0x01, 0x00, 0x00, 0x00, 0x84, 0xff, 0xff, 0xff, 0xff, 0xff, 0xff, 0xff,
  0x00, 0x00, 0x00, 0x00, 0x01, 0x00, 0x00, 0x00, 0x00, 0x18, 0x32, 0x3e,
  0x2f, 0x00, 0x00, 0x00, 0x6d, 0x6f, 0x64, 0x65, 0x6c, 0x5f, 0x31, 0x2f,
  0x62, 0x61, 0x74, 0x63, 0x68, 0x5f, 0x6e, 0x6f, 0x72, 0x6d, 0x61, 0x6c,
  0x69, 0x7a, 0x61, 0x74, 0x69, 0x6f, 0x6e, 0x5f, 0x36, 0x2f, 0x46, 0x75,
  0x73, 0x65, 0x64, 0x42, 0x61, 0x74, 0x63, 0x68, 0x4e, 0x6f, 0x72, 0x6d,
  0x56, 0x33, 0x33, 0x00, 0x04, 0x00, 0x00, 0x00, 0x01, 0x00, 0x00, 0x00,
  0x40, 0x00, 0x00, 0x00, 0x0d, 0x00, 0x00, 0x00, 0x08, 0x00, 0x00, 0x00,
  0xb2, 0xec, 0xff, 0xff, 0x00, 0x00, 0x00, 0x01, 0x18, 0x00, 0x00, 0x00,
  0x28, 0x00, 0x00, 0x00, 0x48, 0x00, 0x00, 0x00, 0x21, 0x00, 0x00, 0x00,
  0x00, 0x00, 0x00, 0x09, 0x70, 0x00, 0x00, 0x00, 0x04, 0x00, 0x00, 0x00,
  0xff, 0xff, 0xff, 0xff, 0x40, 0x00, 0x00, 0x00, 0x0d, 0x00, 0x00, 0x00,
  0x08, 0x00, 0x00, 0x00, 0x9c, 0xec, 0xff, 0xff, 0x08, 0x00, 0x00, 0x00,
  0x14, 0x00, 0x00, 0x00, 0x01, 0x00, 0x00, 0x00, 0x84, 0xff, 0xff, 0xff,
  0xff, 0xff, 0xff, 0xff, 0x00, 0x00, 0x00, 0x00, 0x01, 0x00, 0x00, 0x00,
  0x25, 0x6f, 0x32, 0x3e, 0x2f, 0x00, 0x00, 0x00, 0x6d, 0x6f, 0x64, 0x65,
  0x6c, 0x5f, 0x31, 0x2f, 0x62, 0x61, 0x74, 0x63, 0x68, 0x5f, 0x6e, 0x6f,
  0x72, 0x6d, 0x61, 0x6c, 0x69, 0x7a, 0x61, 0x74, 0x69, 0x6f, 0x6e, 0x5f,
  0x36, 0x2f, 0x46, 0x75, 0x73, 0x65, 0x64, 0x42, 0x61, 0x74, 0x63, 0x68,
  0x4e, 0x6f, 0x72, 0x6d, 0x56, 0x33, 0x32, 0x00, 0x04, 0x00, 0x00, 0x00,
  0x01, 0x00, 0x00, 0x00, 0x40, 0x00, 0x00, 0x00, 0x0d, 0x00, 0x00, 0x00,
  0x08, 0x00, 0x00, 0x00, 0x52, 0xed, 0xff, 0xff, 0x00, 0x00, 0x00, 0x01,
  0x18, 0x00, 0x00, 0x00, 0x28, 0x00, 0x00, 0x00, 0x48, 0x00, 0x00, 0x00,
  0x20, 0x00, 0x00, 0x00, 0x00, 0x00, 0x00, 0x09, 0xc8, 0x00, 0x00, 0x00,
  0x04, 0x00, 0x00, 0x00, 0xff, 0xff, 0xff, 0xff, 0x40, 0x00, 0x00, 0x00,
  0x0d, 0x00, 0x00, 0x00, 0x08, 0x00, 0x00, 0x00, 0x3c, 0xed, 0xff, 0xff,
  0x08, 0x00, 0x00, 0x00, 0x14, 0x00, 0x00, 0x00, 0x01, 0x00, 0x00, 0x00,
  0x80, 0xff, 0xff, 0xff, 0xff, 0xff, 0xff, 0xff, 0x00, 0x00, 0x00, 0x00,
  0x01, 0x00, 0x00, 0x00, 0xd7, 0xaf, 0x79, 0x3f, 0x87, 0x00, 0x00, 0x00,
  0x6d, 0x6f, 0x64, 0x65, 0x6c, 0x5f, 0x31, 0x2f, 0x63, 0x6f, 0x6e, 0x76,
  0x32, 0x64, 0x5f, 0x36, 0x2f, 0x52, 0x65, 0x6c, 0x75, 0x3b, 0x6d, 0x6f,
  0x64, 0x65, 0x6c, 0x5f, 0x31, 0x2f, 0x63, 0x6f, 0x6e, 0x76, 0x32, 0x64,
  0x5f, 0x36, 0x2f, 0x42, 0x69, 0x61, 0x73, 0x41, 0x64, 0x64, 0x3b, 0x6d,
  0x6f, 0x64, 0x65, 0x6c, 0x5f, 0x31, 0x2f, 0x63, 0x6f, 0x6e, 0x76, 0x32,
  0x64, 0x5f, 0x31, 0x31, 0x2f, 0x43, 0x6f, 0x6e, 0x76, 0x32, 0x44, 0x3b,
  0x6d, 0x6f, 0x64, 0x65, 0x6c, 0x5f, 0x31, 0x2f, 0x63, 0x6f, 0x6e, 0x76,
  0x32, 0x64, 0x5f, 0x36, 0x2f, 0x43, 0x6f, 0x6e, 0x76, 0x32, 0x44, 0x3b,
  0x6d, 0x6f, 0x64, 0x65, 0x6c, 0x5f, 0x31, 0x2f, 0x63, 0x6f, 0x6e, 0x76,
  0x32, 0x64, 0x5f, 0x36, 0x2f, 0x42, 0x69, 0x61, 0x73, 0x41, 0x64, 0x64,
  0x2f, 0x52, 0x65, 0x61, 0x64, 0x56, 0x61, 0x72, 0x69, 0x61, 0x62, 0x6c,
  0x65, 0x4f, 0x70, 0x00, 0x04, 0x00, 0x00, 0x00, 0x01, 0x00, 0x00, 0x00,
  0x40, 0x00, 0x00, 0x00, 0x0d, 0x00, 0x00, 0x00, 0x08, 0x00, 0x00, 0x00,
  0x4a, 0xee, 0xff, 0xff, 0x00, 0x00, 0x00, 0x01, 0x18, 0x00, 0x00, 0x00,
  0x28, 0x00, 0x00, 0x00, 0x48, 0x00, 0x00, 0x00, 0x1f, 0x00, 0x00, 0x00,
  0x00, 0x00, 0x00, 0x09, 0x50, 0x00, 0x00, 0x00, 0x04, 0x00, 0x00, 0x00,
  0xff, 0xff, 0xff, 0xff, 0x40, 0x00, 0x00, 0x00, 0x0d, 0x00, 0x00, 0x00,
  0x01, 0x00, 0x00, 0x00, 0x34, 0xee, 0xff, 0xff, 0x08, 0x00, 0x00, 0x00,
  0x14, 0x00, 0x00, 0x00, 0x01, 0x00, 0x00, 0x00, 0x80, 0xff, 0xff, 0xff,
  0xff, 0xff, 0xff, 0xff, 0x00, 0x00, 0x00, 0x00, 0x01, 0x00, 0x00, 0x00,
  0x00, 0x00, 0x80, 0x3f, 0x0d, 0x00, 0x00, 0x00, 0x74, 0x66, 0x6c, 0x2e,
  0x71, 0x75, 0x61, 0x6e, 0x74, 0x69, 0x7a, 0x65, 0x31, 0x00, 0x00, 0x00,
  0x04, 0x00, 0x00, 0x00, 0x01, 0x00, 0x00, 0x00, 0x40, 0x00, 0x00, 0x00,
  0x0d, 0x00, 0x00, 0x00, 0x01, 0x00, 0x00, 0x00, 0xca, 0xee, 0xff, 0xff,
  0x00, 0x00, 0x00, 0x01, 0x18, 0x00, 0x00, 0x00, 0x28, 0x00, 0x00, 0x00,
  0x48, 0x00, 0x00, 0x00, 0x1e, 0x00, 0x00, 0x00, 0x00, 0x00, 0x00, 0x09,
  0x50, 0x00, 0x00, 0x00, 0x04, 0x00, 0x00, 0x00, 0xff, 0xff, 0xff, 0xff,
  0x40, 0x00, 0x00, 0x00, 0x0d, 0x00, 0x00, 0x00, 0x01, 0x00, 0x00, 0x00,
  0xb4, 0xee, 0xff, 0xff, 0x08, 0x00, 0x00, 0x00, 0x14, 0x00, 0x00, 0x00,
  0x01, 0x00, 0x00, 0x00, 0x80, 0xff, 0xff, 0xff, 0xff, 0xff, 0xff, 0xff,
  0x00, 0x00, 0x00, 0x00, 0x01, 0x00, 0x00, 0x00, 0x00, 0x00, 0x80, 0x3f,
  0x0c, 0x00, 0x00, 0x00, 0x74, 0x66, 0x6c, 0x2e, 0x71, 0x75, 0x61, 0x6e,
  0x74, 0x69, 0x7a, 0x65, 0x00, 0x00, 0x00, 0x00, 0x04, 0x00, 0x00, 0x00,
  0x01, 0x00, 0x00, 0x00, 0x40, 0x00, 0x00, 0x00, 0x0d, 0x00, 0x00, 0x00,
  0x01, 0x00, 0x00, 0x00, 0x36, 0xf0, 0xff, 0xff, 0x00, 0x00, 0x00, 0x01,
  0x14, 0x00, 0x00, 0x00, 0x84, 0x00, 0x00, 0x00, 0x1d, 0x00, 0x00, 0x00,
  0x00, 0x00, 0x00, 0x09, 0x94, 0x00, 0x00, 0x00, 0x1c, 0xef, 0xff, 0xff,
  0x08, 0x00, 0x00, 0x00, 0x48, 0x00, 0x00, 0x00, 0x08, 0x00, 0x00, 0x00,
  0x00, 0x00, 0x00, 0x00, 0x00, 0x00, 0x00, 0x00, 0x00, 0x00, 0x00, 0x00,
  0x00, 0x00, 0x00, 0x00, 0x00, 0x00, 0x00, 0x00, 0x00, 0x00, 0x00, 0x00,
  0x00, 0x00, 0x00, 0x00, 0x00, 0x00, 0x00, 0x00, 0x00, 0x00, 0x00, 0x00,
  0x00, 0x00, 0x00, 0x00, 0x00, 0x00, 0x00, 0x00, 0x00, 0x00, 0x00, 0x00,
  0x00, 0x00, 0x00, 0x00, 0x00, 0x00, 0x00, 0x00, 0x00, 0x00, 0x00, 0x00,
  0x00, 0x00, 0x00, 0x00, 0x08, 0x00, 0x00, 0x00, 0xe0, 0x95, 0x95, 0x3a,
  0x73, 0x5d, 0xae, 0x3a, 0x8b, 0xb1, 0x95, 0x3a, 0x04, 0x46, 0xb6, 0x3a,
  0x88, 0x03, 0xa3, 0x3a, 0x6c, 0x88, 0xbd, 0x3a, 0xba, 0x69, 0xaf, 0x3a,
  0xe8, 0x1a, 0xa6, 0x3a, 0x17, 0x00, 0x00, 0x00, 0x6d, 0x6f, 0x64, 0x65,
  0x6c, 0x5f, 0x31, 0x2f, 0x63, 0x6f, 0x6e, 0x76, 0x32, 0x64, 0x5f, 0x36,
  0x2f, 0x43, 0x6f, 0x6e, 0x76, 0x32, 0x44, 0x00, 0x04, 0x00, 0x00, 0x00,
  0x08, 0x00, 0x00, 0x00, 0x07, 0x00, 0x00, 0x00, 0x07, 0x00, 0x00, 0x00,
  0x01, 0x00, 0x00, 0x00, 0xf6, 0xf0, 0xff, 0xff, 0x00, 0x00, 0x00, 0x01,
  0x14, 0x00, 0x00, 0x00, 0x88, 0x00, 0x00, 0x00, 0x1c, 0x00, 0x00, 0x00,
  0x00, 0x00, 0x00, 0x02, 0xa8, 0x00, 0x00, 0x00, 0xdc, 0xef, 0xff, 0xff,
  0x08, 0x00, 0x00, 0x00, 0x4c, 0x00, 0x00, 0x00, 0x08, 0x00, 0x00, 0x00,
  0x00, 0x00, 0x00, 0x00, 0x00, 0x00, 0x00, 0x00, 0x00, 0x00, 0x00, 0x00,
  0x00, 0x00, 0x00, 0x00, 0x00, 0x00, 0x00, 0x00, 0x00, 0x00, 0x00, 0x00,
  0x00, 0x00, 0x00, 0x00, 0x00, 0x00, 0x00, 0x00, 0x00, 0x00, 0x00, 0x00,
  0x00, 0x00, 0x00, 0x00, 0x00, 0x00, 0x00, 0x00, 0x00, 0x00, 0x00, 0x00,
  0x00, 0x00, 0x00, 0x00, 0x00, 0x00, 0x00, 0x00, 0x00, 0x00, 0x00, 0x00,
  0x00, 0x00, 0x00, 0x00, 0x00, 0x00, 0x00, 0x00, 0x08, 0x00, 0x00, 0x00,
  0xe0, 0x95, 0x95, 0x3a, 0x73, 0x5d, 0xae, 0x3a, 0x8b, 0xb1, 0x95, 0x3a,
  0x04, 0x46, 0xb6, 0x3a, 0x88, 0x03, 0xa3, 0x3a, 0x6c, 0x88, 0xbd, 0x3a,
  0xba, 0x69, 0xaf, 0x3a, 0xe8, 0x1a, 0xa6, 0x3a, 0x27, 0x00, 0x00, 0x00,
  0x6d, 0x6f, 0x64, 0x65, 0x6c, 0x5f, 0x31, 0x2f, 0x63, 0x6f, 0x6e, 0x76,
  0x32, 0x64, 0x5f, 0x36, 0x2f, 0x42, 0x69, 0x61, 0x73, 0x41, 0x64, 0x64,
  0x2f, 0x52, 0x65, 0x61, 0x64, 0x56, 0x61, 0x72, 0x69, 0x61, 0x62, 0x6c,
  0x65, 0x4f, 0x70, 0x00, 0x01, 0x00, 0x00, 0x00, 0x08, 0x00, 0x00, 0x00,
  0xbe, 0xf1, 0xff, 0xff, 0x00, 0x00, 0x00, 0x01, 0x14, 0x00, 0x00, 0x00,
  0x30, 0x00, 0x00, 0x00, 0x1b, 0x00, 0x00, 0x00, 0x00, 0x00, 0x00, 0x09,
  0x58, 0x00, 0x00, 0x00, 0xa4, 0xf0, 0xff, 0xff, 0x08, 0x00, 0x00, 0x00,
  0x10, 0x00, 0x00, 0x00, 0x01, 0x00, 0x00, 0x00, 0x80, 0xff, 0xff, 0xff,
  0xff, 0xff, 0xff, 0xff, 0x01, 0x00, 0x00, 0x00, 0x5b, 0xc5, 0x00, 0x3b,
  0x2e, 0x00, 0x00, 0x00, 0x6d, 0x6f, 0x64, 0x65, 0x6c, 0x5f, 0x31, 0x2f,
  0x62, 0x61, 0x74, 0x63, 0x68, 0x5f, 0x6e, 0x6f, 0x72, 0x6d, 0x61, 0x6c,
  0x69, 0x7a, 0x61, 0x74, 0x69, 0x6f, 0x6e, 0x5f, 0x36, 0x2f, 0x46, 0x75,
  0x73, 0x65, 0x64, 0x42, 0x61, 0x74, 0x63, 0x68, 0x4e, 0x6f, 0x72, 0x6d,
  0x56, 0x33, 0x00, 0x00, 0x01, 0x00, 0x00, 0x00, 0x08, 0x00, 0x00, 0x00,
  0x36, 0xf2, 0xff, 0xff, 0x00, 0x00, 0x00, 0x01, 0x14, 0x00, 0x00, 0x00,
  0x30, 0x00, 0x00, 0x00, 0x1a, 0x00, 0x00, 0x00, 0x00, 0x00, 0x00, 0x09,
  0x58, 0x00, 0x00, 0x00, 0x1c, 0xf1, 0xff, 0xff, 0x08, 0x00, 0x00, 0x00,
  0x10, 0x00, 0x00, 0x00, 0x01, 0x00, 0x00, 0x00, 0x7f, 0x00, 0x00, 0x00,
  0x00, 0x00, 0x00, 0x00, 0x01, 0x00, 0x00, 0x00, 0x5d, 0x19, 0x2b, 0x3b,
  0x2f, 0x00, 0x00, 0x00, 0x6d, 0x6f, 0x64, 0x65, 0x6c, 0x5f, 0x31, 0x2f,
  0x62, 0x61, 0x74, 0x63, 0x68, 0x5f, 0x6e, 0x6f, 0x72, 0x6d, 0x61, 0x6c,
  0x69, 0x7a, 0x61, 0x74, 0x69, 0x6f, 0x6e, 0x5f, 0x36, 0x2f, 0x46, 0x75,
  0x73, 0x65, 0x64, 0x42, 0x61, 0x74, 0x63, 0x68, 0x4e, 0x6f, 0x72, 0x6d,
  0x56, 0x33, 0x31, 0x00, 0x01, 0x00, 0x00, 0x00, 0x08, 0x00, 0x00, 0x00,
  0xae, 0xf2, 0xff, 0xff, 0x00, 0x00, 0x00, 0x01, 0x14, 0x00, 0x00, 0x00,
  0x84, 0x00, 0x00, 0x00, 0x19, 0x00, 0x00, 0x00, 0x00, 0x00, 0x00, 0x09,
  0x94, 0x00, 0x00, 0x00, 0x94, 0xf1, 0xff, 0xff, 0x08, 0x00, 0x00, 0x00,
  0x48, 0x00, 0x00, 0x00, 0x08, 0x00, 0x00, 0x00, 0x00, 0x00, 0x00, 0x00,
  0x00, 0x00, 0x00, 0x00, 0x00, 0x00, 0x00, 0x00, 0x00, 0x00, 0x00, 0x00,
  0x00, 0x00, 0x00, 0x00, 0x00, 0x00, 0x00, 0x00, 0x00, 0x00, 0x00, 0x00,
  0x00, 0x00, 0x00, 0x00, 0x00, 0x00, 0x00, 0x00, 0x00, 0x00, 0x00, 0x00,
  0x00, 0x00, 0x00, 0x00, 0x00, 0x00, 0x00, 0x00, 0x00, 0x00, 0x00, 0x00,
  0x00, 0x00, 0x00, 0x00, 0x00, 0x00, 0x00, 0x00, 0x00, 0x00, 0x00, 0x00,
  0x08, 0x00, 0x00, 0x00, 0x37, 0xdc, 0xf0, 0x3a, 0xa4, 0x30, 0xd0, 0x3a,
  0x0a, 0x6b, 0xcd, 0x3a, 0xba, 0x02, 0xbc, 0x3a, 0xab, 0x6f, 0xf7, 0x3a,
  0x8d, 0x04, 0x04, 0x3b, 0xa4, 0x54, 0xff, 0x3a, 0x2c, 0x9b, 0xea, 0x3a,
  0x17, 0x00, 0x00, 0x00, 0x6d, 0x6f, 0x64, 0x65, 0x6c, 0x5f, 0x31, 0x2f,
  0x63, 0x6f, 0x6e, 0x76, 0x32, 0x64, 0x5f, 0x37, 0x2f, 0x43, 0x6f, 0x6e,
  0x76, 0x32, 0x44, 0x00, 0x04, 0x00, 0x00, 0x00, 0x08, 0x00, 0x00, 0x00,
  0x05, 0x00, 0x00, 0x00, 0x05, 0x00, 0x00, 0x00, 0x08, 0x00, 0x00, 0x00,
  0x6e, 0xf3, 0xff, 0xff, 0x00, 0x00, 0x00, 0x01, 0x14, 0x00, 0x00, 0x00,
  0x88, 0x00, 0x00, 0x00, 0x18, 0x00, 0x00, 0x00, 0x00, 0x00, 0x00, 0x02,
  0xa8, 0x00, 0x00, 0x00, 0x54, 0xf2, 0xff, 0xff, 0x08, 0x00, 0x00, 0x00,
  0x4c, 0x00, 0x00, 0x00, 0x08, 0x00, 0x00, 0x00, 0x00, 0x00, 0x00, 0x00,
  0x00, 0x00, 0x00, 0x00, 0x00, 0x00, 0x00, 0x00, 0x00, 0x00, 0x00, 0x00,
  0x00, 0x00, 0x00, 0x00, 0x00, 0x00, 0x00, 0x00, 0x00, 0x00, 0x00, 0x00,
  0x00, 0x00, 0x00, 0x00, 0x00, 0x00, 0x00, 0x00, 0x00, 0x00, 0x00, 0x00,
  0x00, 0x00, 0x00, 0x00, 0x00, 0x00, 0x00, 0x00, 0x00, 0x00, 0x00, 0x00,
  0x00, 0x00, 0x00, 0x00, 0x00, 0x00, 0x00, 0x00, 0x00, 0x00, 0x00, 0x00,
  0x00, 0x00, 0x00, 0x00, 0x08, 0x00, 0x00, 0x00, 0xb3, 0x8f, 0xa7, 0x39,
  0x57, 0xd5, 0x90, 0x39, 0xaf, 0xe7, 0x8e, 0x39, 0x86, 0xcb, 0x82, 0x39,
  0xd7, 0x22, 0xac, 0x39, 0x15, 0xaf, 0xb7, 0x39, 0xca, 0xa0, 0xb1, 0x39,
  0xe3, 0x35, 0xa3, 0x39, 0x27, 0x00, 0x00, 0x00, 0x6d, 0x6f, 0x64, 0x65,
  0x6c, 0x5f, 0x31, 0x2f, 0x63, 0x6f, 0x6e, 0x76, 0x32, 0x64, 0x5f, 0x37,
  0x2f, 0x42, 0x69, 0x61, 0x73, 0x41, 0x64, 0x64, 0x2f, 0x52, 0x65, 0x61,
  0x64, 0x56, 0x61, 0x72, 0x69, 0x61, 0x62, 0x6c, 0x65, 0x4f, 0x70, 0x00,
  0x01, 0x00, 0x00, 0x00, 0x08, 0x00, 0x00, 0x00, 0x36, 0xf4, 0xff, 0xff,
  0x00, 0x00, 0x00, 0x01, 0x14, 0x00, 0x00, 0x00, 0x30, 0x00, 0x00, 0x00,
  0x17, 0x00, 0x00, 0x00, 0x00, 0x00, 0x00, 0x09, 0x58, 0x00, 0x00, 0x00,
  0x1c, 0xf3, 0xff, 0xff, 0x08, 0x00, 0x00, 0x00, 0x10, 0x00, 0x00, 0x00,
  0x01, 0x00, 0x00, 0x00, 0x80, 0xff, 0xff, 0xff, 0xff, 0xff, 0xff, 0xff,
  0x01, 0x00, 0x00, 0x00, 0xed, 0xa9, 0xa2, 0x3b, 0x2e, 0x00, 0x00, 0x00,
  0x6d, 0x6f, 0x64, 0x65, 0x6c, 0x5f, 0x31, 0x2f, 0x62, 0x61, 0x74, 0x63,
  0x68, 0x5f, 0x6e, 0x6f, 0x72, 0x6d, 0x61, 0x6c, 0x69, 0x7a, 0x61, 0x74,
  0x69, 0x6f, 0x6e, 0x5f, 0x37, 0x2f, 0x46, 0x75, 0x73, 0x65, 0x64, 0x42,
  0x61, 0x74, 0x63, 0x68, 0x4e, 0x6f, 0x72, 0x6d, 0x56, 0x33, 0x00, 0x00,
  0x01, 0x00, 0x00, 0x00, 0x08, 0x00, 0x00, 0x00, 0xae, 0xf4, 0xff, 0xff,
  0x00, 0x00, 0x00, 0x01, 0x14, 0x00, 0x00, 0x00, 0x30, 0x00, 0x00, 0x00,
  0x16, 0x00, 0x00, 0x00, 0x00, 0x00, 0x00, 0x09, 0x58, 0x00, 0x00, 0x00,
  0x94, 0xf3, 0xff, 0xff, 0x08, 0x00, 0x00, 0x00, 0x10, 0x00, 0x00, 0x00,
  0x01, 0x00, 0x00, 0x00, 0x7f, 0x00, 0x00, 0x00, 0x00, 0x00, 0x00, 0x00,
  0x01, 0x00, 0x00, 0x00, 0xeb, 0x49, 0x30, 0x3b, 0x2f, 0x00, 0x00, 0x00,
  0x6d, 0x6f, 0x64, 0x65, 0x6c, 0x5f, 0x31, 0x2f, 0x62, 0x61, 0x74, 0x63,
  0x68, 0x5f, 0x6e, 0x6f, 0x72, 0x6d, 0x61, 0x6c, 0x69, 0x7a, 0x61, 0x74,
  0x69, 0x6f, 0x6e, 0x5f, 0x37, 0x2f, 0x46, 0x75, 0x73, 0x65, 0x64, 0x42,
  0x61, 0x74, 0x63, 0x68, 0x4e, 0x6f, 0x72, 0x6d, 0x56, 0x33, 0x31, 0x00,
  0x01, 0x00, 0x00, 0x00, 0x08, 0x00, 0x00, 0x00, 0x26, 0xf5, 0xff, 0xff,
  0x00, 0x00, 0x00, 0x01, 0x14, 0x00, 0x00, 0x00, 0x84, 0x00, 0x00, 0x00,
  0x15, 0x00, 0x00, 0x00, 0x00, 0x00, 0x00, 0x09, 0x94, 0x00, 0x00, 0x00,
  0x0c, 0xf4, 0xff, 0xff, 0x08, 0x00, 0x00, 0x00, 0x48, 0x00, 0x00, 0x00,
  0x08, 0x00, 0x00, 0x00, 0x00, 0x00, 0x00, 0x00, 0x00, 0x00, 0x00, 0x00,
  0x00, 0x00, 0x00, 0x00, 0x00, 0x00, 0x00, 0x00, 0x00, 0x00, 0x00, 0x00,
  0x00, 0x00, 0x00, 0x00, 0x00, 0x00, 0x00, 0x00, 0x00, 0x00, 0x00, 0x00,
  0x00, 0x00, 0x00, 0x00, 0x00, 0x00, 0x00, 0x00, 0x00, 0x00, 0x00, 0x00,
  0x00, 0x00, 0x00, 0x00, 0x00, 0x00, 0x00, 0x00, 0x00, 0x00, 0x00, 0x00,
  0x00, 0x00, 0x00, 0x00, 0x00, 0x00, 0x00, 0x00, 0x08, 0x00, 0x00, 0x00,
  0xda, 0xaa, 0x0b, 0x3b, 0xd3, 0x54, 0xf5, 0x3a, 0x55, 0xd2, 0x07, 0x3b,
  0x22, 0x1d, 0x26, 0x3b, 0xb3, 0x54, 0x1d, 0x3b, 0x46, 0x0b, 0x1a, 0x3b,
  0x86, 0x98, 0x0e, 0x3b, 0xa5, 0xae, 0x17, 0x3b, 0x17, 0x00, 0x00, 0x00,
  0x6d, 0x6f, 0x64, 0x65, 0x6c, 0x5f, 0x31, 0x2f, 0x63, 0x6f, 0x6e, 0x76,
  0x32, 0x64, 0x5f, 0x38, 0x2f, 0x43, 0x6f, 0x6e, 0x76, 0x32, 0x44, 0x00,
  0x04, 0x00, 0x00, 0x00, 0x08, 0x00, 0x00, 0x00, 0x03, 0x00, 0x00, 0x00,
  0x03, 0x00, 0x00, 0x00, 0x08, 0x00, 0x00, 0x00, 0xe6, 0xf5, 0xff, 0xff,
  0x00, 0x00, 0x00, 0x01, 0x14, 0x00, 0x00, 0x00, 0x88, 0x00, 0x00, 0x00,
  0x14, 0x00, 0x00, 0x00, 0x00, 0x00, 0x00, 0x02, 0xa8, 0x00, 0x00, 0x00,
  0xcc, 0xf4, 0xff, 0xff, 0x08, 0x00, 0x00, 0x00, 0x4c, 0x00, 0x00, 0x00,
  0x08, 0x00, 0x00, 0x00, 0x00, 0x00, 0x00, 0x00, 0x00, 0x00, 0x00, 0x00,
  0x00, 0x00, 0x00, 0x00, 0x00, 0x00, 0x00, 0x00, 0x00, 0x00, 0x00, 0x00,
  0x00, 0x00, 0x00, 0x00, 0x00, 0x00, 0x00, 0x00, 0x00, 0x00, 0x00, 0x00,
  0x00, 0x00, 0x00, 0x00, 0x00, 0x00, 0x00, 0x00, 0x00, 0x00, 0x00, 0x00,
  0x00, 0x00, 0x00, 0x00, 0x00, 0x00, 0x00, 0x00, 0x00, 0x00, 0x00, 0x00,
  0x00, 0x00, 0x00, 0x00, 0x00, 0x00, 0x00, 0x00, 0x00, 0x00, 0x00, 0x00,
  0x08, 0x00, 0x00, 0x00, 0x77, 0x83, 0x68, 0x39, 0xac, 0x35, 0x4c, 0x39,
  0x78, 0x1c, 0x62, 0x39, 0x33, 0x45, 0x8a, 0x39, 0xa4, 0xf5, 0x82, 0x39,
  0x41, 0x39, 0x80, 0x39, 0x7e, 0x63, 0x6d, 0x39, 0xf1, 0x83, 0x7c, 0x39,
