const unsigned char output_spectrum_painting_model_SNR_10_tflite[] = {
  0x20, 0x00, 0x00, 0x00, 0x54, 0x46, 0x4c, 0x33, 0x00, 0x00, 0x00, 0x00,
  0x14, 0x00, 0x20, 0x00, 0x1c, 0x00, 0x18, 0x00, 0x14, 0x00, 0x10, 0x00,
  0x0c, 0x00, 0x00, 0x00, 0x08, 0x00, 0x04, 0x00, 0x14, 0x00, 0x00, 0x00,
  0x1c, 0x00, 0x00, 0x00, 0x9c, 0x00, 0x00, 0x00, 0xf4, 0x00, 0x00, 0x00,
  0x08, 0x1d, 0x00, 0x00, 0x18, 0x1d, 0x00, 0x00, 0xa0, 0x49, 0x00, 0x00,
  0x03, 0x00, 0x00, 0x00, 0x01, 0x00, 0x00, 0x00, 0x04, 0x00, 0x00, 0x00,
  0xf2, 0xe1, 0xff, 0xff, 0x0c, 0x00, 0x00, 0x00, 0x1c, 0x00, 0x00, 0x00,
  0x38, 0x00, 0x00, 0x00, 0x0f, 0x00, 0x00, 0x00, 0x73, 0x65, 0x72, 0x76,
  0x69, 0x6e, 0x67, 0x5f, 0x64, 0x65, 0x66, 0x61, 0x75, 0x6c, 0x74, 0x00,
  0x01, 0x00, 0x00, 0x00, 0x04, 0x00, 0x00, 0x00, 0x80, 0xff, 0xff, 0xff,
  0x3a, 0x00, 0x00, 0x00, 0x04, 0x00, 0x00, 0x00, 0x05, 0x00, 0x00, 0x00,
  0x64, 0x65, 0x6e, 0x73, 0x65, 0x00, 0x00, 0x00, 0x02, 0x00, 0x00, 0x00,
  0x20, 0x00, 0x00, 0x00, 0x04, 0x00, 0x00, 0x00, 0xa4, 0xff, 0xff, 0xff,
  0x01, 0x00, 0x00, 0x00, 0x04, 0x00, 0x00, 0x00, 0x07, 0x00, 0x00, 0x00,
  0x69, 0x6e, 0x70, 0x75, 0x74, 0x5f, 0x32, 0x00, 0x12, 0xe2, 0xff, 0xff,
  0x04, 0x00, 0x00, 0x00, 0x07, 0x00, 0x00, 0x00, 0x69, 0x6e, 0x70, 0x75,
  0x74, 0x5f, 0x31, 0x00, 0x02, 0x00, 0x00, 0x00, 0x34, 0x00, 0x00, 0x00,
  0x04, 0x00, 0x00, 0x00, 0xdc, 0xff, 0xff, 0xff, 0x3d, 0x00, 0x00, 0x00,
  0x04, 0x00, 0x00, 0x00, 0x13, 0x00, 0x00, 0x00, 0x43, 0x4f, 0x4e, 0x56,
  0x45, 0x52, 0x53, 0x49, 0x4f, 0x4e, 0x5f, 0x4d, 0x45, 0x54, 0x41, 0x44,
  0x41, 0x54, 0x41, 0x00, 0x08, 0x00, 0x0c, 0x00, 0x08, 0x00, 0x04, 0x00,
  0x08, 0x00, 0x00, 0x00, 0x3c, 0x00, 0x00, 0x00, 0x04, 0x00, 0x00, 0x00,
  0x13, 0x00, 0x00, 0x00, 0x6d, 0x69, 0x6e, 0x5f, 0x72, 0x75, 0x6e, 0x74,
  0x69, 0x6d, 0x65, 0x5f, 0x76, 0x65, 0x72, 0x73, 0x69, 0x6f, 0x6e, 0x00,
  0x3e, 0x00, 0x00, 0x00, 0x10, 0x1c, 0x00, 0x00, 0x08, 0x1c, 0x00, 0x00,
  0x00, 0x1c, 0x00, 0x00, 0xe8, 0x1b, 0x00, 0x00, 0xbc, 0x1b, 0x00, 0x00,
  0x2c, 0x18, 0x00, 0x00, 0x14, 0x18, 0x00, 0x00, 0xfc, 0x17, 0x00, 0x00,
  0xcc, 0x17, 0x00, 0x00, 0x7c, 0x15, 0x00, 0x00, 0x64, 0x15, 0x00, 0x00,
  0x4c, 0x15, 0x00, 0x00, 0x1c, 0x15, 0x00, 0x00, 0xcc, 0x0e, 0x00, 0x00,
  0xb4, 0x0e, 0x00, 0x00, 0x9c, 0x0e, 0x00, 0x00, 0x6c, 0x0e, 0x00, 0x00,
  0xd4, 0x0c, 0x00, 0x00, 0xbc, 0x0c, 0x00, 0x00, 0xa4, 0x0c, 0x00, 0x00,
  0x74, 0x0c, 0x00, 0x00, 0x24, 0x0a, 0x00, 0x00, 0x0c, 0x0a, 0x00, 0x00,
  0xf4, 0x09, 0x00, 0x00, 0xc4, 0x09, 0x00, 0x00, 0x74, 0x03, 0x00, 0x00,
  0x5c, 0x03, 0x00, 0x00, 0x44, 0x03, 0x00, 0x00, 0x14, 0x03, 0x00, 0x00,
  0x7c, 0x01, 0x00, 0x00, 0x74, 0x01, 0x00, 0x00, 0x6c, 0x01, 0x00, 0x00,
  0x64, 0x01, 0x00, 0x00, 0x5c, 0x01, 0x00, 0x00, 0x54, 0x01, 0x00, 0x00,
  0x4c, 0x01, 0x00, 0x00, 0x44, 0x01, 0x00, 0x00, 0x3c, 0x01, 0x00, 0x00,
  0x34, 0x01, 0x00, 0x00, 0x2c, 0x01, 0x00, 0x00, 0x24, 0x01, 0x00, 0x00,
  0x1c, 0x01, 0x00, 0x00, 0x14, 0x01, 0x00, 0x00, 0x0c, 0x01, 0x00, 0x00,
  0x04, 0x01, 0x00, 0x00, 0xfc, 0x00, 0x00, 0x00, 0xf4, 0x00, 0x00, 0x00,
  0xec, 0x00, 0x00, 0x00, 0xe4, 0x00, 0x00, 0x00, 0xdc, 0x00, 0x00, 0x00,
  0xd4, 0x00, 0x00, 0x00, 0xcc, 0x00, 0x00, 0x00, 0xc4, 0x00, 0x00, 0x00,
  0xbc, 0x00, 0x00, 0x00, 0xb4, 0x00, 0x00, 0x00, 0xac, 0x00, 0x00, 0x00,
  0xa4, 0x00, 0x00, 0x00, 0x9c, 0x00, 0x00, 0x00, 0x94, 0x00, 0x00, 0x00,
  0x8c, 0x00, 0x00, 0x00, 0x6c, 0x00, 0x00, 0x00, 0x04, 0x00, 0x00, 0x00,
  0x7e, 0xe3, 0xff, 0xff, 0x04, 0x00, 0x00, 0x00, 0x58, 0x00, 0x00, 0x00,
  0x0c, 0x00, 0x00, 0x00, 0x08, 0x00, 0x0e, 0x00, 0x08, 0x00, 0x04, 0x00,
  0x08, 0x00, 0x00, 0x00, 0x10, 0x00, 0x00, 0x00, 0x28, 0x00, 0x00, 0x00,
  0x00, 0x00, 0x06, 0x00, 0x08, 0x00, 0x04, 0x00, 0x06, 0x00, 0x00, 0x00,
  0x04, 0x00, 0x00, 0x00, 0x01, 0x00, 0x00, 0x00, 0xeb, 0x03, 0x00, 0x00,
  0x00, 0x00, 0x0a, 0x00, 0x10, 0x00, 0x0c, 0x00, 0x08, 0x00, 0x04, 0x00,
  0x0a, 0x00, 0x00, 0x00, 0x02, 0x00, 0x00, 0x00, 0x02, 0x00, 0x00, 0x00,
  0x04, 0x00, 0x00, 0x00, 0x06, 0x00, 0x00, 0x00, 0x32, 0x2e, 0x31, 0x34,
  0x2e, 0x30, 0x00, 0x00, 0xe2, 0xe3, 0xff, 0xff, 0x04, 0x00, 0x00, 0x00,
  0x10, 0x00, 0x00, 0x00, 0x31, 0x2e, 0x31, 0x34, 0x2e, 0x30, 0x00, 0x00,
  0x00, 0x00, 0x00, 0x00, 0x00, 0x00, 0x00, 0x00, 0x28, 0xba, 0xff, 0xff,
  0x2c, 0xba, 0xff, 0xff, 0x30, 0xba, 0xff, 0xff, 0x34, 0xba, 0xff, 0xff,
  0x38, 0xba, 0xff, 0xff, 0x3c, 0xba, 0xff, 0xff, 0x40, 0xba, 0xff, 0xff,
  0x44, 0xba, 0xff, 0xff, 0x48, 0xba, 0xff, 0xff, 0x4c, 0xba, 0xff, 0xff,
  0x50, 0xba, 0xff, 0xff, 0x54, 0xba, 0xff, 0xff, 0x58, 0xba, 0xff, 0xff,
  0x5c, 0xba, 0xff, 0xff, 0x60, 0xba, 0xff, 0xff, 0x64, 0xba, 0xff, 0xff,
  0x68, 0xba, 0xff, 0xff, 0x6c, 0xba, 0xff, 0xff, 0x70, 0xba, 0xff, 0xff,
  0x74, 0xba, 0xff, 0xff, 0x78, 0xba, 0xff, 0xff, 0x7c, 0xba, 0xff, 0xff,
  0x80, 0xba, 0xff, 0xff, 0x84, 0xba, 0xff, 0xff, 0x88, 0xba, 0xff, 0xff,
  0x8c, 0xba, 0xff, 0xff, 0x90, 0xba, 0xff, 0xff, 0x94, 0xba, 0xff, 0xff,
  0x98, 0xba, 0xff, 0xff, 0x9c, 0xba, 0xff, 0xff, 0x76, 0xe4, 0xff, 0xff,
  0x04, 0x00, 0x00, 0x00, 0x88, 0x01, 0x00, 0x00, 0x43, 0xb5, 0x01, 0xb2,
  0x00, 0x30, 0x00, 0x44, 0xfd, 0x4a, 0xd4, 0x19, 0x12, 0x24, 0xf0, 0xe9,
  0xe5, 0xff, 0xc7, 0x11, 0x81, 0x4c, 0xe5, 0x29, 0xef, 0x2b, 0x17, 0xd7,
  0xdf, 0xe7, 0x02, 0xf2, 0xee, 0x3a, 0xe5, 0x9e, 0xbb, 0xeb, 0xbb, 0x1a,
  0x1a, 0x0a, 0xb4, 0xca, 0x4f, 0x48, 0x56, 0x21, 0x09, 0xca, 0x7c, 0xfb,
  0x34, 0x0e, 0x04, 0x65, 0x19, 0xc4, 0x27, 0xce, 0x7b, 0xa8, 0xe2, 0xb8,
  0xaf, 0x1b, 0xd6, 0x37, 0xbf, 0x75, 0x37, 0x32, 0x23, 0xfd, 0x13, 0xb0,
  0x3d, 0x61, 0xc1, 0x9e, 0x1b, 0xa3, 0x22, 0x1f, 0x1d, 0x7f, 0x27, 0xc0,
  0xd1, 0xac, 0x25, 0x60, 0xf5, 0xfe, 0x9b, 0x38, 0xc1, 0x15, 0x05, 0xb5,
  0xe3, 0x33, 0x6e, 0x4c, 0x69, 0xc6, 0xb6, 0x81, 0xe8, 0x32, 0xba, 0x24,
  0x07, 0xf8, 0xff, 0xe7, 0x0a, 0xbd, 0xab, 0xf3, 0xd9, 0x26, 0xd2, 0x56,
  0x5d, 0xc7, 0x1e, 0x4a, 0x25, 0xbf, 0x4e, 0x31, 0x53, 0xea, 0x3b, 0xfb,
  0xb8, 0xbf, 0xfb, 0xc6, 0x16, 0xf0, 0x10, 0x11, 0x4c, 0xfa, 0x4f, 0x4b,
  0x4c, 0xc6, 0x70, 0x20, 0x7d, 0xf7, 0x69, 0x2a, 0x1c, 0x17, 0x6c, 0x69,
  0x30, 0x46, 0x41, 0x15, 0x37, 0x58, 0x0a, 0xf0, 0xf0, 0xe4, 0x3e, 0x06,
  0x7f, 0xe0, 0xfe, 0x04, 0x7b, 0x17, 0xd9, 0x74, 0x31, 0x77, 0x39, 0x9a,
  0xb2, 0x2a, 0x25, 0xb4, 0x07, 0xf3, 0xd1, 0x0f, 0xa8, 0x35, 0xa8, 0x3f,
  0xdb, 0x17, 0xb5, 0x0e, 0x0f, 0x9a, 0xae, 0x21, 0xdf, 0xb4, 0xe7, 0x16,
  0x18, 0x58, 0xd9, 0xfa, 0x0a, 0xa1, 0x87, 0x81, 0xd8, 0xd4, 0x0a, 0x21,
  0xe5, 0xf1, 0x13, 0x09, 0x04, 0x2b, 0xda, 0xff, 0xd0, 0xb2, 0xdf, 0xd3,
  0x3d, 0xd9, 0x6d, 0x60, 0x11, 0x39, 0xe1, 0x0a, 0x15, 0x31, 0x36, 0xfb,
  0xb0, 0x00, 0xe6, 0x2c, 0x44, 0xf1, 0xed, 0x3d, 0xce, 0xc4, 0xbc, 0x54,
  0x46, 0xb7, 0xa7, 0x10, 0x35, 0x98, 0xf4, 0x50, 0x1f, 0xf4, 0x2f, 0x0c,
  0x07, 0x0a, 0xf5, 0x4c, 0xe7, 0x32, 0xfd, 0xfc, 0xd3, 0xc3, 0xb3, 0x35,
  0x51, 0xce, 0xfb, 0x34, 0xc0, 0x0d, 0x55, 0x81, 0xd6, 0xe1, 0x96, 0x39,
  0x44, 0x44, 0x2b, 0x3a, 0xad, 0xa9, 0xd4, 0x10, 0xe8, 0xda, 0x26, 0xad,
  0xe9, 0xf6, 0x01, 0x08, 0xec, 0x7d, 0x5e, 0x02, 0x30, 0xc1, 0x0e, 0xcf,
  0x36, 0xfd, 0x17, 0x19, 0xaa, 0x7f, 0xfd, 0xe3, 0x5b, 0xa7, 0xaa, 0xc8,
  0x29, 0xa0, 0xc1, 0xcc, 0xcc, 0xe6, 0xb7, 0xe0, 0x36, 0x35, 0x24, 0x4e,
  0x07, 0xbe, 0x34, 0xc0, 0xde, 0x40, 0x1c, 0xdb, 0x4d, 0xb3, 0x3b, 0x5d,
  0x56, 0xbf, 0x92, 0x54, 0x5f, 0x8d, 0xc7, 0xa5, 0x14, 0x95, 0xcd, 0x23,
  0xb5, 0x6f, 0x5c, 0x7c, 0x5b, 0x3c, 0x90, 0x81, 0x93, 0x54, 0xda, 0x79,
  0x13, 0x1c, 0x9a, 0x46, 0x12, 0x25, 0x43, 0x41, 0xae, 0xf8, 0x4f, 0x12,
  0x19, 0x01, 0x1c, 0x44, 0x0a, 0xe6, 0xff, 0xff, 0x04, 0x00, 0x00, 0x00,
  0x20, 0x00, 0x00, 0x00, 0xbd, 0xff, 0xff, 0xff, 0xf2, 0xff, 0xff, 0xff,
  0xb9, 0xff, 0xff, 0xff, 0x10, 0x00, 0x00, 0x00, 0xf2, 0xff, 0xff, 0xff,
  0x35, 0x00, 0x00, 0x00, 0xf3, 0xff, 0xff, 0xff, 0x4f, 0x00, 0x00, 0x00,
  0x36, 0xe6, 0xff, 0xff, 0x04, 0x00, 0x00, 0x00, 0x08, 0x00, 0x00, 0x00,
  0x3a, 0x42, 0x19, 0xb8, 0x42, 0x51, 0x7f, 0xef, 0x4a, 0xe6, 0xff, 0xff,
  0x04, 0x00, 0x00, 0x00, 0x08, 0x00, 0x00, 0x00, 0xbf, 0x94, 0x80, 0x8d,
  0x0e, 0xb1, 0xe5, 0xa6, 0x5e, 0xe6, 0xff, 0xff, 0x04, 0x00, 0x00, 0x00,
  0x40, 0x06, 0x00, 0x00, 0xc2, 0xc7, 0x3c, 0x47, 0xe5, 0x51, 0xb2, 0x29,
  0x0e, 0x31, 0x1c, 0xbf, 0xee, 0x01, 0x65, 0x3f, 0x31, 0x42, 0x2b, 0x12,
  0xbe, 0x46, 0x02, 0xff, 0x13, 0x0a, 0x45, 0x03, 0xd7, 0x41, 0x3c, 0xc9,
  0x4c, 0xad, 0xee, 0xe0, 0x28, 0x2b, 0x6b, 0x15, 0x2e, 0x1e, 0x35, 0x33,
  0xf2, 0xcd, 0xe0, 0xe0, 0x12, 0xdc, 0x41, 0x3c, 0xf8, 0x6d, 0xe6, 0xb7,
  0x5c, 0x58, 0xee, 0x38, 0xbf, 0xae, 0xee, 0x55, 0x38, 0x01, 0x3c, 0xdb,
  0xc4, 0x5b, 0x15, 0xe5, 0x14, 0x3e, 0x63, 0x17, 0x52, 0x54, 0xdb, 0x64,
  0x4b, 0x24, 0xf6, 0x09, 0x24, 0x16, 0xd7, 0x2f, 0xf2, 0x1b, 0x20, 0x31,
  0x34, 0xfa, 0x2b, 0x2d, 0x5d, 0xc8, 0xd7, 0x1d, 0x32, 0x65, 0x1c, 0x59,
  0x35, 0xff, 0x16, 0x1b, 0x7f, 0x26, 0xe1, 0x6f, 0x3f, 0x4b, 0x75, 0x2e,
  0x10, 0xfd, 0x7e, 0x27, 0xfb, 0x4d, 0x33, 0xdd, 0xc3, 0xf3, 0xcd, 0xda,
  0x47, 0xbb, 0x05, 0x22, 0x23, 0xf9, 0xaa, 0x1d, 0xfb, 0xfa, 0x13, 0xf3,
  0xfd, 0x61, 0x30, 0xd0, 0xee, 0x29, 0xd0, 0x1c, 0x2d, 0x3e, 0xb4, 0xe3,
  0x4c, 0xbd, 0x6a, 0x66, 0xdb, 0x58, 0x92, 0x18, 0xd8, 0x22, 0x0e, 0x47,
  0x97, 0x11, 0x59, 0x33, 0x3b, 0x28, 0xe4, 0x33, 0x02, 0x35, 0x47, 0x07,
  0x3d, 0x04, 0xc4, 0xc4, 0x27, 0x11, 0x39, 0xe5, 0x59, 0x0b, 0x4e, 0xed,
  0x3a, 0x53, 0xe0, 0xf3, 0xd3, 0x25, 0xc6, 0x1f, 0x4f, 0xe7, 0x73, 0x17,
  0xbb, 0x0a, 0x0a, 0x5d, 0x50, 0x5e, 0x18, 0x20, 0xe4, 0xe3, 0xb7, 0x06,
  0xf1, 0x3b, 0x0c, 0xd5, 0x66, 0x11, 0x64, 0x35, 0xce, 0xd3, 0x19, 0x07,
  0x45, 0x57, 0x37, 0x4c, 0x21, 0x3f, 0x54, 0x10, 0x09, 0xce, 0x61, 0x3a,
  0x46, 0x0e, 0xcf, 0xb5, 0x31, 0x6a, 0xe9, 0xdf, 0x17, 0xd6, 0x3e, 0x3f,
  0xe3, 0x31, 0xc9, 0xfc, 0x43, 0x1b, 0xec, 0x16, 0xd5, 0x23, 0x1f, 0x02,
  0xa3, 0xb9, 0x2c, 0x08, 0xbb, 0xdb, 0xbc, 0x07, 0xc3, 0xbd, 0x45, 0x56,
  0x4d, 0x19, 0x04, 0x37, 0xcd, 0x39, 0x3c, 0xed, 0xf1, 0x63, 0xe6, 0xf1,
  0xe8, 0x02, 0x32, 0xbd, 0x9e, 0xf8, 0x45, 0x4b, 0xb9, 0xbb, 0x20, 0xaf,
  0x29, 0x39, 0xcb, 0x42, 0xfa, 0x89, 0xa6, 0x31, 0x57, 0x4a, 0xb6, 0x2c,
  0xc6, 0xb0, 0x27, 0x51, 0xcb, 0x12, 0x74, 0x5a, 0xf9, 0x29, 0xbd, 0xa7,
  0x6e, 0xe9, 0x06, 0xef, 0x23, 0xb1, 0xc0, 0xec, 0xc7, 0x08, 0xd8, 0x17,
  0xab, 0xde, 0xf1, 0x4c, 0xf5, 0x44, 0xf0, 0x2d, 0x56, 0xc6, 0x25, 0xd4,
  0xb7, 0x7f, 0xd9, 0xe7, 0x04, 0x10, 0x30, 0xcb, 0xf1, 0xcb, 0x38, 0xec,
  0xe2, 0x58, 0xc2, 0xca, 0x33, 0x0b, 0x47, 0xf7, 0x30, 0x01, 0x67, 0x31,
  0x71, 0xd2, 0x4a, 0xf8, 0xf5, 0x34, 0xe1, 0x29, 0xd3, 0xd9, 0x2a, 0x2a,
  0x5f, 0xdd, 0x01, 0x58, 0x06, 0xff, 0x4c, 0xe8, 0x52, 0xc2, 0x58, 0x51,
  0xee, 0x3a, 0x7e, 0x0b, 0xd2, 0x0c, 0xf1, 0xe8, 0xb8, 0x1f, 0xc8, 0xdf,
  0xf2, 0xf4, 0x41, 0x20, 0x2f, 0x13, 0x25, 0xf0, 0xdb, 0xcd, 0x01, 0x25,
  0x09, 0xd3, 0xbe, 0x33, 0xca, 0xfc, 0x23, 0xf9, 0x08, 0xc9, 0xd3, 0xc8,
  0xd8, 0xcc, 0x19, 0xc4, 0x18, 0xde, 0xf3, 0xc2, 0x23, 0xab, 0x1a, 0x20,
  0x06, 0x26, 0x37, 0xff, 0x1c, 0x06, 0x21, 0xe4, 0x21, 0xf8, 0x0e, 0xe9,
  0xd3, 0xbd, 0x3a, 0x1c, 0xac, 0xe8, 0xcd, 0x35, 0x0c, 0xb4, 0x13, 0xf7,
  0x03, 0xd6, 0xe6, 0xda, 0xf6, 0x81, 0xec, 0xd7, 0x90, 0x01, 0x25, 0x05,
  0xb3, 0xc4, 0x05, 0x1b, 0xdb, 0x1f, 0x0a, 0xdb, 0x3b, 0x27, 0xfe, 0x16,
  0x3f, 0x26, 0x1f, 0x25, 0x24, 0x0e, 0xc5, 0x15, 0xcf, 0xb8, 0x2b, 0xf0,
  0xfc, 0x00, 0xd3, 0xc6, 0x96, 0x13, 0xb5, 0xaf, 0xdb, 0xd9, 0xff, 0xe7,
  0xb3, 0x0e, 0xf1, 0x14, 0xc8, 0x23, 0xe4, 0xdc, 0xb9, 0xf4, 0xe8, 0xd0,
  0xd7, 0xdb, 0xde, 0xa8, 0xfb, 0xea, 0xcc, 0x29, 0x0d, 0xf1, 0x28, 0x09,
  0xee, 0xff, 0xf2, 0xcf, 0x14, 0x3a, 0xe2, 0xf5, 0xf6, 0x10, 0x03, 0xe7,
  0x1c, 0x07, 0xc2, 0xd3, 0x00, 0x0e, 0x1d, 0xdc, 0xcf, 0xf2, 0x46, 0x31,
  0x16, 0x05, 0x0d, 0xe0, 0x13, 0x24, 0xf6, 0x1f, 0x1e, 0x1c, 0xd5, 0x2b,
  0xdf, 0x11, 0x58, 0xfc, 0x1c, 0xc3, 0x26, 0x1c, 0xd6, 0xf7, 0x2c, 0x25,
  0xc1, 0xe6, 0xb9, 0xf7, 0xc0, 0xf9, 0x16, 0x10, 0x1f, 0x31, 0xd9, 0x38,
  0x0e, 0x26, 0x0d, 0xe7, 0xdd, 0x0f, 0x10, 0x2d, 0x21, 0xe7, 0x72, 0x29,
  0x0b, 0x5e, 0xf2, 0x52, 0xfd, 0x55, 0x3d, 0xd1, 0x51, 0x0d, 0x4d, 0xfe,
  0x2f, 0xc9, 0xf7, 0xed, 0xfd, 0x24, 0x11, 0xbc, 0x2e, 0x0d, 0xb8, 0x40,
  0xf7, 0x8a, 0xa3, 0xaa, 0x47, 0xe4, 0xc4, 0xb7, 0x45, 0x1a, 0x46, 0x42,
  0x15, 0xf9, 0x2b, 0xae, 0x1d, 0x5f, 0x30, 0xdf, 0x0a, 0x7f, 0x1d, 0x7b,
  0x1b, 0xe6, 0x5a, 0xc6, 0x3c, 0x3f, 0xce, 0x0e, 0x2b, 0xe9, 0xb7, 0xf3,
  0xad, 0x22, 0xd1, 0x57, 0xfb, 0x13, 0x00, 0xa4, 0x12, 0x8a, 0xf9, 0x29,
  0xdd, 0x53, 0xc1, 0x05, 0x67, 0x23, 0xde, 0x50, 0xe2, 0x18, 0x33, 0x18,
  0x56, 0x0a, 0x1a, 0x39, 0xd5, 0x11, 0x0d, 0xea, 0xd8, 0xbe, 0x82, 0x25,
  0x15, 0xfa, 0xcd, 0xe4, 0x04, 0x03, 0xe3, 0xf3, 0x0d, 0xf9, 0x0f, 0xd1,
  0xfc, 0xde, 0xc8, 0xc2, 0xb1, 0x60, 0xfd, 0xd4, 0xe4, 0xc6, 0xe2, 0x37,
  0xb9, 0xf6, 0xda, 0x4b, 0xd5, 0x92, 0x18, 0x04, 0x2e, 0x12, 0xbd, 0x39,
  0xb1, 0xe1, 0xeb, 0xc6, 0x23, 0x4c, 0x26, 0x55, 0x09, 0x3a, 0xea, 0xa7,
  0xd7, 0x4c, 0xdf, 0x15, 0xaf, 0xdc, 0x09, 0xc2, 0x8f, 0xf5, 0xb6, 0x04,
  0xef, 0x2a, 0xe9, 0xbd, 0x18, 0x51, 0xc3, 0xd4, 0x8b, 0x18, 0xa5, 0x66,
  0x38, 0xed, 0x24, 0x62, 0xe0, 0xb8, 0xb5, 0x9b, 0xfa, 0xab, 0x36, 0xe9,
  0x57, 0x1b, 0x04, 0x42, 0x72, 0xaa, 0x3b, 0xd7, 0xfc, 0x0a, 0x1d, 0x24,
  0xd5, 0xe1, 0xc7, 0x3c, 0xc1, 0xf1, 0xeb, 0x35, 0xc3, 0x1d, 0x14, 0x3a,
  0x06, 0xd5, 0x19, 0xa6, 0x20, 0x2b, 0xe5, 0xec, 0xa3, 0x13, 0x26, 0xed,
  0xdf, 0xe0, 0xeb, 0x2d, 0xf7, 0xee, 0xfe, 0x43, 0x19, 0xc8, 0x05, 0x1f,
  0x1e, 0xea, 0x41, 0x37, 0xce, 0xca, 0xce, 0xc7, 0xf7, 0x12, 0x3a, 0x35,
  0xfd, 0xd5, 0x10, 0xf1, 0x02, 0xe3, 0xd5, 0x2b, 0x1a, 0x0d, 0xec, 0x16,
  0xdc, 0x2b, 0x0c, 0xf8, 0xff, 0xd8, 0x3f, 0xe6, 0xff, 0xe8, 0xc2, 0x15,
  0x33, 0x37, 0xf3, 0xcc, 0x11, 0x11, 0x12, 0xe8, 0x18, 0xff, 0x0a, 0xfa,
  0x2a, 0x1b, 0x31, 0xe3, 0xfc, 0x01, 0xc6, 0x13, 0xba, 0xc6, 0xf7, 0xce,
  0x06, 0xe5, 0x22, 0x0e, 0xd1, 0x3d, 0x07, 0x3a, 0xfd, 0xc2, 0x2c, 0xdf,
  0x24, 0x1d, 0x13, 0xe0, 0x34, 0x40, 0xa9, 0xe1, 0xf6, 0xc2, 0x0e, 0xda,
  0x06, 0xd7, 0xd1, 0xce, 0x35, 0xb1, 0x35, 0x06, 0x95, 0x14, 0x22, 0x29,
  0xcb, 0x02, 0xf4, 0x17, 0xfe, 0x08, 0x08, 0xe4, 0xcf, 0x2a, 0xab, 0x22,
  0x26, 0xaa, 0xf2, 0x3b, 0x1b, 0xe0, 0x14, 0x1b, 0xb4, 0x3e, 0xf7, 0xed,
  0x0f, 0xf0, 0xf4, 0xb0, 0xf4, 0x20, 0x35, 0x18, 0xcb, 0xb4, 0x30, 0x37,
  0xd6, 0x11, 0xeb, 0x00, 0xcb, 0x12, 0x5a, 0xc7, 0x18, 0x0c, 0xcb, 0x15,
  0xce, 0x2e, 0x81, 0xe4, 0x21, 0x21, 0xd5, 0xe8, 0x2f, 0x21, 0x0b, 0x30,
  0x46, 0xfe, 0xd5, 0xfe, 0x16, 0xeb, 0x63, 0xeb, 0x19, 0x03, 0x66, 0x05,
  0xd6, 0x4e, 0xcf, 0xe7, 0x0b, 0x19, 0xd9, 0x30, 0xad, 0xeb, 0xd5, 0xb9,
  0xb6, 0x72, 0x38, 0xd3, 0x2b, 0x31, 0xa0, 0x41, 0x15, 0x46, 0x33, 0xd4,
  0x17, 0xc4, 0x02, 0x2a, 0xd6, 0x0a, 0x17, 0x04, 0x5b, 0xf6, 0x9b, 0xe5,
  0x00, 0x21, 0xb1, 0x3c, 0xe0, 0xf2, 0x48, 0x52, 0x1f, 0x18, 0xea, 0x45,
  0xc1, 0xe6, 0xe8, 0xcb, 0x2b, 0xaf, 0x8e, 0xc3, 0xbc, 0x46, 0xb7, 0x29,
  0xe0, 0xd1, 0xc8, 0x3b, 0x4b, 0x17, 0x1c, 0xcd, 0x33, 0xfc, 0x00, 0x23,
  0x2a, 0x81, 0x48, 0x1d, 0xf3, 0xb6, 0xf3, 0xf6, 0x96, 0x0a, 0x43, 0xe9,
  0x00, 0x06, 0x0e, 0xed, 0x4f, 0x0d, 0xd9, 0xb3, 0xe2, 0x3b, 0xc9, 0x06,
  0xd9, 0xcc, 0xd0, 0x16, 0xb4, 0xdd, 0x4a, 0x42, 0x28, 0x05, 0xf3, 0x0b,
  0xa0, 0x0c, 0x1a, 0xc3, 0xdd, 0x69, 0xca, 0x33, 0xba, 0x08, 0x44, 0x1b,
  0x6e, 0xcb, 0x41, 0x3f, 0xd8, 0x41, 0x52, 0xff, 0x29, 0x6c, 0xfe, 0x45,
  0x9f, 0x0d, 0xfb, 0x55, 0xe6, 0xaf, 0x26, 0xac, 0x75, 0x99, 0xfc, 0xdd,
  0x20, 0xd7, 0xa9, 0x27, 0xf1, 0xb6, 0x10, 0x04, 0x0a, 0xe1, 0xdc, 0x12,
  0x38, 0xca, 0xd8, 0xec, 0x32, 0x1e, 0xb2, 0x23, 0xb8, 0x05, 0x1d, 0x71,
  0x1d, 0xec, 0x33, 0x5d, 0x2a, 0x31, 0x42, 0x3b, 0xff, 0x35, 0xf7, 0x34,
  0x3d, 0x31, 0xd5, 0xec, 0xeb, 0xf4, 0xcd, 0x4c, 0x37, 0x2c, 0xe4, 0x19,
  0xff, 0x52, 0x19, 0x27, 0x02, 0x31, 0x15, 0x59, 0xc0, 0xb9, 0x09, 0xc4,
  0x09, 0xbd, 0xc6, 0xec, 0xc4, 0xfc, 0x0d, 0x39, 0x08, 0x2b, 0xfe, 0x5d,
  0xcf, 0x02, 0xca, 0x1b, 0x14, 0xb3, 0x00, 0xd6, 0x42, 0x60, 0x28, 0xc8,
  0x03, 0xcf, 0xa5, 0xde, 0xe8, 0x9e, 0xc5, 0xfe, 0xcc, 0xde, 0x20, 0x1e,
  0xf0, 0xe6, 0xd9, 0x43, 0x43, 0xc4, 0xc3, 0x08, 0xb5, 0xf3, 0x0f, 0xac,
  0x4d, 0x28, 0x38, 0xcb, 0x0f, 0x1d, 0xc6, 0xed, 0x46, 0xda, 0xb4, 0xd1,
  0x2d, 0xf5, 0xf9, 0x3c, 0x48, 0x2b, 0xd8, 0x92, 0xf7, 0x05, 0xce, 0x4d,
  0xfb, 0x62, 0x47, 0x48, 0xcc, 0x00, 0x00, 0x10, 0xc7, 0x0f, 0x01, 0x43,
  0xee, 0x2b, 0x0d, 0xb1, 0xdc, 0xd4, 0x19, 0xf3, 0xc2, 0x0e, 0x05, 0xe2,
  0xe3, 0xd8, 0x36, 0x24, 0xcf, 0xf3, 0x01, 0x22, 0xb9, 0xd0, 0x36, 0xb3,
  0xdf, 0xb7, 0x81, 0x45, 0x1c, 0x30, 0xc0, 0x16, 0xcb, 0xc2, 0x60, 0xcd,
  0x49, 0xd6, 0x18, 0xcd, 0xfe, 0x04, 0xea, 0x05, 0x14, 0x1a, 0xa5, 0x29,
  0x11, 0xde, 0xd9, 0x00, 0x07, 0x41, 0xf0, 0x1f, 0x01, 0xd5, 0x19, 0x17,
  0xcc, 0xb5, 0xe4, 0xcf, 0x20, 0x1a, 0xf8, 0xb8, 0x0e, 0x20, 0x05, 0xc0,
  0xf6, 0xec, 0x01, 0xbe, 0xe6, 0xef, 0x0b, 0xb8, 0xdb, 0xd2, 0xbb, 0xa6,
  0x52, 0xc4, 0x64, 0xf2, 0xbe, 0xfd, 0x26, 0x0a, 0x45, 0x3f, 0x04, 0xd0,
  0xbc, 0x65, 0xf0, 0x14, 0xfe, 0xb7, 0xd4, 0xd1, 0xbc, 0xb2, 0x09, 0x3d,
  0x5a, 0x3f, 0xf3, 0xb5, 0x76, 0xd7, 0xac, 0x43, 0x37, 0xb4, 0xb3, 0xe1,
  0xdc, 0xef, 0x41, 0x04, 0x16, 0x24, 0xda, 0x38, 0xcb, 0x9f, 0xda, 0xc7,
  0xda, 0xe7, 0x55, 0x0c, 0xc0, 0x15, 0x04, 0xdc, 0x23, 0xfe, 0x1e, 0x25,
  0xe5, 0x6a, 0xe3, 0x0e, 0xf1, 0x30, 0x20, 0xd8, 0x23, 0x54, 0xdb, 0x42,
  0x30, 0x40, 0xd0, 0xa9, 0x06, 0xd5, 0x3e, 0xdf, 0xff, 0x0e, 0xbc, 0xbd,
  0x39, 0xc9, 0xea, 0x19, 0xa8, 0xde, 0xe6, 0xb5, 0xbf, 0xf9, 0x3c, 0xdd,
  0xf4, 0xea, 0xca, 0xee, 0x3d, 0xa9, 0xd1, 0xa3, 0x67, 0x19, 0x7f, 0x07,
  0x2c, 0xb5, 0x09, 0xdc, 0x00, 0x2d, 0x38, 0x0d, 0xcb, 0xf4, 0xcc, 0x1d,
  0x06, 0x58, 0xf7, 0xcf, 0xfb, 0x3d, 0x29, 0xff, 0x5b, 0xc3, 0xef, 0xa7,
  0xf0, 0x53, 0xda, 0xe2, 0x58, 0xd5, 0x24, 0xb1, 0x26, 0xfd, 0x18, 0x23,
  0x07, 0x44, 0x46, 0x15, 0xdc, 0x22, 0x1c, 0xf2, 0xa7, 0x35, 0xb6, 0x1b,
  0xe6, 0x4d, 0x01, 0xea, 0x3d, 0xe3, 0xb8, 0xdf, 0xcd, 0xf9, 0x4d, 0xdb,
  0xf0, 0xfd, 0x02, 0xe3, 0x01, 0x21, 0x14, 0xe7, 0x60, 0x01, 0xd0, 0x28,
  0xfd, 0xc0, 0x09, 0xb7, 0x1d, 0x5a, 0xf5, 0x0c, 0x9c, 0xd0, 0x15, 0xc2,
  0x06, 0x1d, 0xf6, 0x0f, 0x10, 0x0f, 0x5e, 0xf5, 0x24, 0xfa, 0x3f, 0x0c,
  0x95, 0x1f, 0x29, 0xf4, 0x2e, 0xde, 0x4f, 0x3a, 0xbd, 0x14, 0x39, 0x3f,
  0x1d, 0xf0, 0xde, 0x17, 0xeb, 0x03, 0x74, 0x45, 0xaa, 0xec, 0xff, 0xff,
  0x04, 0x00, 0x00, 0x00, 0x20, 0x00, 0x00, 0x00, 0xf7, 0x03, 0x00, 0x00,
  0x0c, 0xf8, 0xff, 0xff, 0x56, 0x03, 0x00, 0x00, 0xb1, 0xff, 0xff, 0xff,
  0xdb, 0x00, 0x00, 0x00, 0xa7, 0xf9, 0xff, 0xff, 0x45, 0xfb, 0xff, 0xff,
  0xf9, 0xff, 0xff, 0xff, 0xd6, 0xec, 0xff, 0xff, 0x04, 0x00, 0x00, 0x00,
  0x08, 0x00, 0x00, 0x00, 0xad, 0xd2, 0x00, 0xe6, 0x0b, 0x0b, 0x7f, 0xd0,
  0xea, 0xec, 0xff, 0xff, 0x04, 0x00, 0x00, 0x00, 0x08, 0x00, 0x00, 0x00,
  0x80, 0xc9, 0xec, 0xd9, 0x08, 0xe3, 0x0d, 0xd9, 0xfe, 0xec, 0xff, 0xff,
  0x04, 0x00, 0x00, 0x00, 0x40, 0x02, 0x00, 0x00, 0x01, 0x2d, 0x4c, 0x9f,
  0x08, 0x20, 0x36, 0x9f, 0xd0, 0xd6, 0x1f, 0xf2, 0xbc, 0x05, 0xd0, 0x37,
  0x5d, 0xbc, 0x09, 0xe0, 0x66, 0xc3, 0x7f, 0x4e, 0x23, 0xc9, 0xfc, 0x10,
  0x45, 0x13, 0xe4, 0xff, 0x06, 0x4c, 0x15, 0xfc, 0x2a, 0xe4, 0x22, 0x3e,
  0x1f, 0xb7, 0xcf, 0x27, 0x30, 0x1f, 0x61, 0x1a, 0xc8, 0xd7, 0x63, 0xfd,
  0xd3, 0xa8, 0x23, 0xfc, 0x35, 0x26, 0xea, 0x43, 0x20, 0xf1, 0xfd, 0x03,
  0x32, 0x9a, 0x0f, 0x32, 0x26, 0xef, 0x27, 0xd4, 0xff, 0x5a, 0x07, 0x08,
  0x3a, 0x2a, 0x38, 0xc3, 0x51, 0x1b, 0x06, 0xfa, 0x0c, 0xc4, 0xe5, 0x3a,
  0xc4, 0x2e, 0x2e, 0x51, 0xc7, 0x7f, 0xfc, 0xbb, 0xd3, 0xd6, 0xe4, 0xff,
  0x07, 0xce, 0xca, 0x34, 0xf8, 0x2f, 0x10, 0x31, 0xf7, 0xfc, 0xea, 0xf6,
  0x03, 0x34, 0xcf, 0xee, 0xf7, 0x2f, 0xcd, 0x67, 0xde, 0xbd, 0x27, 0xf8,
  0xa2, 0xde, 0xf7, 0x0e, 0x1c, 0x37, 0x05, 0xbe, 0xce, 0x1b, 0xa8, 0x06,
  0xbc, 0xfa, 0xe1, 0x31, 0xc7, 0xd6, 0x1d, 0xee, 0xa9, 0xc8, 0xd7, 0x54,
  0x24, 0xb8, 0xf6, 0xc4, 0xc1, 0x4b, 0xca, 0xf6, 0x05, 0xec, 0x8f, 0xe8,
  0xdf, 0x01, 0xff, 0xf6, 0x92, 0xd9, 0x31, 0x43, 0xc2, 0x53, 0x0f, 0x6b,
  0xb8, 0xc9, 0xe9, 0x58, 0x3b, 0x2b, 0xc8, 0xbd, 0xe5, 0x40, 0x81, 0xfd,
  0x34, 0x10, 0x22, 0x32, 0x9b, 0x1a, 0x62, 0xef, 0xca, 0xba, 0xac, 0x91,
  0xd7, 0x1b, 0xb1, 0x21, 0x67, 0xa3, 0x04, 0x57, 0xc0, 0x19, 0xcf, 0xde,
  0xf7, 0x47, 0xff, 0x05, 0xcc, 0xf9, 0xca, 0x3b, 0x4a, 0xbb, 0x06, 0x37,
  0x8b, 0xb8, 0x32, 0xc5, 0x0f, 0xcd, 0xc9, 0x12, 0x3b, 0xe1, 0xe8, 0x19,
  0xb9, 0xca, 0xea, 0xb5, 0xf8, 0xb6, 0xe1, 0x19, 0x2b, 0xcc, 0x01, 0xf9,
  0xc1, 0xba, 0x3b, 0x13, 0xbf, 0x1f, 0xb8, 0x21, 0x4b, 0xf9, 0xdd, 0x44,
  0xc2, 0x81, 0x21, 0x21, 0xf4, 0xf8, 0xd8, 0x34, 0xfe, 0x35, 0xdc, 0x2d,
  0xcf, 0xe6, 0x2f, 0x14, 0xcc, 0xe9, 0xc0, 0xe2, 0x16, 0x2e, 0xff, 0x0d,
  0xac, 0xd9, 0xdc, 0xe7, 0xee, 0x08, 0x4e, 0xd9, 0xb1, 0x16, 0xb9, 0x87,
  0x2b, 0x05, 0x2e, 0x06, 0xe6, 0xd4, 0xe4, 0xc7, 0x34, 0xea, 0x34, 0xba,
  0xeb, 0xdf, 0xbf, 0xd0, 0xe9, 0xbf, 0xb3, 0x34, 0x23, 0xd1, 0xfb, 0x0e,
  0x49, 0xd6, 0x81, 0xdf, 0xa9, 0xa5, 0x35, 0x2c, 0xc6, 0xc6, 0xbe, 0x59,
  0xbd, 0xab, 0xe0, 0x14, 0x76, 0xe3, 0x18, 0x3f, 0x61, 0x03, 0xf5, 0xb1,
  0xc5, 0x2a, 0x5e, 0x3e, 0x4e, 0x9e, 0xa0, 0x8e, 0x57, 0xc2, 0xad, 0x05,
  0x18, 0xc8, 0x34, 0xfb, 0xe4, 0xaa, 0xf7, 0x33, 0x9d, 0x01, 0x07, 0xd7,
  0xb7, 0x53, 0x8b, 0x14, 0x95, 0xa7, 0xdf, 0x29, 0x31, 0x04, 0x31, 0x0e,
  0xc2, 0xaa, 0xd1, 0x47, 0x02, 0xdf, 0x53, 0xf2, 0xb4, 0x4f, 0xe3, 0xff,
  0xf3, 0xc0, 0xd3, 0x3d, 0x46, 0x89, 0xf5, 0x20, 0xf5, 0x07, 0xe9, 0x32,
  0x5c, 0x0b, 0x04, 0x9b, 0x51, 0xfe, 0x64, 0x21, 0xfd, 0x26, 0xdb, 0xb0,
  0x12, 0x46, 0x2f, 0xcf, 0xe2, 0x1b, 0x10, 0xe4, 0xb0, 0xdc, 0x2e, 0x33,
  0x4d, 0x81, 0xeb, 0x8e, 0x84, 0x9e, 0x70, 0xb9, 0x03, 0xe6, 0xce, 0x1f,
  0xd8, 0xcc, 0x08, 0x19, 0xe9, 0xfc, 0xb9, 0xf6, 0xc7, 0x0a, 0x2d, 0xd2,
  0xff, 0xd8, 0x0c, 0x07, 0x09, 0x0e, 0xc2, 0xc5, 0x31, 0x1a, 0xc0, 0x00,
  0xb5, 0x30, 0x20, 0xfc, 0x00, 0xc3, 0xc5, 0xcc, 0xe4, 0xed, 0x06, 0x0c,
  0xf0, 0x33, 0x12, 0x0b, 0xc4, 0xfe, 0xda, 0xb3, 0xe8, 0x10, 0xeb, 0x0a,
  0xe2, 0x13, 0xe2, 0x00, 0x17, 0xbd, 0xb0, 0xfc, 0xf5, 0x02, 0x0b, 0x11,
  0x1c, 0xf3, 0x01, 0x23, 0x45, 0x07, 0xb8, 0x81, 0x28, 0xfc, 0xfe, 0xfe,
  0xc2, 0xe2, 0x26, 0xd9, 0x40, 0x11, 0x2e, 0xd4, 0xbb, 0xfd, 0xe1, 0xef,
  0xfc, 0x28, 0xe4, 0xcf, 0xe7, 0xbc, 0xb6, 0xca, 0x48, 0xdd, 0x1b, 0x28,
  0xca, 0xc0, 0x36, 0xca, 0x03, 0xd8, 0x49, 0xf5, 0xb2, 0x0a, 0x01, 0x34,
  0x48, 0xdb, 0x19, 0x28, 0x81, 0x2f, 0x19, 0xdb, 0xc6, 0x40, 0x49, 0xe3,
  0xea, 0x2a, 0xf2, 0x1d, 0x4d, 0x14, 0xf9, 0xf7, 0x24, 0xec, 0xdc, 0x2a,
  0xe1, 0x2e, 0x50, 0x10, 0xc3, 0x5a, 0x0c, 0xe7, 0x4a, 0xef, 0xff, 0xff,
  0x04, 0x00, 0x00, 0x00, 0x20, 0x00, 0x00, 0x00, 0xe7, 0xfa, 0xff, 0xff,
  0x3b, 0xf8, 0xff, 0xff, 0x24, 0xfc, 0xff, 0xff, 0xe8, 0xff, 0xff, 0xff,
  0xc6, 0xfb, 0xff, 0xff, 0xc8, 0xfb, 0xff, 0xff, 0xbb, 0xfe, 0xff, 0xff,
  0x54, 0xf8, 0xff, 0xff, 0x76, 0xef, 0xff, 0xff, 0x04, 0x00, 0x00, 0x00,
  0x08, 0x00, 0x00, 0x00, 0xd3, 0xd5, 0x0c, 0x29, 0x46, 0x09, 0x7f, 0x06,
  0x8a, 0xef, 0xff, 0xff, 0x04, 0x00, 0x00, 0x00, 0x08, 0x00, 0x00, 0x00,
  0x80, 0xd9, 0x15, 0x05, 0xf3, 0x0c, 0x38, 0xb2, 0x9e, 0xef, 0xff, 0xff,
  0x04, 0x00, 0x00, 0x00, 0x88, 0x01, 0x00, 0x00, 0x47, 0xe1, 0x2c, 0x0f,
  0xa5, 0xa2, 0xfe, 0x8c, 0xab, 0x8e, 0x81, 0xb4, 0xaa, 0xe3, 0xce, 0xfa,
  0xa5, 0x19, 0x1d, 0xf4, 0x2c, 0x20, 0xc8, 0xce, 0x04, 0x15, 0xe3, 0xec,
  0x09, 0x40, 0x1c, 0x20, 0x38, 0x0a, 0xdf, 0x44, 0x14, 0xf6, 0x00, 0x26,
  0xea, 0x32, 0xc7, 0x09, 0xe9, 0x42, 0xe4, 0x34, 0x17, 0x01, 0x03, 0x02,
  0xaa, 0x99, 0xc5, 0x0a, 0x1e, 0xe1, 0x03, 0xf9, 0xdb, 0x1a, 0xf9, 0xf0,
  0x10, 0x18, 0x0c, 0x03, 0x0b, 0xea, 0xbb, 0xc7, 0xe3, 0x30, 0xe9, 0x20,
  0x0e, 0xa1, 0xab, 0x08, 0xec, 0xec, 0x13, 0xf7, 0x04, 0x18, 0xa3, 0xb7,
  0x00, 0x0a, 0xe8, 0x20, 0xf3, 0x81, 0xeb, 0x15, 0xe8, 0x25, 0xe5, 0x13,
  0x44, 0xd7, 0xb9, 0xee, 0x35, 0xed, 0x3c, 0xd0, 0xff, 0xe1, 0xde, 0x3a,
  0xae, 0xd4, 0x0c, 0x1a, 0x3b, 0x12, 0x2a, 0x0b, 0x04, 0x18, 0x1e, 0xec,
  0x3f, 0xca, 0xe2, 0xcd, 0xe0, 0xc9, 0xf1, 0x9b, 0x81, 0x35, 0xd9, 0x0a,
  0x30, 0xcb, 0xd9, 0x37, 0x2a, 0x12, 0xe3, 0xfc, 0xd9, 0x07, 0x01, 0xde,
  0x63, 0xea, 0xac, 0x12, 0x05, 0x05, 0xd3, 0x49, 0x33, 0xf8, 0x18, 0xe0,
  0xb9, 0xd8, 0x7f, 0x27, 0xa9, 0xc5, 0x19, 0x0e, 0x23, 0x36, 0xfd, 0xf1,
  0x2a, 0xf2, 0x3f, 0xbb, 0x51, 0xd8, 0xe7, 0xa9, 0xcc, 0xeb, 0xc3, 0x39,
  0x3d, 0xe7, 0x2b, 0xdb, 0x3c, 0xf0, 0x5b, 0x13, 0x9d, 0xb9, 0xbb, 0x61,
  0xe3, 0x0c, 0x06, 0x72, 0x7f, 0xfa, 0xee, 0xc5, 0xbb, 0xf1, 0x2b, 0x42,
  0xc5, 0xf2, 0xd7, 0xe3, 0x25, 0x25, 0xe6, 0x04, 0xdd, 0x9e, 0x26, 0xbf,
  0x12, 0xe4, 0x19, 0x20, 0xde, 0xf4, 0x35, 0x11, 0xd2, 0xbc, 0xed, 0x4f,
  0x13, 0xed, 0x33, 0x30, 0xee, 0x33, 0xaa, 0x06, 0xe0, 0x0d, 0x05, 0x07,
  0xbe, 0x11, 0x01, 0x0e, 0xd2, 0xd2, 0xb1, 0x90, 0x8b, 0xbb, 0xc1, 0x8c,
  0xec, 0xc7, 0xac, 0xd6, 0xec, 0xea, 0xc1, 0xd1, 0xd1, 0x04, 0xef, 0xce,
  0xd4, 0xde, 0x0f, 0x19, 0xc0, 0xde, 0xcf, 0xeb, 0x10, 0x14, 0x19, 0xdf,
  0xf3, 0x05, 0x11, 0x03, 0xc5, 0xb9, 0xb0, 0x01, 0x24, 0xdf, 0x2b, 0xe2,
  0xc0, 0x81, 0xc7, 0x52, 0x68, 0xed, 0x15, 0x8e, 0xba, 0x81, 0x20, 0x3e,
  0x22, 0xff, 0xb4, 0xb9, 0xe2, 0xe6, 0xd6, 0x42, 0xe8, 0x08, 0xac, 0x09,
  0xbc, 0x37, 0x2c, 0x57, 0xfd, 0xca, 0xd7, 0xc8, 0xd4, 0x91, 0xd1, 0x3c,
  0xda, 0xc9, 0x29, 0x18, 0xf2, 0x07, 0x61, 0x04, 0xa1, 0x13, 0x14, 0x37,
  0x08, 0x01, 0xf2, 0xcc, 0xbe, 0xf8, 0xc3, 0x49, 0xff, 0x1e, 0x12, 0x44,
  0x34, 0x4f, 0xb6, 0x4c, 0x20, 0xbc, 0xd2, 0xb2, 0xeb, 0xca, 0xfc, 0x4c,
  0x37, 0x1c, 0x32, 0x24, 0xc7, 0x2b, 0x16, 0x58, 0x18, 0x3d, 0xe0, 0x94,
  0x14, 0xeb, 0xce, 0xf6, 0x29, 0x56, 0x93, 0x04, 0x11, 0x5c, 0x4b, 0xea,
  0xcd, 0xe3, 0x7f, 0x6f, 0x32, 0xf1, 0xff, 0xff, 0x04, 0x00, 0x00, 0x00,
  0x20, 0x00, 0x00, 0x00, 0x14, 0x00, 0x00, 0x00, 0x16, 0x00, 0x00, 0x00,
  0x0b, 0x00, 0x00, 0x00, 0xfe, 0xff, 0xff, 0xff, 0x1d, 0x00, 0x00, 0x00,
  0x07, 0x00, 0x00, 0x00, 0xfd, 0xff, 0xff, 0xff, 0x13, 0x00, 0x00, 0x00,
  0x5e, 0xf1, 0xff, 0xff, 0x04, 0x00, 0x00, 0x00, 0x08, 0x00, 0x00, 0x00,
  0x98, 0xf9, 0xb2, 0x9e, 0x96, 0x7f, 0xad, 0x94, 0x72, 0xf1, 0xff, 0xff,
  0x04, 0x00, 0x00, 0x00, 0x08, 0x00, 0x00, 0x00, 0x80, 0x16, 0xfa, 0xac,
  0xd3, 0x79, 0x03, 0x9f, 0x86, 0xf1, 0xff, 0xff, 0x04, 0x00, 0x00, 0x00,
  0x40, 0x06, 0x00, 0x00, 0xfd, 0x10, 0xfd, 0xf8, 0x2a, 0x1f, 0xe5, 0xf2,
  0xdb, 0x09, 0x32, 0xd5, 0xd0, 0x29, 0x81, 0x06, 0x2a, 0x1b, 0x10, 0xea,
  0x46, 0x0f, 0xb0, 0x16, 0xbf, 0xe2, 0xcb, 0xdc, 0x1c, 0x1c, 0x08, 0xf9,
  0x28, 0x25, 0xcb, 0x03, 0xd1, 0x05, 0xd4, 0xce, 0x04, 0x3e, 0x1d, 0xca,
  0xd1, 0xf4, 0xec, 0xf2, 0x09, 0x01, 0x2e, 0xa7, 0xdc, 0x12, 0xfe, 0xfa,
  0x57, 0x52, 0xcf, 0xf0, 0x17, 0xd5, 0xf7, 0xb0, 0xea, 0xc6, 0x03, 0x3c,
  0xd9, 0xf5, 0xe8, 0xce, 0x35, 0x04, 0x13, 0xd0, 0x05, 0x03, 0xa2, 0xfb,
  0x48, 0x30, 0xd1, 0x38, 0x16, 0x0d, 0xf4, 0xe4, 0x14, 0xf7, 0xb0, 0xfd,
  0x23, 0x0a, 0xca, 0x0b, 0x2b, 0xe9, 0xf0, 0xe4, 0x39, 0x23, 0x4c, 0xe8,
  0x09, 0xd1, 0x2d, 0xb4, 0xb6, 0xe3, 0x1b, 0xf7, 0xdc, 0x33, 0x1b, 0xcf,
  0xbb, 0x15, 0xbd, 0x2a, 0x09, 0x63, 0x15, 0xe9, 0x3a, 0x12, 0x0d, 0xdd,
  0x4d, 0x20, 0x0c, 0x3b, 0xb5, 0x25, 0xff, 0xbc, 0x4d, 0x09, 0x2d, 0xf5,
  0x12, 0xe0, 0x10, 0xd6, 0x0d, 0x0a, 0xdb, 0xca, 0xdc, 0xcd, 0x21, 0xdd,
  0x26, 0xf3, 0xd7, 0x0a, 0xed, 0x24, 0xfd, 0x43, 0xee, 0x48, 0x0e, 0x02,
  0x2c, 0xf6, 0x04, 0xf0, 0xce, 0x26, 0x2c, 0x1a, 0xf7, 0xfc, 0x5a, 0x2f,
  0x2e, 0xe3, 0x28, 0xf5, 0xcf, 0x1f, 0xd0, 0xe6, 0x07, 0x35, 0xea, 0xfc,
  0x1a, 0xe5, 0xf5, 0xfc, 0x19, 0x17, 0x18, 0xf5, 0xbd, 0xcd, 0x48, 0xe4,
  0x12, 0x34, 0x1a, 0x0a, 0xe8, 0x12, 0x08, 0xdf, 0x03, 0xc4, 0xf9, 0xd2,
  0xeb, 0x13, 0xbb, 0x1a, 0xa2, 0x1b, 0x24, 0xd6, 0x2e, 0xb9, 0xa5, 0xc2,
  0x06, 0x33, 0x10, 0x3e, 0x0d, 0xe5, 0x3e, 0x24, 0x29, 0xce, 0xe4, 0x25,
  0x58, 0xa4, 0x81, 0xe2, 0xf6, 0x04, 0xfb, 0x01, 0xdb, 0x3f, 0x08, 0x27,
  0xba, 0xf1, 0xd0, 0x2a, 0x25, 0x28, 0x05, 0x40, 0x1e, 0xef, 0xdb, 0xea,
  0x11, 0x0c, 0xfd, 0xe8, 0xe8, 0xf8, 0x1a, 0x34, 0xe8, 0xef, 0xe9, 0xe9,
  0xdb, 0xda, 0xf0, 0xeb, 0xc6, 0xfa, 0x90, 0xf4, 0xfd, 0x2d, 0x3e, 0x0c,
  0xdd, 0xe3, 0xe1, 0xfb, 0xae, 0x1e, 0x3e, 0xc3, 0xc2, 0xee, 0x2a, 0x47,
  0xb8, 0xc8, 0x1f, 0xc9, 0x2b, 0x21, 0xc1, 0xcf, 0x07, 0x39, 0xd3, 0x04,
  0x18, 0xe8, 0x29, 0x4b, 0xe4, 0xe0, 0xcd, 0xeb, 0xd2, 0xe3, 0xe9, 0x0d,
  0xdf, 0x1f, 0xfe, 0xf3, 0xd2, 0x01, 0xfc, 0x15, 0xf5, 0xe9, 0xd0, 0xd1,
  0x04, 0x3a, 0x19, 0xcc, 0x43, 0x08, 0xfe, 0x09, 0x4e, 0xed, 0x32, 0xfb,
  0x1a, 0xda, 0x03, 0xdb, 0x01, 0xd2, 0x25, 0x2c, 0x3c, 0xd5, 0xdb, 0xfb,
  0xd7, 0x2f, 0xcf, 0x2d, 0xc7, 0x3c, 0x3a, 0xdb, 0xba, 0x22, 0x0c, 0xd7,
  0x1d, 0x01, 0x2d, 0xfb, 0x0b, 0xdf, 0xb7, 0xf0, 0xeb, 0x92, 0x43, 0x01,
  0x37, 0xcc, 0xc9, 0xee, 0xce, 0x2c, 0x33, 0x33, 0x29, 0xd2, 0xf8, 0x40,
  0x05, 0xd2, 0x3a, 0x16, 0xf2, 0x48, 0xd7, 0x40, 0xbc, 0x27, 0xa5, 0x07,
  0x16, 0xfa, 0x2d, 0x15, 0x0a, 0x7f, 0x4c, 0xea, 0xce, 0xc0, 0x99, 0x40,
  0xcc, 0x31, 0x21, 0x41, 0x05, 0xef, 0x04, 0x15, 0xff, 0x16, 0x0d, 0xab,
  0x15, 0x10, 0x15, 0x9e, 0x29, 0x38, 0xde, 0x03, 0xb4, 0xeb, 0xec, 0x49,
  0x17, 0x4f, 0xb5, 0x30, 0x39, 0x29, 0x1c, 0xbf, 0x05, 0x15, 0x3f, 0xcb,
  0x0e, 0x1f, 0xb9, 0x28, 0xef, 0x7f, 0x47, 0xc0, 0x18, 0xc9, 0xc0, 0xfe,
  0x16, 0x37, 0xe1, 0x03, 0x0e, 0xa6, 0x12, 0x06, 0x76, 0x0c, 0xe6, 0x08,
  0xfe, 0x20, 0xdc, 0xe5, 0xd2, 0x32, 0x58, 0x31, 0x8f, 0xbe, 0x12, 0x21,
  0x25, 0x55, 0xeb, 0x57, 0x20, 0xf6, 0xf4, 0x2a, 0xf8, 0x1b, 0xc3, 0xf1,
  0xdf, 0x6d, 0x3b, 0xb7, 0xe7, 0x20, 0x5a, 0xfb, 0xd9, 0xdf, 0xef, 0xbe,
  0xc9, 0x20, 0x2a, 0xf7, 0xf9, 0x11, 0xc2, 0xcb, 0x3f, 0x25, 0x2f, 0x2b,
  0xcf, 0xd6, 0x2c, 0x2d, 0xfb, 0x04, 0x11, 0xf3, 0x3a, 0x3b, 0xcf, 0xef,
  0xb3, 0x68, 0xcd, 0xe1, 0x3f, 0xe6, 0xa0, 0xfb, 0xee, 0x41, 0xc9, 0x0d,
  0xeb, 0x37, 0xd8, 0x34, 0x98, 0x2e, 0x2a, 0xd8, 0x23, 0x0f, 0x06, 0xff,
  0x4e, 0x52, 0xcf, 0xe4, 0xd7, 0x44, 0x26, 0x32, 0x0c, 0x10, 0x27, 0x02,
  0x45, 0xfe, 0xf0, 0x2d, 0xd0, 0x66, 0x46, 0xf1, 0xbb, 0x06, 0x96, 0x16,
  0xcb, 0xfa, 0x03, 0xd9, 0x11, 0x0c, 0x28, 0x29, 0x4e, 0x10, 0x42, 0x24,
  0x0a, 0x30, 0xf3, 0x38, 0x23, 0x3f, 0x1a, 0xa8, 0xd1, 0x12, 0x4a, 0x0c,
  0x53, 0x8d, 0x02, 0xc8, 0x2e, 0x16, 0x02, 0xd7, 0xdf, 0x01, 0x5b, 0xb9,
  0xc8, 0x43, 0xb7, 0xf1, 0x11, 0x0f, 0xc1, 0x30, 0xfd, 0x39, 0x8a, 0xbe,
  0x39, 0x36, 0xc2, 0xf1, 0xe6, 0x32, 0x38, 0xf0, 0x16, 0x61, 0xd8, 0x81,
  0xed, 0x31, 0x30, 0x2c, 0xdd, 0xf3, 0x9f, 0xb7, 0xe3, 0xfb, 0x20, 0x0c,
  0x00, 0xf6, 0x21, 0x2a, 0xb7, 0xd2, 0xe8, 0xa4, 0x19, 0x31, 0xcb, 0xde,
  0x2a, 0x66, 0x18, 0xcc, 0xda, 0xbf, 0x10, 0xca, 0xd6, 0x48, 0x5f, 0xb0,
  0x12, 0x36, 0xb8, 0xa2, 0xc6, 0x37, 0xea, 0xa5, 0xb5, 0x47, 0xb0, 0x40,
  0xd0, 0x14, 0x13, 0x0a, 0xdc, 0x0f, 0xd4, 0x39, 0xaa, 0xea, 0xc8, 0x39,
  0x56, 0x64, 0xe0, 0x9e, 0x9a, 0xbd, 0xc4, 0x18, 0x28, 0xe7, 0xe1, 0x20,
  0x16, 0xde, 0x09, 0xbf, 0x39, 0x6c, 0x50, 0x0c, 0xd8, 0x06, 0x0c, 0x4f,
  0x98, 0xfd, 0xe4, 0xc1, 0xa7, 0x26, 0xbc, 0x47, 0x21, 0x4b, 0xee, 0xca,
  0x9d, 0xdd, 0xa4, 0xdb, 0xcc, 0x76, 0xaf, 0xc8, 0xf7, 0xdf, 0xf0, 0xef,
  0x1e, 0xe9, 0xc4, 0xdd, 0xee, 0x16, 0x4a, 0xce, 0x04, 0xdc, 0x28, 0xe5,
  0x3c, 0x5c, 0xe5, 0xf5, 0xf0, 0xd1, 0xc9, 0x08, 0x01, 0x59, 0xfa, 0xd2,
  0xd7, 0x53, 0xa9, 0x2d, 0xb0, 0xfe, 0xd8, 0xd1, 0x2c, 0x42, 0x0b, 0x3c,
  0x10, 0xee, 0xbf, 0xba, 0x18, 0x6e, 0x59, 0xea, 0x40, 0xed, 0x07, 0x25,
  0xd5, 0x37, 0x11, 0xf6, 0x1a, 0xfc, 0x27, 0xe7, 0xfc, 0x0a, 0xed, 0xcb,
  0x08, 0xa9, 0x40, 0xcd, 0x1d, 0xfa, 0x28, 0x6c, 0xd4, 0x12, 0x08, 0xbd,
  0x64, 0xd6, 0xf6, 0xdc, 0xe3, 0x1a, 0x19, 0xc6, 0x23, 0x3b, 0x24, 0xe7,
  0x32, 0x5b, 0x1f, 0x39, 0xd1, 0x40, 0xaa, 0xe2, 0xfa, 0xc5, 0xdd, 0x12,
  0xe5, 0x37, 0x33, 0x9e, 0xf8, 0xc5, 0x02, 0xa7, 0x0c, 0x17, 0x2d, 0x27,
  0xe6, 0x2b, 0x3a, 0xfe, 0x38, 0xfd, 0x2f, 0x08, 0xaa, 0xd1, 0x2f, 0xe7,
  0x1b, 0x29, 0xf7, 0xe2, 0x20, 0xdf, 0x0a, 0xd9, 0x0f, 0x33, 0xd3, 0x0f,
  0x03, 0xd2, 0x2e, 0x18, 0xe9, 0x37, 0x38, 0x02, 0xdf, 0x0a, 0x58, 0xde,
  0x48, 0xca, 0xf1, 0x7c, 0x09, 0x81, 0xe0, 0xf0, 0xcd, 0xd4, 0x36, 0xb0,
  0xfc, 0x4d, 0x01, 0x11, 0xea, 0x65, 0xea, 0xa8, 0x09, 0x1d, 0x3a, 0xc4,
  0xe3, 0x11, 0xe1, 0x29, 0xd6, 0xfa, 0xb9, 0xbf, 0x2d, 0x25, 0x3a, 0xd9,
  0xe3, 0xcb, 0x19, 0xf8, 0xde, 0x2a, 0xf5, 0x2e, 0x29, 0xfd, 0x07, 0x24,
  0xb7, 0x06, 0xb4, 0xd1, 0x2c, 0xf8, 0xdc, 0xcb, 0xe8, 0x01, 0xf2, 0xc2,
  0x0e, 0xdc, 0x60, 0xc1, 0xcd, 0x39, 0xe1, 0x12, 0x2b, 0x2d, 0xea, 0xf7,
  0x22, 0x29, 0x34, 0x26, 0xf3, 0xe0, 0xdc, 0x23, 0xff, 0xc5, 0xbc, 0x3a,
  0xc4, 0xcb, 0x0e, 0xbb, 0x0e, 0x1e, 0xea, 0x04, 0xa5, 0xf3, 0xe0, 0x23,
  0x44, 0xcd, 0xff, 0xfe, 0x45, 0xe1, 0x42, 0x15, 0x06, 0x2e, 0xf0, 0x02,
  0x0b, 0xe7, 0xd7, 0xd4, 0x31, 0xd3, 0xe8, 0x53, 0xe1, 0x12, 0xe2, 0x3c,
  0x34, 0xbb, 0xdf, 0x17, 0x52, 0x10, 0xeb, 0xe7, 0x25, 0xef, 0x9b, 0xda,
  0x3b, 0xcd, 0xeb, 0x00, 0xd2, 0x2c, 0x0e, 0xf9, 0xb4, 0x1b, 0xd9, 0x0e,
  0xff, 0x3f, 0xc0, 0xed, 0x27, 0xfd, 0x9a, 0x11, 0xf5, 0x00, 0x06, 0x3c,
  0x1e, 0xc7, 0xd7, 0xd7, 0x23, 0x3a, 0x4a, 0xe2, 0xf6, 0xbb, 0x18, 0xec,
  0xec, 0xdf, 0x40, 0x09, 0xd7, 0xf3, 0x26, 0x1e, 0x22, 0x2b, 0x25, 0x43,
  0xb1, 0x48, 0x03, 0xc2, 0x45, 0xf0, 0x21, 0x06, 0x22, 0xc3, 0xd8, 0x03,
  0x50, 0xdb, 0x3d, 0xe7, 0xf1, 0xdf, 0x12, 0xd1, 0x30, 0xff, 0xbf, 0x0b,
  0xea, 0x2b, 0xbd, 0x04, 0xcc, 0x32, 0xee, 0xd4, 0xc4, 0x3b, 0xe4, 0xa4,
  0xf7, 0x29, 0x21, 0x03, 0x27, 0x09, 0xbf, 0xd3, 0x41, 0x0f, 0x85, 0xba,
  0x2f, 0xcf, 0x13, 0x0b, 0xd0, 0xf0, 0xee, 0xeb, 0x2c, 0x09, 0xda, 0xa3,
  0xef, 0x81, 0xe5, 0xea, 0xfa, 0x12, 0xee, 0xe4, 0x06, 0xeb, 0x05, 0x13,
  0xe8, 0x69, 0xf1, 0xbd, 0xe9, 0x1e, 0x37, 0xcc, 0xf7, 0x47, 0xf3, 0xb7,
  0x3b, 0x52, 0x5f, 0xe9, 0x25, 0xae, 0xe5, 0x09, 0x48, 0xb6, 0xda, 0x04,
  0xc5, 0xdd, 0xf0, 0xa6, 0x08, 0xdb, 0xcf, 0x24, 0x0c, 0x1b, 0xc7, 0xf0,
  0xdd, 0xe2, 0x34, 0xad, 0x29, 0x5a, 0xee, 0xd2, 0x3f, 0x3b, 0x33, 0x48,
  0x2b, 0x1b, 0xea, 0xb6, 0x16, 0xbf, 0xfd, 0x1c, 0xd7, 0x16, 0x03, 0x24,
  0x45, 0x49, 0x0a, 0x0b, 0xfb, 0xf1, 0xde, 0xf1, 0x23, 0x0a, 0xe7, 0xf8,
  0x1a, 0x38, 0xee, 0xc1, 0x20, 0xeb, 0x02, 0xe8, 0xe1, 0xba, 0xd2, 0x24,
  0x36, 0xe9, 0xc1, 0xed, 0xed, 0x82, 0xda, 0x06, 0x15, 0xf8, 0x23, 0x32,
  0xa3, 0xde, 0xff, 0xf8, 0xf9, 0x00, 0xce, 0x18, 0x39, 0xcd, 0x10, 0x39,
  0x3e, 0xd1, 0xfa, 0x26, 0x0e, 0xf5, 0x24, 0xe2, 0x2a, 0x9b, 0x1b, 0x2e,
  0xc7, 0x29, 0x81, 0x0f, 0x3e, 0x03, 0x0b, 0xbe, 0x0a, 0xa5, 0xb1, 0x13,
  0x17, 0x0f, 0x1f, 0x39, 0x25, 0xc1, 0x20, 0x26, 0xf0, 0x5b, 0xfc, 0xe6,
  0x24, 0x0a, 0x33, 0x01, 0xea, 0x17, 0xcb, 0xc4, 0xeb, 0xff, 0x6a, 0xf6,
  0x3f, 0x0f, 0xe4, 0x41, 0xfc, 0xfa, 0x0e, 0xfb, 0x24, 0x24, 0x11, 0x94,
  0x44, 0xde, 0xb9, 0x11, 0xfb, 0x19, 0xc6, 0x3f, 0x2f, 0x40, 0x0c, 0x34,
  0x39, 0xf0, 0x11, 0x06, 0x0b, 0x1e, 0x00, 0xe7, 0x19, 0xfe, 0xf2, 0x38,
  0xbd, 0xd6, 0xef, 0xe0, 0x3a, 0xe7, 0x24, 0x4b, 0xe0, 0xcc, 0x0d, 0x3d,
  0x24, 0x3f, 0x29, 0xb2, 0x19, 0x21, 0xd7, 0x27, 0xf2, 0xfd, 0x15, 0x62,
  0xc4, 0x18, 0x10, 0x4d, 0xda, 0x20, 0x17, 0x3a, 0x1e, 0xbd, 0xc6, 0x03,
  0x1a, 0xee, 0xff, 0x2e, 0x16, 0x16, 0xf3, 0xd8, 0xf7, 0x06, 0x30, 0x3d,
  0x24, 0xfc, 0x06, 0x19, 0x3a, 0xf8, 0xeb, 0xdb, 0x14, 0x19, 0xff, 0x14,
  0xf5, 0x1a, 0x0a, 0x0c, 0xfb, 0xff, 0xf4, 0x20, 0x07, 0xee, 0x23, 0xdb,
  0xe1, 0x1b, 0xf3, 0x04, 0x02, 0x0b, 0xf2, 0xe7, 0x1b, 0x0c, 0x17, 0xf5,
  0x02, 0xe2, 0x15, 0x09, 0xee, 0x1c, 0xf3, 0xec, 0xfd, 0xfe, 0x04, 0x15,
  0x0c, 0x04, 0x02, 0x09, 0xfd, 0x0c, 0x12, 0x13, 0xda, 0x09, 0x0f, 0x19,
  0xfe, 0xfc, 0xfc, 0x0e, 0xdd, 0xf7, 0x09, 0xe0, 0x09, 0x17, 0xf6, 0x13,
  0xfb, 0xb1, 0x0e, 0x20, 0x04, 0xfb, 0x13, 0x09, 0x08, 0xf4, 0x01, 0x01,
  0x06, 0xec, 0xe8, 0xe6, 0x02, 0xc8, 0x06, 0xe0, 0xee, 0x07, 0xff, 0x00,
  0xf2, 0xb3, 0xf9, 0x0b, 0xf9, 0xd1, 0xed, 0xd6, 0x03, 0xf6, 0xef, 0xe3,
  0x1e, 0x25, 0xce, 0x24, 0x05, 0xd3, 0x18, 0xed, 0x14, 0xeb, 0xd5, 0xe2,
  0x0d, 0xf5, 0xe6, 0xe9, 0x21, 0xc7, 0x05, 0xeb, 0x08, 0xcd, 0x10, 0xb9,
  0x05, 0xfc, 0xe2, 0xde, 0xd9, 0xc4, 0x11, 0x07, 0x1a, 0xbb, 0xf4, 0xf2,
  0xe2, 0xe9, 0xad, 0xf5, 0x01, 0xbd, 0xdd, 0x16, 0x0a, 0xc8, 0xf7, 0xec,
  0xef, 0xeb, 0xb7, 0xee, 0xe6, 0xb2, 0xd2, 0xba, 0xcb, 0x81, 0xbc, 0xe0,
  0xc9, 0xef, 0xe0, 0xcc, 0x0a, 0x03, 0x00, 0x1c, 0xe0, 0x08, 0xdb, 0xfc,
  0xd1, 0x21, 0xf5, 0x2c, 0x17, 0xfd, 0xcc, 0xee, 0xf4, 0xed, 0xf6, 0x1c,
  0xf6, 0xdb, 0x0b, 0x05, 0xf5, 0xd4, 0x0a, 0xef, 0xfc, 0xee, 0x0d, 0x0b,
  0xf0, 0xfa, 0xe9, 0xd6, 0xda, 0x03, 0xf7, 0xdc, 0xd2, 0xf7, 0xff, 0xff,
  0x04, 0x00, 0x00, 0x00, 0x20, 0x00, 0x00, 0x00, 0x52, 0x00, 0x00, 0x00,
  0x21, 0x02, 0x00, 0x00, 0xbf, 0xf8, 0xff, 0xff, 0x28, 0x01, 0x00, 0x00,
  0x9b, 0x02, 0x00, 0x00, 0x78, 0xf9, 0xff, 0xff, 0xe9, 0xf9, 0xff, 0xff,
  0x86, 0xfb, 0xff, 0xff, 0xfe, 0xf7, 0xff, 0xff, 0x04, 0x00, 0x00, 0x00,
  0x08, 0x00, 0x00, 0x00, 0xe3, 0x03, 0xd5, 0xed, 0xeb, 0x06, 0xdf, 0x7f,
  0x12, 0xf8, 0xff, 0xff, 0x04, 0x00, 0x00, 0x00, 0x08, 0x00, 0x00, 0x00,
  0xe3, 0x1b, 0x80, 0xd2, 0x0e, 0xd2, 0xd2, 0xec, 0x26, 0xf8, 0xff, 0xff,
  0x04, 0x00, 0x00, 0x00, 0x40, 0x02, 0x00, 0x00, 0x0b, 0xc2, 0x29, 0xf4,
  0xae, 0x0c, 0x33, 0xff, 0x20, 0xd9, 0x1f, 0xfa, 0x3d, 0xd0, 0xc6, 0x9a,
  0x38, 0x00, 0xfe, 0x22, 0xb2, 0x22, 0xb4, 0x81, 0xf5, 0xee, 0xad, 0x06,
  0xb5, 0x2d, 0x02, 0xce, 0xf3, 0x93, 0xf6, 0xb4, 0xc2, 0xb4, 0xc1, 0xe8,
  0xed, 0x49, 0x2d, 0x9f, 0xac, 0xc4, 0xb5, 0x8b, 0xdb, 0xc0, 0xd1, 0x12,
  0xa6, 0x0b, 0x22, 0xd3, 0xa2, 0x17, 0xff, 0xee, 0xee, 0x25, 0xbf, 0xf8,
  0x45, 0x34, 0x2e, 0xd3, 0x09, 0x04, 0xe1, 0x11, 0xd9, 0x03, 0x3e, 0x14,
  0x09, 0xa5, 0x34, 0x14, 0x2e, 0x25, 0x4a, 0x1c, 0x0c, 0x28, 0x24, 0x21,
  0xcb, 0xc7, 0x81, 0x10, 0xa5, 0x1e, 0x3f, 0xe7, 0x24, 0xa9, 0xd7, 0x17,
  0x99, 0xec, 0x5a, 0xf9, 0x0a, 0x05, 0xc8, 0x27, 0xc2, 0x18, 0x9b, 0x19,
  0x96, 0x1e, 0xae, 0xf4, 0xbf, 0xaf, 0x26, 0xb3, 0x6a, 0x1a, 0xd2, 0x12,
  0x2b, 0x0a, 0xef, 0x33, 0xf7, 0xcb, 0xbe, 0xf4, 0xc4, 0x72, 0xa9, 0xc7,
  0xed, 0x23, 0x2a, 0xc2, 0x0f, 0xdd, 0x0d, 0x1e, 0x27, 0x06, 0x29, 0x09,
  0xcf, 0xe8, 0xe2, 0x13, 0x09, 0xee, 0x4e, 0x09, 0x20, 0x04, 0x0c, 0xcc,
  0xb1, 0x86, 0x10, 0x0d, 0x0c, 0x43, 0xd0, 0x32, 0x47, 0x39, 0xd8, 0x26,
  0x20, 0x32, 0xcc, 0xfb, 0x03, 0xd3, 0x46, 0x40, 0xc3, 0xd6, 0x61, 0x33,
  0x30, 0x18, 0x60, 0x07, 0x21, 0xe6, 0xd1, 0x30, 0x05, 0xd3, 0x2d, 0x19,
  0xb7, 0x07, 0x4d, 0x62, 0x13, 0x0f, 0x79, 0x09, 0x08, 0xe8, 0x0c, 0xf7,
  0x00, 0xfa, 0x4e, 0x45, 0x7f, 0x79, 0xf4, 0xd8, 0x09, 0x43, 0xb4, 0x1f,
  0x9c, 0x39, 0x09, 0xe1, 0xfe, 0x16, 0x93, 0xeb, 0x81, 0xe0, 0x1b, 0x2d,
  0x02, 0x86, 0x79, 0x9a, 0xd6, 0xd0, 0xea, 0x03, 0xc7, 0xaa, 0x2a, 0x17,
  0x2c, 0x8a, 0xf5, 0x2f, 0x89, 0x12, 0xd6, 0xe2, 0x76, 0xa5, 0xe7, 0xe6,
  0xdc, 0xb7, 0xe4, 0xb1, 0x0f, 0xaf, 0x1f, 0x00, 0x0f, 0xc4, 0x29, 0x52,
  0x8d, 0x99, 0xec, 0xd4, 0xfe, 0x5a, 0x99, 0x46, 0x34, 0xdf, 0xbf, 0xfb,
  0xbe, 0x0d, 0xe3, 0xad, 0x3b, 0xa7, 0x43, 0xfb, 0xeb, 0xdf, 0x1d, 0x38,
  0xd1, 0x14, 0x3b, 0x11, 0xe9, 0x16, 0xf6, 0x37, 0x52, 0x3d, 0xf5, 0xd4,
  0x13, 0x28, 0xef, 0x28, 0xc6, 0x36, 0xe4, 0xf2, 0x4e, 0x1f, 0x1a, 0x05,
  0x18, 0xfb, 0x23, 0x56, 0x1e, 0xd6, 0x37, 0x2d, 0xf5, 0x06, 0x10, 0x6a,
  0xe4, 0xc5, 0x14, 0x21, 0xfa, 0x15, 0x1f, 0x30, 0x1b, 0xd0, 0x34, 0xf2,
  0xbe, 0x49, 0x4c, 0x51, 0x1b, 0x03, 0x11, 0xd5, 0x5a, 0x48, 0x25, 0x33,
  0x17, 0x09, 0x46, 0x5c, 0xd9, 0xf3, 0x0a, 0x7f, 0xec, 0xf9, 0x0a, 0x54,
  0x22, 0xcc, 0xb0, 0xf5, 0xf4, 0xd4, 0xd1, 0xe5, 0x5a, 0x23, 0xce, 0x26,
  0x14, 0x00, 0x00, 0xec, 0x92, 0x40, 0xc1, 0x43, 0x10, 0x9a, 0x4a, 0x1c,
  0x0b, 0x15, 0x19, 0x93, 0x4e, 0xac, 0x48, 0x52, 0x02, 0x2e, 0x81, 0xd9,
  0x0b, 0x0d, 0x2f, 0x02, 0xd4, 0x42, 0xe6, 0x3c, 0x9e, 0xda, 0x10, 0x5d,
  0xf6, 0x35, 0x2c, 0x57, 0x32, 0xdc, 0x49, 0xfd, 0xd9, 0x25, 0xda, 0x56,
  0xa8, 0xff, 0x62, 0x3c, 0xc2, 0xe3, 0x26, 0x2b, 0xec, 0x52, 0xda, 0x87,
  0xa1, 0xb5, 0x25, 0x0e, 0xd6, 0xc5, 0xda, 0x30, 0xca, 0x1a, 0x2f, 0x44,
  0x1f, 0xe2, 0xb7, 0xc8, 0xb2, 0xdc, 0x4e, 0xd7, 0x05, 0xd0, 0xe3, 0xd7,
  0xa4, 0xf7, 0xd7, 0x30, 0xb3, 0xb2, 0x31, 0xe1, 0x14, 0xfe, 0x1a, 0xc4,
  0x81, 0xf1, 0xd8, 0xba, 0x0a, 0x15, 0xff, 0xf9, 0x3f, 0xff, 0x95, 0x01,
  0x88, 0xa0, 0x0c, 0xd9, 0x2f, 0x56, 0xe4, 0x96, 0x11, 0xf1, 0x4e, 0x32,
  0xf7, 0xe3, 0xad, 0x32, 0xc4, 0xf0, 0x68, 0x19, 0x57, 0x49, 0xc8, 0xf0,
  0xe3, 0x03, 0xdc, 0x2a, 0x33, 0xc5, 0x42, 0xec, 0x2c, 0x51, 0x5d, 0x3a,
  0x13, 0xe6, 0x23, 0x17, 0x39, 0x5c, 0x3e, 0x64, 0x47, 0x49, 0x4c, 0x45,
  0xb6, 0xf1, 0x43, 0x2d, 0xcd, 0x2a, 0x1c, 0x1b, 0x2b, 0x24, 0x1d, 0x40,
  0x37, 0x12, 0xf9, 0xc6, 0x17, 0x56, 0xe0, 0xc0, 0x4c, 0x03, 0x52, 0x00,
  0xb8, 0x30, 0xec, 0x7f, 0xc9, 0x29, 0x15, 0xfc, 0xea, 0x3a, 0xcd, 0x65,
  0xe1, 0x22, 0xe0, 0x29, 0x1d, 0x27, 0xba, 0x24, 0x72, 0xfa, 0xff, 0xff,
  0x04, 0x00, 0x00, 0x00, 0x20, 0x00, 0x00, 0x00, 0x1e, 0xfd, 0xff, 0xff,
  0x5c, 0xf7, 0xff, 0xff, 0xf4, 0xe8, 0xff, 0xff, 0xa7, 0x00, 0x00, 0x00,
  0x38, 0xe7, 0xff, 0xff, 0xbf, 0xed, 0xff, 0xff, 0x2a, 0xf6, 0xff, 0xff,
  0x95, 0xee, 0xff, 0xff, 0x9e, 0xfa, 0xff, 0xff, 0x04, 0x00, 0x00, 0x00,
  0x08, 0x00, 0x00, 0x00, 0x7f, 0xd6, 0xa5, 0xe5, 0xa2, 0xe3, 0xe2, 0x9e,
  0xb2, 0xfa, 0xff, 0xff, 0x04, 0x00, 0x00, 0x00, 0x08, 0x00, 0x00, 0x00,
  0x64, 0x1a, 0xd9, 0x21, 0xb8, 0xf5, 0x3a, 0x80, 0xc6, 0xfa, 0xff, 0xff,
  0x04, 0x00, 0x00, 0x00, 0x80, 0x03, 0x00, 0x00, 0x1f, 0xe0, 0xce, 0x0d,
  0xdc, 0x0f, 0xf2, 0x4f, 0xc9, 0xcb, 0xd2, 0x15, 0x09, 0x28, 0xe4, 0x0d,
  0xce, 0xc9, 0x0b, 0x0f, 0x26, 0x1f, 0xfa, 0x2b, 0x1d, 0xcd, 0xfc, 0xf2,
  0x41, 0x48, 0xce, 0xe0, 0xea, 0xe2, 0xec, 0x20, 0xf6, 0x0f, 0xe3, 0xfa,
  0xd9, 0xe4, 0xf1, 0x2e, 0x48, 0x28, 0xc5, 0x16, 0xf5, 0xf1, 0xd9, 0xf5,
  0xfd, 0x0f, 0x05, 0x2a, 0x05, 0xf7, 0xe8, 0xe0, 0x2a, 0x27, 0x07, 0xf7,
  0xc1, 0xc5, 0x09, 0xea, 0x18, 0x32, 0xc7, 0x30, 0x09, 0xc9, 0xd3, 0x2b,
  0x2b, 0xfd, 0x14, 0xf2, 0xdb, 0xfa, 0x13, 0xf4, 0x04, 0x33, 0xe5, 0xe1,
  0xff, 0x01, 0xed, 0xee, 0x19, 0x0e, 0xef, 0x24, 0xe7, 0x16, 0xd9, 0xe6,
  0xe1, 0x17, 0xd4, 0x2e, 0x00, 0xfe, 0xce, 0xfc, 0x1e, 0x2e, 0x07, 0x31,
  0xfb, 0xfe, 0x0b, 0x1e, 0x1a, 0x35, 0x1b, 0x0b, 0x07, 0x13, 0xc1, 0x17,
  0xe1, 0x0d, 0x10, 0x1e, 0xca, 0x01, 0x24, 0x1e, 0xf1, 0x41, 0xe0, 0xdb,
  0x41, 0x0b, 0x12, 0xf6, 0xf6, 0x15, 0xdf, 0x0c, 0xf4, 0xe4, 0x03, 0x38,
  0xea, 0xfb, 0xec, 0xde, 0x36, 0x10, 0x32, 0xc4, 0xeb, 0x17, 0xc2, 0xdf,
  0xf6, 0xc7, 0xf4, 0x01, 0x1b, 0x2d, 0xf9, 0xec, 0x47, 0x32, 0x0f, 0xe9,
  0x0d, 0x15, 0xc7, 0xeb, 0xe7, 0xe3, 0xf7, 0x1a, 0x06, 0xea, 0xe2, 0x01,
  0x14, 0x1f, 0x1d, 0x09, 0x15, 0x04, 0xd4, 0xdb, 0xe2, 0xd0, 0xed, 0xf2,
  0xfb, 0x0a, 0xed, 0xd2, 0x27, 0x15, 0x2f, 0xe7, 0x03, 0xf6, 0x08, 0x14,
  0x10, 0xc4, 0xfc, 0x27, 0xf3, 0x30, 0xde, 0x20, 0x24, 0x1e, 0xef, 0xda,
  0x0f, 0xed, 0xf4, 0x08, 0xee, 0xe8, 0x1d, 0x13, 0x23, 0x0d, 0xed, 0xde,
  0x30, 0x37, 0x04, 0xd0, 0x18, 0xe6, 0xca, 0xe4, 0x10, 0xcf, 0x2e, 0x23,
  0xdc, 0x00, 0xf1, 0xf6, 0x33, 0xfc, 0x24, 0xd4, 0xea, 0x25, 0xc6, 0xfb,
  0xb5, 0x0c, 0xe4, 0xe1, 0x10, 0xf4, 0x22, 0x53, 0xe4, 0x08, 0x27, 0xc6,
  0xfc, 0xda, 0xfd, 0x37, 0x81, 0x30, 0x3e, 0x08, 0x44, 0xf5, 0xf2, 0xf5,
  0xd4, 0xe5, 0x11, 0xed, 0x10, 0x17, 0xd5, 0xf1, 0x85, 0x26, 0x2d, 0xcc,
  0x33, 0x00, 0x0e, 0x3d, 0xfd, 0xed, 0xe7, 0xe3, 0x1d, 0x04, 0xf6, 0x44,
  0xa8, 0x0d, 0x15, 0xbc, 0x12, 0x03, 0xf2, 0x3e, 0x0b, 0x2f, 0x24, 0x1c,
  0x22, 0xf1, 0xe2, 0xfd, 0xa7, 0xf9, 0x15, 0xc1, 0x18, 0x22, 0x1e, 0x56,
  0xf6, 0x1e, 0x08, 0xfe, 0xf0, 0xcc, 0xe4, 0x2f, 0x89, 0xdc, 0xe5, 0xde,
  0x3b, 0x2c, 0xe5, 0x0a, 0x15, 0x13, 0xf4, 0xe1, 0xff, 0xfa, 0xeb, 0x00,
  0xc9, 0xea, 0x02, 0xbd, 0x16, 0x38, 0xeb, 0x1c, 0x13, 0xdb, 0x01, 0x16,
  0xda, 0xe2, 0xfd, 0x17, 0xa0, 0x19, 0x2d, 0x09, 0x49, 0x15, 0xf9, 0x3e,
  0x0d, 0xd0, 0xc5, 0xeb, 0xfb, 0xcc, 0xd7, 0x33, 0xd8, 0xf4, 0x27, 0x34,
  0xc0, 0xc8, 0x15, 0xd5, 0x28, 0x2a, 0x3b, 0x27, 0xc8, 0xed, 0x1c, 0x3d,
  0xb4, 0x32, 0xd2, 0xfa, 0xd7, 0xba, 0x37, 0xe1, 0xfa, 0x12, 0x1f, 0x15,
  0x30, 0x0a, 0xf6, 0x0a, 0xca, 0x1a, 0xcf, 0xd1, 0x0d, 0xee, 0x10, 0x0a,
  0x19, 0x2f, 0x38, 0xe2, 0x25, 0xdc, 0xd4, 0x23, 0xfe, 0xf1, 0x05, 0x37,
  0xfa, 0xbe, 0x23, 0x28, 0xe5, 0x2b, 0x2c, 0xd2, 0x12, 0xd1, 0xdc, 0x31,
  0xcd, 0x10, 0x2b, 0xca, 0x04, 0xa2, 0x32, 0xf1, 0xc3, 0x41, 0x14, 0x1a,
  0x04, 0x13, 0x1a, 0x1f, 0xe5, 0x04, 0x06, 0x2d, 0xcb, 0xe3, 0x19, 0x19,
  0x19, 0xef, 0xf3, 0xe2, 0xd8, 0x0f, 0x32, 0x09, 0xbd, 0x20, 0xf4, 0x03,
  0xf2, 0xee, 0x07, 0xbf, 0xde, 0xdd, 0x1a, 0xe9, 0xda, 0x04, 0xe6, 0xfa,
  0xe0, 0xf3, 0xf6, 0xfb, 0xd4, 0xd0, 0x2d, 0x17, 0xca, 0x2e, 0x35, 0xdd,
  0x17, 0x0b, 0x14, 0xf6, 0x2e, 0x16, 0xd1, 0x35, 0xe6, 0xa3, 0xeb, 0xb9,
  0x1f, 0xff, 0xff, 0x21, 0x23, 0x05, 0xf6, 0xb4, 0x2b, 0xe5, 0x13, 0x22,
  0xc9, 0x00, 0xcf, 0x02, 0x2f, 0xc3, 0xe3, 0xec, 0x3a, 0x05, 0xdf, 0xbc,
  0x41, 0xc4, 0x02, 0x20, 0xe9, 0xe4, 0xcc, 0xb2, 0xf5, 0xc2, 0xe0, 0xf3,
  0x2f, 0xfb, 0xe7, 0xec, 0x12, 0xf7, 0xd2, 0x2b, 0xd6, 0xe0, 0xf4, 0xf5,
  0xef, 0x1a, 0x0f, 0xff, 0x45, 0x29, 0xd2, 0xee, 0x52, 0xcf, 0xdc, 0x14,
  0x09, 0xe9, 0xd3, 0x0f, 0x04, 0x06, 0xd8, 0x14, 0x22, 0x00, 0xf9, 0xbf,
  0x13, 0xcf, 0xe7, 0xf1, 0xbe, 0x9c, 0xc1, 0x03, 0x0c, 0x13, 0x06, 0x21,
  0x2a, 0x0d, 0xe7, 0xb8, 0x47, 0xf5, 0xec, 0x07, 0xf2, 0xb5, 0xc9, 0xba,
  0x1b, 0xf4, 0xec, 0x05, 0x2a, 0xea, 0xc5, 0xc6, 0x0f, 0xd6, 0xc2, 0xf4,
  0xb0, 0xa5, 0xdf, 0xf5, 0x28, 0xf1, 0x13, 0x08, 0x27, 0xf2, 0xfa, 0xe7,
  0x0d, 0xe3, 0xf2, 0xb8, 0xfd, 0x0e, 0x29, 0xfa, 0xcb, 0xcd, 0x19, 0xd0,
  0x02, 0xe5, 0x1b, 0x0d, 0x3c, 0xfd, 0x33, 0xca, 0xf8, 0x3d, 0xe9, 0x15,
  0x0d, 0xdf, 0xee, 0x1b, 0x03, 0xe6, 0xfa, 0xe6, 0x06, 0x2f, 0xe2, 0xf5,
  0x20, 0x22, 0xed, 0x1b, 0xf9, 0x0c, 0xd4, 0x23, 0xda, 0xcf, 0x3f, 0xcd,
  0x11, 0x01, 0x26, 0xea, 0x23, 0x0f, 0xfe, 0xd7, 0xdc, 0x16, 0xec, 0xfa,
  0xef, 0xe0, 0x06, 0xed, 0x35, 0xed, 0x01, 0xdc, 0xee, 0x1e, 0x20, 0xf2,
  0xfc, 0x13, 0xfa, 0x1e, 0x14, 0xdd, 0x0d, 0xf7, 0x32, 0x37, 0x0a, 0xb2,
  0x17, 0x36, 0xde, 0x13, 0xff, 0x10, 0xe6, 0x11, 0x06, 0x08, 0xf1, 0x07,
  0x31, 0x0e, 0x12, 0xdd, 0x28, 0x15, 0xf3, 0x24, 0xd7, 0x22, 0xd4, 0x05,
  0xe1, 0xe1, 0x1f, 0xf7, 0x2d, 0x0a, 0xea, 0x20, 0x34, 0x29, 0xfb, 0x00,
  0x01, 0xd6, 0xdc, 0x28, 0xdd, 0xf7, 0x0c, 0x13, 0x1a, 0xfb, 0x06, 0x06,
  0xd3, 0xa0, 0x26, 0xf3, 0xdf, 0x00, 0x09, 0x05, 0xef, 0x2f, 0x1e, 0x19,
  0x36, 0x1f, 0xe3, 0x11, 0xfc, 0xd0, 0xe9, 0xcf, 0x08, 0x24, 0x33, 0xef,
  0xdc, 0xf3, 0xfd, 0x1f, 0x27, 0xcc, 0xf3, 0x1b, 0xbe, 0xb1, 0x0f, 0x05,
  0x0f, 0xea, 0xf8, 0x10, 0xe5, 0xd8, 0x40, 0xef, 0x11, 0x02, 0xe4, 0x2b,
  0xc3, 0xce, 0x08, 0xe5, 0xec, 0xf4, 0x00, 0xd3, 0xd1, 0xfd, 0xe2, 0xc7,
  0x49, 0xec, 0xd8, 0x0f, 0xee, 0xd7, 0x0d, 0x93, 0xf1, 0x02, 0x0b, 0xfa,
  0xed, 0xc5, 0x3f, 0xd4, 0x25, 0x05, 0xdd, 0xdf, 0xd7, 0xd7, 0x0e, 0xf8,
  0xfe, 0x03, 0x25, 0xea, 0xee, 0xe7, 0x0a, 0x11, 0x36, 0x12, 0xc8, 0xfc,
  0xca, 0xd9, 0xeb, 0xe2, 0xc5, 0x35, 0x03, 0xe5, 0xff, 0xe5, 0x33, 0x27,
  0x26, 0xfd, 0xdc, 0x16, 0xc8, 0xf7, 0x05, 0xcc, 0x0e, 0x2f, 0xfd, 0x26,
  0xe5, 0x1c, 0x30, 0xe1, 0x52, 0xfe, 0xff, 0xff, 0x04, 0x00, 0x00, 0x00,
  0x1c, 0x00, 0x00, 0x00, 0x13, 0xff, 0xff, 0xff, 0xe8, 0xff, 0xff, 0xff,
  0xcc, 0xfe, 0xff, 0xff, 0x80, 0x00, 0x00, 0x00, 0x08, 0x01, 0x00, 0x00,
  0x5a, 0x00, 0x00, 0x00, 0x3d, 0x00, 0x00, 0x00, 0x7a, 0xfe, 0xff, 0xff,
  0x04, 0x00, 0x00, 0x00, 0x08, 0x00, 0x00, 0x00, 0xff, 0xff, 0xff, 0xff,
  0x80, 0x00, 0x00, 0x00, 0xb8, 0xd4, 0xff, 0xff, 0xbc, 0xd4, 0xff, 0xff,
  0xc0, 0xd4, 0xff, 0xff, 0x0f, 0x00, 0x00, 0x00, 0x4d, 0x4c, 0x49, 0x52,
  0x20, 0x43, 0x6f, 0x6e, 0x76, 0x65, 0x72, 0x74, 0x65, 0x64, 0x2e, 0x00,
  0x01, 0x00, 0x00, 0x00, 0x14, 0x00, 0x00, 0x00, 0x00, 0x00, 0x0e, 0x00,
  0x18, 0x00, 0x14, 0x00, 0x10, 0x00, 0x0c, 0x00, 0x08, 0x00, 0x04, 0x00,
  0x0e, 0x00, 0x00, 0x00, 0x14, 0x00, 0x00, 0x00, 0x1c, 0x00, 0x00, 0x00,
  0x00, 0x07, 0x00, 0x00, 0x04, 0x07, 0x00, 0x00, 0x0c, 0x07, 0x00, 0x00,
  0x04, 0x00, 0x00, 0x00, 0x6d, 0x61, 0x69, 0x6e, 0x00, 0x00, 0x00, 0x00,
  0x1e, 0x00, 0x00, 0x00, 0xc8, 0x06, 0x00, 0x00, 0x9c, 0x06, 0x00, 0x00,
  0x4c, 0x06, 0x00, 0x00, 0x08, 0x06, 0x00, 0x00, 0xd4, 0x05, 0x00, 0x00,
  0x80, 0x05, 0x00, 0x00, 0x3c, 0x05, 0x00, 0x00, 0x08, 0x05, 0x00, 0x00,
  0xd4, 0x04, 0x00, 0x00, 0x90, 0x04, 0x00, 0x00, 0x4c, 0x04, 0x00, 0x00,
  0x18, 0x04, 0x00, 0x00, 0xe4, 0x03, 0x00, 0x00, 0xa0, 0x03, 0x00, 0x00,
  0x5c, 0x03, 0x00, 0x00, 0x28, 0x03, 0x00, 0x00, 0xf4, 0x02, 0x00, 0x00,
  0xb0, 0x02, 0x00, 0x00, 0x6c, 0x02, 0x00, 0x00, 0x38, 0x02, 0x00, 0x00,
  0x04, 0x02, 0x00, 0x00, 0xc0, 0x01, 0x00, 0x00, 0x7c, 0x01, 0x00, 0x00,
  0x48, 0x01, 0x00, 0x00, 0x14, 0x01, 0x00, 0x00, 0xd0, 0x00, 0x00, 0x00,
  0x90, 0x00, 0x00, 0x00, 0x68, 0x00, 0x00, 0x00, 0x24, 0x00, 0x00, 0x00,
  0x04, 0x00, 0x00, 0x00, 0xba, 0xf9, 0xff, 0xff, 0x08, 0x00, 0x00, 0x00,
  0x0c, 0x00, 0x00, 0x00, 0x01, 0x00, 0x00, 0x00, 0x3a, 0x00, 0x00, 0x00,
  0x01, 0x00, 0x00, 0x00, 0x39, 0x00, 0x00, 0x00, 0x4e, 0xfa, 0xff, 0xff,
  0x14, 0x00, 0x00, 0x00, 0x00, 0x00, 0x00, 0x08, 0x10, 0x00, 0x00, 0x00,
  0x14, 0x00, 0x00, 0x00, 0x07, 0x00, 0x00, 0x00, 0xc4, 0xd5, 0xff, 0xff,
  0x01, 0x00, 0x00, 0x00, 0x39, 0x00, 0x00, 0x00, 0x03, 0x00, 0x00, 0x00,
  0x38, 0x00, 0x00, 0x00, 0x04, 0x00, 0x00, 0x00, 0x03, 0x00, 0x00, 0x00,
  0x00, 0x00, 0x0a, 0x00, 0x10, 0x00, 0x0c, 0x00, 0x08, 0x00, 0x04, 0x00,
  0x0a, 0x00, 0x00, 0x00, 0x0c, 0x00, 0x00, 0x00, 0x10, 0x00, 0x00, 0x00,
  0x06, 0x00, 0x00, 0x00, 0x01, 0x00, 0x00, 0x00, 0x38, 0x00, 0x00, 0x00,
  0x02, 0x00, 0x00, 0x00, 0x37, 0x00, 0x00, 0x00, 0x02, 0x00, 0x00, 0x00,
  0xb2, 0xfa, 0xff, 0xff, 0x1c, 0x00, 0x00, 0x00, 0x00, 0x00, 0x00, 0x0a,
  0x1c, 0x00, 0x00, 0x00, 0x20, 0x00, 0x00, 0x00, 0x05, 0x00, 0x00, 0x00,
  0x00, 0x00, 0x06, 0x00, 0x08, 0x00, 0x04, 0x00, 0x06, 0x00, 0x00, 0x00,
  0x03, 0x00, 0x00, 0x00, 0x01, 0x00, 0x00, 0x00, 0x37, 0x00, 0x00, 0x00,
  0x02, 0x00, 0x00, 0x00, 0x36, 0x00, 0x00, 0x00, 0x2a, 0x00, 0x00, 0x00,
  0xee, 0xfa, 0xff, 0xff, 0x14, 0x00, 0x00, 0x00, 0x00, 0x00, 0x00, 0x05,
  0x24, 0x00, 0x00, 0x00, 0x28, 0x00, 0x00, 0x00, 0x04, 0x00, 0x00, 0x00,
  0x9e, 0xfb, 0xff, 0xff, 0x02, 0x00, 0x00, 0x00, 0x02, 0x00, 0x00, 0x00,
  0x02, 0x00, 0x00, 0x00, 0x02, 0x00, 0x00, 0x00, 0x00, 0x00, 0x00, 0x01,
  0x01, 0x00, 0x00, 0x00, 0x36, 0x00, 0x00, 0x00, 0x01, 0x00, 0x00, 0x00,
  0x35, 0x00, 0x00, 0x00, 0x2e, 0xfb, 0xff, 0xff, 0x14, 0x00, 0x00, 0x00,
  0x00, 0x00, 0x00, 0x0b, 0x10, 0x00, 0x00, 0x00, 0x14, 0x00, 0x00, 0x00,
  0x03, 0x00, 0x00, 0x00, 0xa4, 0xd6, 0xff, 0xff, 0x01, 0x00, 0x00, 0x00,
  0x35, 0x00, 0x00, 0x00, 0x02, 0x00, 0x00, 0x00, 0x34, 0x00, 0x00, 0x00,
  0x05, 0x00, 0x00, 0x00, 0x5e, 0xfb, 0xff, 0xff, 0x14, 0x00, 0x00, 0x00,
  0x00, 0x00, 0x00, 0x15, 0x10, 0x00, 0x00, 0x00, 0x14, 0x00, 0x00, 0x00,
  0x02, 0x00, 0x00, 0x00, 0xd4, 0xd6, 0xff, 0xff, 0x01, 0x00, 0x00, 0x00,
  0x34, 0x00, 0x00, 0x00, 0x02, 0x00, 0x00, 0x00, 0x33, 0x00, 0x00, 0x00,
  0x06, 0x00, 0x00, 0x00, 0x8e, 0xfb, 0xff, 0xff, 0x14, 0x00, 0x00, 0x00,
  0x00, 0x00, 0x00, 0x01, 0x1c, 0x00, 0x00, 0x00, 0x20, 0x00, 0x00, 0x00,
  0x01, 0x00, 0x00, 0x00, 0x80, 0xfb, 0xff, 0xff, 0x00, 0x00, 0x00, 0x01,
  0x01, 0x00, 0x00, 0x00, 0x01, 0x00, 0x00, 0x00, 0x01, 0x00, 0x00, 0x00,
  0x33, 0x00, 0x00, 0x00, 0x03, 0x00, 0x00, 0x00, 0x32, 0x00, 0x00, 0x00,
  0x08, 0x00, 0x00, 0x00, 0x07, 0x00, 0x00, 0x00, 0xce, 0xfb, 0xff, 0xff,
  0x14, 0x00, 0x00, 0x00, 0x00, 0x00, 0x00, 0x05, 0x24, 0x00, 0x00, 0x00,
  0x28, 0x00, 0x00, 0x00, 0x04, 0x00, 0x00, 0x00, 0x7e, 0xfc, 0xff, 0xff,
  0x02, 0x00, 0x00, 0x00, 0x02, 0x00, 0x00, 0x00, 0x02, 0x00, 0x00, 0x00,
  0x02, 0x00, 0x00, 0x00, 0x00, 0x00, 0x00, 0x01, 0x01, 0x00, 0x00, 0x00,
  0x32, 0x00, 0x00, 0x00, 0x01, 0x00, 0x00, 0x00, 0x31, 0x00, 0x00, 0x00,
  0x0e, 0xfc, 0xff, 0xff, 0x14, 0x00, 0x00, 0x00, 0x00, 0x00, 0x00, 0x0b,
  0x10, 0x00, 0x00, 0x00, 0x14, 0x00, 0x00, 0x00, 0x03, 0x00, 0x00, 0x00,
  0x84, 0xd7, 0xff, 0xff, 0x01, 0x00, 0x00, 0x00, 0x31, 0x00, 0x00, 0x00,
  0x02, 0x00, 0x00, 0x00, 0x30, 0x00, 0x00, 0x00, 0x09, 0x00, 0x00, 0x00,
  0x3e, 0xfc, 0xff, 0xff, 0x14, 0x00, 0x00, 0x00, 0x00, 0x00, 0x00, 0x15,
  0x10, 0x00, 0x00, 0x00, 0x14, 0x00, 0x00, 0x00, 0x02, 0x00, 0x00, 0x00,
  0xb4, 0xd7, 0xff, 0xff, 0x01, 0x00, 0x00, 0x00, 0x30, 0x00, 0x00, 0x00,
  0x02, 0x00, 0x00, 0x00, 0x2f, 0x00, 0x00, 0x00, 0x0a, 0x00, 0x00, 0x00,
  0x6e, 0xfc, 0xff, 0xff, 0x14, 0x00, 0x00, 0x00, 0x00, 0x00, 0x00, 0x01,
  0x1c, 0x00, 0x00, 0x00, 0x20, 0x00, 0x00, 0x00, 0x01, 0x00, 0x00, 0x00,
  0x60, 0xfc, 0xff, 0xff, 0x00, 0x00, 0x00, 0x01, 0x01, 0x00, 0x00, 0x00,
  0x01, 0x00, 0x00, 0x00, 0x01, 0x00, 0x00, 0x00, 0x2f, 0x00, 0x00, 0x00,
  0x03, 0x00, 0x00, 0x00, 0x2e, 0x00, 0x00, 0x00, 0x0c, 0x00, 0x00, 0x00,
  0x0b, 0x00, 0x00, 0x00, 0xae, 0xfc, 0xff, 0xff, 0x14, 0x00, 0x00, 0x00,
  0x00, 0x00, 0x00, 0x05, 0x24, 0x00, 0x00, 0x00, 0x28, 0x00, 0x00, 0x00,
  0x04, 0x00, 0x00, 0x00, 0x5e, 0xfd, 0xff, 0xff, 0x02, 0x00, 0x00, 0x00,
  0x02, 0x00, 0x00, 0x00, 0x02, 0x00, 0x00, 0x00, 0x02, 0x00, 0x00, 0x00,
  0x00, 0x00, 0x00, 0x01, 0x01, 0x00, 0x00, 0x00, 0x2e, 0x00, 0x00, 0x00,
  0x01, 0x00, 0x00, 0x00, 0x2d, 0x00, 0x00, 0x00, 0xee, 0xfc, 0xff, 0xff,
  0x14, 0x00, 0x00, 0x00, 0x00, 0x00, 0x00, 0x0b, 0x10, 0x00, 0x00, 0x00,
  0x14, 0x00, 0x00, 0x00, 0x03, 0x00, 0x00, 0x00, 0x64, 0xd8, 0xff, 0xff,
  0x01, 0x00, 0x00, 0x00, 0x2d, 0x00, 0x00, 0x00, 0x02, 0x00, 0x00, 0x00,
  0x2c, 0x00, 0x00, 0x00, 0x0d, 0x00, 0x00, 0x00, 0x1e, 0xfd, 0xff, 0xff,
  0x14, 0x00, 0x00, 0x00, 0x00, 0x00, 0x00, 0x15, 0x10, 0x00, 0x00, 0x00,
  0x14, 0x00, 0x00, 0x00, 0x02, 0x00, 0x00, 0x00, 0x94, 0xd8, 0xff, 0xff,
  0x01, 0x00, 0x00, 0x00, 0x2c, 0x00, 0x00, 0x00, 0x02, 0x00, 0x00, 0x00,
  0x2b, 0x00, 0x00, 0x00, 0x0e, 0x00, 0x00, 0x00, 0x4e, 0xfd, 0xff, 0xff,
  0x14, 0x00, 0x00, 0x00, 0x00, 0x00, 0x00, 0x01, 0x1c, 0x00, 0x00, 0x00,
  0x20, 0x00, 0x00, 0x00, 0x01, 0x00, 0x00, 0x00, 0x40, 0xfd, 0xff, 0xff,
  0x00, 0x00, 0x00, 0x01, 0x01, 0x00, 0x00, 0x00, 0x01, 0x00, 0x00, 0x00,
  0x01, 0x00, 0x00, 0x00, 0x2b, 0x00, 0x00, 0x00, 0x03, 0x00, 0x00, 0x00,
  0x1d, 0x00, 0x00, 0x00, 0x10, 0x00, 0x00, 0x00, 0x0f, 0x00, 0x00, 0x00,
  0x8e, 0xfd, 0xff, 0xff, 0x14, 0x00, 0x00, 0x00, 0x00, 0x00, 0x00, 0x05,
  0x24, 0x00, 0x00, 0x00, 0x28, 0x00, 0x00, 0x00, 0x04, 0x00, 0x00, 0x00,
  0x3e, 0xfe, 0xff, 0xff, 0x02, 0x00, 0x00, 0x00, 0x02, 0x00, 0x00, 0x00,
  0x02, 0x00, 0x00, 0x00, 0x02, 0x00, 0x00, 0x00, 0x00, 0x00, 0x00, 0x01,
  0x01, 0x00, 0x00, 0x00, 0x2a, 0x00, 0x00, 0x00, 0x01, 0x00, 0x00, 0x00,
  0x29, 0x00, 0x00, 0x00, 0xce, 0xfd, 0xff, 0xff, 0x14, 0x00, 0x00, 0x00,
  0x00, 0x00, 0x00, 0x0b, 0x10, 0x00, 0x00, 0x00, 0x14, 0x00, 0x00, 0x00,
  0x03, 0x00, 0x00, 0x00, 0x44, 0xd9, 0xff, 0xff, 0x01, 0x00, 0x00, 0x00,
  0x29, 0x00, 0x00, 0x00, 0x02, 0x00, 0x00, 0x00, 0x28, 0x00, 0x00, 0x00,
  0x11, 0x00, 0x00, 0x00, 0xfe, 0xfd, 0xff, 0xff, 0x14, 0x00, 0x00, 0x00,
  0x00, 0x00, 0x00, 0x15, 0x10, 0x00, 0x00, 0x00, 0x14, 0x00, 0x00, 0x00,
  0x02, 0x00, 0x00, 0x00, 0x74, 0xd9, 0xff, 0xff, 0x01, 0x00, 0x00, 0x00,
  0x28, 0x00, 0x00, 0x00, 0x02, 0x00, 0x00, 0x00, 0x27, 0x00, 0x00, 0x00,
  0x12, 0x00, 0x00, 0x00, 0x2e, 0xfe, 0xff, 0xff, 0x14, 0x00, 0x00, 0x00,
  0x00, 0x00, 0x00, 0x01, 0x1c, 0x00, 0x00, 0x00, 0x20, 0x00, 0x00, 0x00,
  0x01, 0x00, 0x00, 0x00, 0x20, 0xfe, 0xff, 0xff, 0x00, 0x00, 0x00, 0x01,
  0x01, 0x00, 0x00, 0x00, 0x01, 0x00, 0x00, 0x00, 0x01, 0x00, 0x00, 0x00,
  0x27, 0x00, 0x00, 0x00, 0x03, 0x00, 0x00, 0x00, 0x26, 0x00, 0x00, 0x00,
  0x14, 0x00, 0x00, 0x00, 0x13, 0x00, 0x00, 0x00, 0x6e, 0xfe, 0xff, 0xff,
  0x14, 0x00, 0x00, 0x00, 0x00, 0x00, 0x00, 0x05, 0x24, 0x00, 0x00, 0x00,
  0x28, 0x00, 0x00, 0x00, 0x04, 0x00, 0x00, 0x00, 0x1e, 0xff, 0xff, 0xff,
  0x02, 0x00, 0x00, 0x00, 0x02, 0x00, 0x00, 0x00, 0x02, 0x00, 0x00, 0x00,
  0x02, 0x00, 0x00, 0x00, 0x00, 0x00, 0x00, 0x01, 0x01, 0x00, 0x00, 0x00,
  0x26, 0x00, 0x00, 0x00, 0x01, 0x00, 0x00, 0x00, 0x25, 0x00, 0x00, 0x00,
  0xae, 0xfe, 0xff, 0xff, 0x14, 0x00, 0x00, 0x00, 0x00, 0x00, 0x00, 0x0b,
  0x10, 0x00, 0x00, 0x00, 0x14, 0x00, 0x00, 0x00, 0x03, 0x00, 0x00, 0x00,
  0x24, 0xda, 0xff, 0xff, 0x01, 0x00, 0x00, 0x00, 0x25, 0x00, 0x00, 0x00,
  0x02, 0x00, 0x00, 0x00, 0x24, 0x00, 0x00, 0x00, 0x15, 0x00, 0x00, 0x00,
  0xde, 0xfe, 0xff, 0xff, 0x14, 0x00, 0x00, 0x00, 0x00, 0x00, 0x00, 0x15,
  0x10, 0x00, 0x00, 0x00, 0x14, 0x00, 0x00, 0x00, 0x02, 0x00, 0x00, 0x00,
  0x54, 0xda, 0xff, 0xff, 0x01, 0x00, 0x00, 0x00, 0x24, 0x00, 0x00, 0x00,
  0x02, 0x00, 0x00, 0x00, 0x23, 0x00, 0x00, 0x00, 0x16, 0x00, 0x00, 0x00,
  0x0e, 0xff, 0xff, 0xff, 0x14, 0x00, 0x00, 0x00, 0x00, 0x00, 0x00, 0x01,
  0x1c, 0x00, 0x00, 0x00, 0x20, 0x00, 0x00, 0x00, 0x01, 0x00, 0x00, 0x00,
  0x00, 0xff, 0xff, 0xff, 0x00, 0x00, 0x00, 0x01, 0x01, 0x00, 0x00, 0x00,
  0x01, 0x00, 0x00, 0x00, 0x01, 0x00, 0x00, 0x00, 0x23, 0x00, 0x00, 0x00,
  0x03, 0x00, 0x00, 0x00, 0x22, 0x00, 0x00, 0x00, 0x18, 0x00, 0x00, 0x00,
  0x17, 0x00, 0x00, 0x00, 0x4e, 0xff, 0xff, 0xff, 0x24, 0x00, 0x00, 0x00,
  0x00, 0x00, 0x00, 0x05, 0x34, 0x00, 0x00, 0x00, 0x38, 0x00, 0x00, 0x00,
  0x04, 0x00, 0x00, 0x00, 0x00, 0x00, 0x0e, 0x00, 0x18, 0x00, 0x17, 0x00,
  0x10, 0x00, 0x0c, 0x00, 0x08, 0x00, 0x04, 0x00, 0x0e, 0x00, 0x00, 0x00,
  0x02, 0x00, 0x00, 0x00, 0x02, 0x00, 0x00, 0x00, 0x02, 0x00, 0x00, 0x00,
  0x02, 0x00, 0x00, 0x00, 0x00, 0x00, 0x00, 0x01, 0x01, 0x00, 0x00, 0x00,
  0x22, 0x00, 0x00, 0x00, 0x01, 0x00, 0x00, 0x00, 0x21, 0x00, 0x00, 0x00,
  0x9e, 0xff, 0xff, 0xff, 0x14, 0x00, 0x00, 0x00, 0x00, 0x00, 0x00, 0x0b,
  0x10, 0x00, 0x00, 0x00, 0x14, 0x00, 0x00, 0x00, 0x03, 0x00, 0x00, 0x00,
  0x14, 0xdb, 0xff, 0xff, 0x01, 0x00, 0x00, 0x00, 0x21, 0x00, 0x00, 0x00,
  0x02, 0x00, 0x00, 0x00, 0x20, 0x00, 0x00, 0x00, 0x19, 0x00, 0x00, 0x00,
  0xce, 0xff, 0xff, 0xff, 0x14, 0x00, 0x00, 0x00, 0x00, 0x00, 0x00, 0x15,
  0x10, 0x00, 0x00, 0x00, 0x14, 0x00, 0x00, 0x00, 0x02, 0x00, 0x00, 0x00,
  0x44, 0xdb, 0xff, 0xff, 0x01, 0x00, 0x00, 0x00, 0x20, 0x00, 0x00, 0x00,
  0x02, 0x00, 0x00, 0x00, 0x1f, 0x00, 0x00, 0x00, 0x1a, 0x00, 0x00, 0x00,
  0x00, 0x00, 0x0e, 0x00, 0x18, 0x00, 0x14, 0x00, 0x10, 0x00, 0x0c, 0x00,
  0x0b, 0x00, 0x04, 0x00, 0x0e, 0x00, 0x00, 0x00, 0x20, 0x00, 0x00, 0x00,
  0x00, 0x00, 0x00, 0x01, 0x28, 0x00, 0x00, 0x00, 0x2c, 0x00, 0x00, 0x00,
  0x01, 0x00, 0x00, 0x00, 0x0c, 0x00, 0x10, 0x00, 0x00, 0x00, 0x0c, 0x00,
  0x08, 0x00, 0x07, 0x00, 0x0c, 0x00, 0x00, 0x00, 0x00, 0x00, 0x00, 0x01,
  0x01, 0x00, 0x00, 0x00, 0x01, 0x00, 0x00, 0x00, 0x01, 0x00, 0x00, 0x00,
  0x1f, 0x00, 0x00, 0x00, 0x03, 0x00, 0x00, 0x00, 0x1e, 0x00, 0x00, 0x00,
  0x1c, 0x00, 0x00, 0x00, 0x1b, 0x00, 0x00, 0x00, 0xe2, 0xff, 0xff, 0xff,
  0x08, 0x00, 0x00, 0x00, 0x0c, 0x00, 0x00, 0x00, 0x01, 0x00, 0x00, 0x00,
  0x1e, 0x00, 0x00, 0x00, 0x01, 0x00, 0x00, 0x00, 0x01, 0x00, 0x00, 0x00,
  0x00, 0x00, 0x0a, 0x00, 0x0c, 0x00, 0x00, 0x00, 0x08, 0x00, 0x04, 0x00,
  0x0a, 0x00, 0x00, 0x00, 0x08, 0x00, 0x00, 0x00, 0x0c, 0x00, 0x00, 0x00,
  0x01, 0x00, 0x00, 0x00, 0x1d, 0x00, 0x00, 0x00, 0x01, 0x00, 0x00, 0x00,
  0x00, 0x00, 0x00, 0x00, 0x01, 0x00, 0x00, 0x00, 0x3a, 0x00, 0x00, 0x00,
  0x02, 0x00, 0x00, 0x00, 0x00, 0x00, 0x00, 0x00, 0x01, 0x00, 0x00, 0x00,
  0x3b, 0x00, 0x00, 0x00, 0xb8, 0x24, 0x00, 0x00, 0x10, 0x24, 0x00, 0x00,
  0xc8, 0x23, 0x00, 0x00, 0x40, 0x23, 0x00, 0x00, 0xdc, 0x22, 0x00, 0x00,
  0x60, 0x22, 0x00, 0x00, 0xe4, 0x21, 0x00, 0x00, 0x18, 0x21, 0x00, 0x00,
  0x54, 0x20, 0x00, 0x00, 0xd8, 0x1f, 0x00, 0x00, 0x5c, 0x1f, 0x00, 0x00,
  0x90, 0x1e, 0x00, 0x00, 0xcc, 0x1d, 0x00, 0x00, 0x50, 0x1d, 0x00, 0x00,
  0xd4, 0x1c, 0x00, 0x00, 0x10, 0x1c, 0x00, 0x00, 0x4c, 0x1b, 0x00, 0x00,
  0xd0, 0x1a, 0x00, 0x00, 0x54, 0x1a, 0x00, 0x00, 0x88, 0x19, 0x00, 0x00,
  0xc4, 0x18, 0x00, 0x00, 0x48, 0x18, 0x00, 0x00, 0xcc, 0x17, 0x00, 0x00,
  0x00, 0x17, 0x00, 0x00, 0x3c, 0x16, 0x00, 0x00, 0xc0, 0x15, 0x00, 0x00,
  0x44, 0x15, 0x00, 0x00, 0x78, 0x14, 0x00, 0x00, 0xb4, 0x13, 0x00, 0x00,
  0x30, 0x13, 0x00, 0x00, 0xac, 0x12, 0x00, 0x00, 0xb8, 0x11, 0x00, 0x00,
  0x14, 0x11, 0x00, 0x00, 0x70, 0x10, 0x00, 0x00, 0xdc, 0x0f, 0x00, 0x00,
  0xe8, 0x0e, 0x00, 0x00, 0x44, 0x0e, 0x00, 0x00, 0xa0, 0x0d, 0x00, 0x00,
  0x0c, 0x0d, 0x00, 0x00, 0x18, 0x0c, 0x00, 0x00, 0x74, 0x0b, 0x00, 0x00,
  0xd0, 0x0a, 0x00, 0x00, 0x3c, 0x0a, 0x00, 0x00, 0x50, 0x09, 0x00, 0x00,
  0xb4, 0x08, 0x00, 0x00, 0x18, 0x08, 0x00, 0x00, 0x8c, 0x07, 0x00, 0x00,
  0x98, 0x06, 0x00, 0x00, 0xf4, 0x05, 0x00, 0x00, 0x50, 0x05, 0x00, 0x00,
  0xbc, 0x04, 0x00, 0x00, 0xe0, 0x03, 0x00, 0x00, 0x3c, 0x03, 0x00, 0x00,
  0x98, 0x02, 0x00, 0x00, 0x04, 0x02, 0x00, 0x00, 0x78, 0x01, 0x00, 0x00,
  0xfc, 0x00, 0x00, 0x00, 0x80, 0x00, 0x00, 0x00, 0x04, 0x00, 0x00, 0x00,
  0x4a, 0xdc, 0xff, 0xff, 0x00, 0x00, 0x00, 0x01, 0x18, 0x00, 0x00, 0x00,
  0x20, 0x00, 0x00, 0x00, 0x3c, 0x00, 0x00, 0x00, 0x3b, 0x00, 0x00, 0x00,
  0x00, 0x00, 0x00, 0x03, 0x50, 0x00, 0x00, 0x00, 0x02, 0x00, 0x00, 0x00,
  0xff, 0xff, 0xff, 0xff, 0x07, 0x00, 0x00, 0x00, 0x2c, 0xdc, 0xff, 0xff,
  0x08, 0x00, 0x00, 0x00, 0x10, 0x00, 0x00, 0x00, 0x01, 0x00, 0x00, 0x00,
  0x98, 0x00, 0x00, 0x00, 0x00, 0x00, 0x00, 0x00, 0x01, 0x00, 0x00, 0x00,
  0xdc, 0x5e, 0x8a, 0x3e, 0x19, 0x00, 0x00, 0x00, 0x53, 0x74, 0x61, 0x74,
  0x65, 0x66, 0x75, 0x6c, 0x50, 0x61, 0x72, 0x74, 0x69, 0x74, 0x69, 0x6f,
  0x6e, 0x65, 0x64, 0x43, 0x61, 0x6c, 0x6c, 0x3a, 0x30, 0x00, 0x00, 0x00,
  0x02, 0x00, 0x00, 0x00, 0x01, 0x00, 0x00, 0x00, 0x07, 0x00, 0x00, 0x00,
  0xc2, 0xdc, 0xff, 0xff, 0x00, 0x00, 0x00, 0x01, 0x18, 0x00, 0x00, 0x00,
  0x20, 0x00, 0x00, 0x00, 0x3c, 0x00, 0x00, 0x00, 0x3a, 0x00, 0x00, 0x00,
  0x00, 0x00, 0x00, 0x09, 0x50, 0x00, 0x00, 0x00, 0x02, 0x00, 0x00, 0x00,
  0xff, 0xff, 0xff, 0xff, 0x07, 0x00, 0x00, 0x00, 0xa4, 0xdc, 0xff, 0xff,
  0x08, 0x00, 0x00, 0x00, 0x10, 0x00, 0x00, 0x00, 0x01, 0x00, 0x00, 0x00,
  0x18, 0x00, 0x00, 0x00, 0x00, 0x00, 0x00, 0x00, 0x01, 0x00, 0x00, 0x00,
  0xdc, 0x5e, 0x8a, 0x3e, 0x1a, 0x00, 0x00, 0x00, 0x53, 0x74, 0x61, 0x74,
  0x65, 0x66, 0x75, 0x6c, 0x50, 0x61, 0x72, 0x74, 0x69, 0x74, 0x69, 0x6f,
  0x6e, 0x65, 0x64, 0x43, 0x61, 0x6c, 0x6c, 0x3a, 0x30, 0x31, 0x00, 0x00,
  0x02, 0x00, 0x00, 0x00, 0x01, 0x00, 0x00, 0x00, 0x07, 0x00, 0x00, 0x00,
  0x3a, 0xdd, 0xff, 0xff, 0x00, 0x00, 0x00, 0x01, 0x18, 0x00, 0x00, 0x00,
  0x20, 0x00, 0x00, 0x00, 0x40, 0x00, 0x00, 0x00, 0x39, 0x00, 0x00, 0x00,
  0x00, 0x00, 0x00, 0x09, 0x50, 0x00, 0x00, 0x00, 0x02, 0x00, 0x00, 0x00,
  0xff, 0xff, 0xff, 0xff, 0x80, 0x00, 0x00, 0x00, 0x1c, 0xdd, 0xff, 0xff,
  0x08, 0x00, 0x00, 0x00, 0x14, 0x00, 0x00, 0x00, 0x01, 0x00, 0x00, 0x00,
  0x94, 0xff, 0xff, 0xff, 0xff, 0xff, 0xff, 0xff, 0x00, 0x00, 0x00, 0x00,
  0x01, 0x00, 0x00, 0x00, 0x3d, 0x05, 0x98, 0x3d, 0x15, 0x00, 0x00, 0x00,
  0x6d, 0x6f, 0x64, 0x65, 0x6c, 0x2f, 0x66, 0x6c, 0x61, 0x74, 0x74, 0x65,
  0x6e, 0x2f, 0x52, 0x65, 0x73, 0x68, 0x61, 0x70, 0x65, 0x00, 0x00, 0x00,
  0x02, 0x00, 0x00, 0x00, 0x01, 0x00, 0x00, 0x00, 0x80, 0x00, 0x00, 0x00,
  0xb2, 0xdd, 0xff, 0xff, 0x00, 0x00, 0x00, 0x01, 0x18, 0x00, 0x00, 0x00,
  0x28, 0x00, 0x00, 0x00, 0x44, 0x00, 0x00, 0x00, 0x38, 0x00, 0x00, 0x00,
  0x00, 0x00, 0x00, 0x09, 0x58, 0x00, 0x00, 0x00, 0x04, 0x00, 0x00, 0x00,
  0xff, 0xff, 0xff, 0xff, 0x08, 0x00, 0x00, 0x00, 0x01, 0x00, 0x00, 0x00,
  0x10, 0x00, 0x00, 0x00, 0x9c, 0xdd, 0xff, 0xff, 0x08, 0x00, 0x00, 0x00,
  0x10, 0x00, 0x00, 0x00, 0x01, 0x00, 0x00, 0x00, 0x94, 0xff, 0xff, 0xff,
  0xff, 0xff, 0xff, 0xff, 0x01, 0x00, 0x00, 0x00, 0x3d, 0x05, 0x98, 0x3d,
  0x18, 0x00, 0x00, 0x00, 0x6d, 0x6f, 0x64, 0x65, 0x6c, 0x2f, 0x63, 0x6f,
  0x6e, 0x63, 0x61, 0x74, 0x65, 0x6e, 0x61, 0x74, 0x65, 0x2f, 0x63, 0x6f,
  0x6e, 0x63, 0x61, 0x74, 0x00, 0x00, 0x00, 0x00, 0x04, 0x00, 0x00, 0x00,
  0x01, 0x00, 0x00, 0x00, 0x08, 0x00, 0x00, 0x00, 0x01, 0x00, 0x00, 0x00,
  0x10, 0x00, 0x00, 0x00, 0x3a, 0xde, 0xff, 0xff, 0x00, 0x00, 0x00, 0x01,
  0x18, 0x00, 0x00, 0x00, 0x28, 0x00, 0x00, 0x00, 0x48, 0x00, 0x00, 0x00,
  0x37, 0x00, 0x00, 0x00, 0x00, 0x00, 0x00, 0x09, 0x60, 0x00, 0x00, 0x00,
  0x04, 0x00, 0x00, 0x00, 0xff, 0xff, 0xff, 0xff, 0x08, 0x00, 0x00, 0x00,
  0x01, 0x00, 0x00, 0x00, 0x08, 0x00, 0x00, 0x00, 0x24, 0xde, 0xff, 0xff,
  0x08, 0x00, 0x00, 0x00, 0x14, 0x00, 0x00, 0x00, 0x01, 0x00, 0x00, 0x00,
  0x94, 0xff, 0xff, 0xff, 0xff, 0xff, 0xff, 0xff, 0x00, 0x00, 0x00, 0x00,
  0x01, 0x00, 0x00, 0x00, 0x3d, 0x05, 0x98, 0x3d, 0x1d, 0x00, 0x00, 0x00,
  0x6d, 0x6f, 0x64, 0x65, 0x6c, 0x2f, 0x6d, 0x61, 0x78, 0x5f, 0x70, 0x6f,
  0x6f, 0x6c, 0x69, 0x6e, 0x67, 0x32, 0x64, 0x5f, 0x32, 0x2f, 0x4d, 0x61,
  0x78, 0x50, 0x6f, 0x6f, 0x6c, 0x00, 0x00, 0x00, 0x04, 0x00, 0x00, 0x00,
  0x01, 0x00, 0x00, 0x00, 0x08, 0x00, 0x00, 0x00, 0x01, 0x00, 0x00, 0x00,
  0x08, 0x00, 0x00, 0x00, 0xca, 0xde, 0xff, 0xff, 0x00, 0x00, 0x00, 0x01,
  0x18, 0x00, 0x00, 0x00, 0x28, 0x00, 0x00, 0x00, 0x48, 0x00, 0x00, 0x00,
  0x36, 0x00, 0x00, 0x00, 0x00, 0x00, 0x00, 0x09, 0x70, 0x00, 0x00, 0x00,
  0x04, 0x00, 0x00, 0x00, 0xff, 0xff, 0xff, 0xff, 0x10, 0x00, 0x00, 0x00,
  0x03, 0x00, 0x00, 0x00, 0x08, 0x00, 0x00, 0x00, 0xb4, 0xde, 0xff, 0xff,
  0x08, 0x00, 0x00, 0x00, 0x14, 0x00, 0x00, 0x00, 0x01, 0x00, 0x00, 0x00,
  0x94, 0xff, 0xff, 0xff, 0xff, 0xff, 0xff, 0xff, 0x00, 0x00, 0x00, 0x00,
  0x01, 0x00, 0x00, 0x00, 0x3d, 0x05, 0x98, 0x3d, 0x2d, 0x00, 0x00, 0x00,
  0x6d, 0x6f, 0x64, 0x65, 0x6c, 0x2f, 0x62, 0x61, 0x74, 0x63, 0x68, 0x5f,
  0x6e, 0x6f, 0x72, 0x6d, 0x61, 0x6c, 0x69, 0x7a, 0x61, 0x74, 0x69, 0x6f,
  0x6e, 0x5f, 0x32, 0x2f, 0x46, 0x75, 0x73, 0x65, 0x64, 0x42, 0x61, 0x74,
  0x63, 0x68, 0x4e, 0x6f, 0x72, 0x6d, 0x56, 0x33, 0x33, 0x00, 0x00, 0x00,
  0x04, 0x00, 0x00, 0x00, 0x01, 0x00, 0x00, 0x00, 0x10, 0x00, 0x00, 0x00,
  0x03, 0x00, 0x00, 0x00, 0x08, 0x00, 0x00, 0x00, 0x6a, 0xdf, 0xff, 0xff,
  0x00, 0x00, 0x00, 0x01, 0x18, 0x00, 0x00, 0x00, 0x28, 0x00, 0x00, 0x00,
  0x48, 0x00, 0x00, 0x00, 0x35, 0x00, 0x00, 0x00, 0x00, 0x00, 0x00, 0x09,
  0x70, 0x00, 0x00, 0x00, 0x04, 0x00, 0x00, 0x00, 0xff, 0xff, 0xff, 0xff,
  0x10, 0x00, 0x00, 0x00, 0x03, 0x00, 0x00, 0x00, 0x08, 0x00, 0x00, 0x00,
  0x54, 0xdf, 0xff, 0xff, 0x08, 0x00, 0x00, 0x00, 0x14, 0x00, 0x00, 0x00,
  0x01, 0x00, 0x00, 0x00, 0x93, 0xff, 0xff, 0xff, 0xff, 0xff, 0xff, 0xff,
  0x00, 0x00, 0x00, 0x00, 0x01, 0x00, 0x00, 0x00, 0x8c, 0x46, 0x99, 0x3d,
  0x2d, 0x00, 0x00, 0x00, 0x6d, 0x6f, 0x64, 0x65, 0x6c, 0x2f, 0x62, 0x61,
  0x74, 0x63, 0x68, 0x5f, 0x6e, 0x6f, 0x72, 0x6d, 0x61, 0x6c, 0x69, 0x7a,
  0x61, 0x74, 0x69, 0x6f, 0x6e, 0x5f, 0x32, 0x2f, 0x46, 0x75, 0x73, 0x65,
  0x64, 0x42, 0x61, 0x74, 0x63, 0x68, 0x4e, 0x6f, 0x72, 0x6d, 0x56, 0x33,
  0x32, 0x00, 0x00, 0x00, 0x04, 0x00, 0x00, 0x00, 0x01, 0x00, 0x00, 0x00,
  0x10, 0x00, 0x00, 0x00, 0x03, 0x00, 0x00, 0x00, 0x08, 0x00, 0x00, 0x00,
  0x0a, 0xe0, 0xff, 0xff, 0x00, 0x00, 0x00, 0x01, 0x18, 0x00, 0x00, 0x00,
  0x28, 0x00, 0x00, 0x00, 0x48, 0x00, 0x00, 0x00, 0x34, 0x00, 0x00, 0x00,
  0x00, 0x00, 0x00, 0x09, 0xa8, 0x00, 0x00, 0x00, 0x04, 0x00, 0x00, 0x00,
  0xff, 0xff, 0xff, 0xff, 0x10, 0x00, 0x00, 0x00, 0x03, 0x00, 0x00, 0x00,
  0x08, 0x00, 0x00, 0x00, 0xf4, 0xdf, 0xff, 0xff, 0x08, 0x00, 0x00, 0x00,
  0x14, 0x00, 0x00, 0x00, 0x01, 0x00, 0x00, 0x00, 0x80, 0xff, 0xff, 0xff,
  0xff, 0xff, 0xff, 0xff, 0x00, 0x00, 0x00, 0x00, 0x01, 0x00, 0x00, 0x00,
  0xf8, 0x9c, 0x8d, 0x3d, 0x66, 0x00, 0x00, 0x00, 0x6d, 0x6f, 0x64, 0x65,
  0x6c, 0x2f, 0x63, 0x6f, 0x6e, 0x76, 0x32, 0x64, 0x5f, 0x32, 0x2f, 0x52,
  0x65, 0x6c, 0x75, 0x3b, 0x6d, 0x6f, 0x64, 0x65, 0x6c, 0x2f, 0x63, 0x6f,
  0x6e, 0x76, 0x32, 0x64, 0x5f, 0x32, 0x2f, 0x42, 0x69, 0x61, 0x73, 0x41,
  0x64, 0x64, 0x3b, 0x6d, 0x6f, 0x64, 0x65, 0x6c, 0x2f, 0x63, 0x6f, 0x6e,
  0x76, 0x32, 0x64, 0x5f, 0x32, 0x2f, 0x43, 0x6f, 0x6e, 0x76, 0x32, 0x44,
  0x3b, 0x6d, 0x6f, 0x64, 0x65, 0x6c, 0x2f, 0x63, 0x6f, 0x6e, 0x76, 0x32,
  0x64, 0x5f, 0x32, 0x2f, 0x42, 0x69, 0x61, 0x73, 0x41, 0x64, 0x64, 0x2f,
  0x52, 0x65, 0x61, 0x64, 0x56, 0x61, 0x72, 0x69, 0x61, 0x62, 0x6c, 0x65,
  0x4f, 0x70, 0x00, 0x00, 0x04, 0x00, 0x00, 0x00, 0x01, 0x00, 0x00, 0x00,
  0x10, 0x00, 0x00, 0x00, 0x03, 0x00, 0x00, 0x00, 0x08, 0x00, 0x00, 0x00,
  0xe2, 0xe0, 0xff, 0xff, 0x00, 0x00, 0x00, 0x01, 0x18, 0x00, 0x00, 0x00,
  0x28, 0x00, 0x00, 0x00, 0x48, 0x00, 0x00, 0x00, 0x33, 0x00, 0x00, 0x00,
  0x00, 0x00, 0x00, 0x09, 0x60, 0x00, 0x00, 0x00, 0x04, 0x00, 0x00, 0x00,
  0xff, 0xff, 0xff, 0xff, 0x10, 0x00, 0x00, 0x00, 0x03, 0x00, 0x00, 0x00,
  0x08, 0x00, 0x00, 0x00, 0xcc, 0xe0, 0xff, 0xff, 0x08, 0x00, 0x00, 0x00,
  0x14, 0x00, 0x00, 0x00, 0x01, 0x00, 0x00, 0x00, 0x98, 0xff, 0xff, 0xff,
  0xff, 0xff, 0xff, 0xff, 0x00, 0x00, 0x00, 0x00, 0x01, 0x00, 0x00, 0x00,
  0x29, 0x95, 0x29, 0x3d, 0x1d, 0x00, 0x00, 0x00, 0x6d, 0x6f, 0x64, 0x65,
  0x6c, 0x2f, 0x6d, 0x61, 0x78, 0x5f, 0x70, 0x6f, 0x6f, 0x6c, 0x69, 0x6e,
  0x67, 0x32, 0x64, 0x5f, 0x31, 0x2f, 0x4d, 0x61, 0x78, 0x50, 0x6f, 0x6f,
  0x6c, 0x00, 0x00, 0x00, 0x04, 0x00, 0x00, 0x00, 0x01, 0x00, 0x00, 0x00,
  0x10, 0x00, 0x00, 0x00, 0x03, 0x00, 0x00, 0x00, 0x08, 0x00, 0x00, 0x00,
  0x72, 0xe1, 0xff, 0xff, 0x00, 0x00, 0x00, 0x01, 0x18, 0x00, 0x00, 0x00,
  0x28, 0x00, 0x00, 0x00, 0x48, 0x00, 0x00, 0x00, 0x32, 0x00, 0x00, 0x00,
  0x00, 0x00, 0x00, 0x09, 0x70, 0x00, 0x00, 0x00, 0x04, 0x00, 0x00, 0x00,
  0xff, 0xff, 0xff, 0xff, 0x20, 0x00, 0x00, 0x00, 0x06, 0x00, 0x00, 0x00,
  0x08, 0x00, 0x00, 0x00, 0x5c, 0xe1, 0xff, 0xff, 0x08, 0x00, 0x00, 0x00,
  0x14, 0x00, 0x00, 0x00, 0x01, 0x00, 0x00, 0x00, 0x98, 0xff, 0xff, 0xff,
  0xff, 0xff, 0xff, 0xff, 0x00, 0x00, 0x00, 0x00, 0x01, 0x00, 0x00, 0x00,
  0x29, 0x95, 0x29, 0x3d, 0x2d, 0x00, 0x00, 0x00, 0x6d, 0x6f, 0x64, 0x65,
  0x6c, 0x2f, 0x62, 0x61, 0x74, 0x63, 0x68, 0x5f, 0x6e, 0x6f, 0x72, 0x6d,
  0x61, 0x6c, 0x69, 0x7a, 0x61, 0x74, 0x69, 0x6f, 0x6e, 0x5f, 0x31, 0x2f,
  0x46, 0x75, 0x73, 0x65, 0x64, 0x42, 0x61, 0x74, 0x63, 0x68, 0x4e, 0x6f,
  0x72, 0x6d, 0x56, 0x33, 0x33, 0x00, 0x00, 0x00, 0x04, 0x00, 0x00, 0x00,
  0x01, 0x00, 0x00, 0x00, 0x20, 0x00, 0x00, 0x00, 0x06, 0x00, 0x00, 0x00,
  0x08, 0x00, 0x00, 0x00, 0x12, 0xe2, 0xff, 0xff, 0x00, 0x00, 0x00, 0x01,
  0x18, 0x00, 0x00, 0x00, 0x28, 0x00, 0x00, 0x00, 0x48, 0x00, 0x00, 0x00,
  0x31, 0x00, 0x00, 0x00, 0x00, 0x00, 0x00, 0x09, 0x70, 0x00, 0x00, 0x00,
  0x04, 0x00, 0x00, 0x00, 0xff, 0xff, 0xff, 0xff, 0x20, 0x00, 0x00, 0x00,
  0x06, 0x00, 0x00, 0x00, 0x08, 0x00, 0x00, 0x00, 0xfc, 0xe1, 0xff, 0xff,
  0x08, 0x00, 0x00, 0x00, 0x14, 0x00, 0x00, 0x00, 0x01, 0x00, 0x00, 0x00,
  0x96, 0xff, 0xff, 0xff, 0xff, 0xff, 0xff, 0xff, 0x00, 0x00, 0x00, 0x00,
  0x01, 0x00, 0x00, 0x00, 0x6a, 0x41, 0x34, 0x3d, 0x2d, 0x00, 0x00, 0x00,
  0x6d, 0x6f, 0x64, 0x65, 0x6c, 0x2f, 0x62, 0x61, 0x74, 0x63, 0x68, 0x5f,
  0x6e, 0x6f, 0x72, 0x6d, 0x61, 0x6c, 0x69, 0x7a, 0x61, 0x74, 0x69, 0x6f,
  0x6e, 0x5f, 0x31, 0x2f, 0x46, 0x75, 0x73, 0x65, 0x64, 0x42, 0x61, 0x74,
  0x63, 0x68, 0x4e, 0x6f, 0x72, 0x6d, 0x56, 0x33, 0x32, 0x00, 0x00, 0x00,
  0x04, 0x00, 0x00, 0x00, 0x01, 0x00, 0x00, 0x00, 0x20, 0x00, 0x00, 0x00,
  0x06, 0x00, 0x00, 0x00, 0x08, 0x00, 0x00, 0x00, 0xb2, 0xe2, 0xff, 0xff,
  0x00, 0x00, 0x00, 0x01, 0x18, 0x00, 0x00, 0x00, 0x28, 0x00, 0x00, 0x00,
  0x48, 0x00, 0x00, 0x00, 0x30, 0x00, 0x00, 0x00, 0x00, 0x00, 0x00, 0x09,
  0xc0, 0x00, 0x00, 0x00, 0x04, 0x00, 0x00, 0x00, 0xff, 0xff, 0xff, 0xff,
  0x20, 0x00, 0x00, 0x00, 0x06, 0x00, 0x00, 0x00, 0x08, 0x00, 0x00, 0x00,
  0x9c, 0xe2, 0xff, 0xff, 0x08, 0x00, 0x00, 0x00, 0x14, 0x00, 0x00, 0x00,
  0x01, 0x00, 0x00, 0x00, 0x80, 0xff, 0xff, 0xff, 0xff, 0xff, 0xff, 0xff,
  0x00, 0x00, 0x00, 0x00, 0x01, 0x00, 0x00, 0x00, 0x1a, 0xf5, 0x2c, 0x3d,
  0x7c, 0x00, 0x00, 0x00, 0x6d, 0x6f, 0x64, 0x65, 0x6c, 0x2f, 0x63, 0x6f,
  0x6e, 0x76, 0x32, 0x64, 0x5f, 0x31, 0x2f, 0x52, 0x65, 0x6c, 0x75, 0x3b,
  0x6d, 0x6f, 0x64, 0x65, 0x6c, 0x2f, 0x63, 0x6f, 0x6e, 0x76, 0x32, 0x64,
  0x5f, 0x31, 0x2f, 0x42, 0x69, 0x61, 0x73, 0x41, 0x64, 0x64, 0x3b, 0x6d,
  0x6f, 0x64, 0x65, 0x6c, 0x2f, 0x63, 0x6f, 0x6e, 0x76, 0x32, 0x64, 0x5f,
  0x32, 0x2f, 0x43, 0x6f, 0x6e, 0x76, 0x32, 0x44, 0x3b, 0x6d, 0x6f, 0x64,
  0x65, 0x6c, 0x2f, 0x63, 0x6f, 0x6e, 0x76, 0x32, 0x64, 0x5f, 0x31, 0x2f,
  0x43, 0x6f, 0x6e, 0x76, 0x32, 0x44, 0x3b, 0x6d, 0x6f, 0x64, 0x65, 0x6c,
  0x2f, 0x63, 0x6f, 0x6e, 0x76, 0x32, 0x64, 0x5f, 0x31, 0x2f, 0x42, 0x69,
  0x61, 0x73, 0x41, 0x64, 0x64, 0x2f, 0x52, 0x65, 0x61, 0x64, 0x56, 0x61,
  0x72, 0x69, 0x61, 0x62, 0x6c, 0x65, 0x4f, 0x70, 0x00, 0x00, 0x00, 0x00,
  0x04, 0x00, 0x00, 0x00, 0x01, 0x00, 0x00, 0x00, 0x20, 0x00, 0x00, 0x00,
  0x06, 0x00, 0x00, 0x00, 0x08, 0x00, 0x00, 0x00, 0xa2, 0xe3, 0xff, 0xff,
  0x00, 0x00, 0x00, 0x01, 0x18, 0x00, 0x00, 0x00, 0x28, 0x00, 0x00, 0x00,
  0x44, 0x00, 0x00, 0x00, 0x2f, 0x00, 0x00, 0x00, 0x00, 0x00, 0x00, 0x09,
  0x58, 0x00, 0x00, 0x00, 0x04, 0x00, 0x00, 0x00, 0xff, 0xff, 0xff, 0xff,
  0x20, 0x00, 0x00, 0x00, 0x06, 0x00, 0x00, 0x00, 0x08, 0x00, 0x00, 0x00,
  0x8c, 0xe3, 0xff, 0xff, 0x08, 0x00, 0x00, 0x00, 0x10, 0x00, 0x00, 0x00,
  0x01, 0x00, 0x00, 0x00, 0x88, 0xff, 0xff, 0xff, 0xff, 0xff, 0xff, 0xff,
  0x01, 0x00, 0x00, 0x00, 0x01, 0xcf, 0x86, 0x3d, 0x1b, 0x00, 0x00, 0x00,
  0x6d, 0x6f, 0x64, 0x65, 0x6c, 0x2f, 0x6d, 0x61, 0x78, 0x5f, 0x70, 0x6f,
  0x6f, 0x6c, 0x69, 0x6e, 0x67, 0x32, 0x64, 0x2f, 0x4d, 0x61, 0x78, 0x50,
  0x6f, 0x6f, 0x6c, 0x00, 0x04, 0x00, 0x00, 0x00, 0x01, 0x00, 0x00, 0x00,
  0x20, 0x00, 0x00, 0x00, 0x06, 0x00, 0x00, 0x00, 0x08, 0x00, 0x00, 0x00,
  0x2a, 0xe4, 0xff, 0xff, 0x00, 0x00, 0x00, 0x01, 0x18, 0x00, 0x00, 0x00,
  0x28, 0x00, 0x00, 0x00, 0x44, 0x00, 0x00, 0x00, 0x2e, 0x00, 0x00, 0x00,
  0x00, 0x00, 0x00, 0x09, 0x68, 0x00, 0x00, 0x00, 0x04, 0x00, 0x00, 0x00,
  0xff, 0xff, 0xff, 0xff, 0x40, 0x00, 0x00, 0x00, 0x0d, 0x00, 0x00, 0x00,
  0x08, 0x00, 0x00, 0x00, 0x14, 0xe4, 0xff, 0xff, 0x08, 0x00, 0x00, 0x00,
  0x10, 0x00, 0x00, 0x00, 0x01, 0x00, 0x00, 0x00, 0x88, 0xff, 0xff, 0xff,
  0xff, 0xff, 0xff, 0xff, 0x01, 0x00, 0x00, 0x00, 0x01, 0xcf, 0x86, 0x3d,
  0x2b, 0x00, 0x00, 0x00, 0x6d, 0x6f, 0x64, 0x65, 0x6c, 0x2f, 0x62, 0x61,
  0x74, 0x63, 0x68, 0x5f, 0x6e, 0x6f, 0x72, 0x6d, 0x61, 0x6c, 0x69, 0x7a,
  0x61, 0x74, 0x69, 0x6f, 0x6e, 0x2f, 0x46, 0x75, 0x73, 0x65, 0x64, 0x42,
  0x61, 0x74, 0x63, 0x68, 0x4e, 0x6f, 0x72, 0x6d, 0x56, 0x33, 0x33, 0x00,
  0x04, 0x00, 0x00, 0x00, 0x01, 0x00, 0x00, 0x00, 0x40, 0x00, 0x00, 0x00,
  0x0d, 0x00, 0x00, 0x00, 0x08, 0x00, 0x00, 0x00, 0xc2, 0xe4, 0xff, 0xff,
  0x00, 0x00, 0x00, 0x01, 0x18, 0x00, 0x00, 0x00, 0x28, 0x00, 0x00, 0x00,
  0x44, 0x00, 0x00, 0x00, 0x2d, 0x00, 0x00, 0x00, 0x00, 0x00, 0x00, 0x09,
  0x68, 0x00, 0x00, 0x00, 0x04, 0x00, 0x00, 0x00, 0xff, 0xff, 0xff, 0xff,
  0x40, 0x00, 0x00, 0x00, 0x0d, 0x00, 0x00, 0x00, 0x08, 0x00, 0x00, 0x00,
  0xac, 0xe4, 0xff, 0xff, 0x08, 0x00, 0x00, 0x00, 0x10, 0x00, 0x00, 0x00,
  0x01, 0x00, 0x00, 0x00, 0x88, 0xff, 0xff, 0xff, 0xff, 0xff, 0xff, 0xff,
  0x01, 0x00, 0x00, 0x00, 0x52, 0xea, 0x86, 0x3d, 0x2b, 0x00, 0x00, 0x00,
  0x6d, 0x6f, 0x64, 0x65, 0x6c, 0x2f, 0x62, 0x61, 0x74, 0x63, 0x68, 0x5f,
  0x6e, 0x6f, 0x72, 0x6d, 0x61, 0x6c, 0x69, 0x7a, 0x61, 0x74, 0x69, 0x6f,
  0x6e, 0x2f, 0x46, 0x75, 0x73, 0x65, 0x64, 0x42, 0x61, 0x74, 0x63, 0x68,
  0x4e, 0x6f, 0x72, 0x6d, 0x56, 0x33, 0x32, 0x00, 0x04, 0x00, 0x00, 0x00,
  0x01, 0x00, 0x00, 0x00, 0x40, 0x00, 0x00, 0x00, 0x0d, 0x00, 0x00, 0x00,
  0x08, 0x00, 0x00, 0x00, 0x5a, 0xe5, 0xff, 0xff, 0x00, 0x00, 0x00, 0x01,
  0x18, 0x00, 0x00, 0x00, 0x28, 0x00, 0x00, 0x00, 0x48, 0x00, 0x00, 0x00,
  0x2c, 0x00, 0x00, 0x00, 0x00, 0x00, 0x00, 0x09, 0xb8, 0x00, 0x00, 0x00,
  0x04, 0x00, 0x00, 0x00, 0xff, 0xff, 0xff, 0xff, 0x40, 0x00, 0x00, 0x00,
  0x0d, 0x00, 0x00, 0x00, 0x08, 0x00, 0x00, 0x00, 0x44, 0xe5, 0xff, 0xff,
  0x08, 0x00, 0x00, 0x00, 0x14, 0x00, 0x00, 0x00, 0x01, 0x00, 0x00, 0x00,
  0x80, 0xff, 0xff, 0xff, 0xff, 0xff, 0xff, 0xff, 0x00, 0x00, 0x00, 0x00,
  0x01, 0x00, 0x00, 0x00, 0x6d, 0xb7, 0x49, 0x3f, 0x74, 0x00, 0x00, 0x00,
  0x6d, 0x6f, 0x64, 0x65, 0x6c, 0x2f, 0x63, 0x6f, 0x6e, 0x76, 0x32, 0x64,
  0x2f, 0x52, 0x65, 0x6c, 0x75, 0x3b, 0x6d, 0x6f, 0x64, 0x65, 0x6c, 0x2f,
  0x63, 0x6f, 0x6e, 0x76, 0x32, 0x64, 0x2f, 0x42, 0x69, 0x61, 0x73, 0x41,
  0x64, 0x64, 0x3b, 0x6d, 0x6f, 0x64, 0x65, 0x6c, 0x2f, 0x63, 0x6f, 0x6e,
  0x76, 0x32, 0x64, 0x5f, 0x32, 0x2f, 0x43, 0x6f, 0x6e, 0x76, 0x32, 0x44,
  0x3b, 0x6d, 0x6f, 0x64, 0x65, 0x6c, 0x2f, 0x63, 0x6f, 0x6e, 0x76, 0x32,
  0x64, 0x2f, 0x43, 0x6f, 0x6e, 0x76, 0x32, 0x44, 0x3b, 0x6d, 0x6f, 0x64,
  0x65, 0x6c, 0x2f, 0x63, 0x6f, 0x6e, 0x76, 0x32, 0x64, 0x2f, 0x42, 0x69,
  0x61, 0x73, 0x41, 0x64, 0x64, 0x2f, 0x52, 0x65, 0x61, 0x64, 0x56, 0x61,
  0x72, 0x69, 0x61, 0x62, 0x6c, 0x65, 0x4f, 0x70, 0x00, 0x00, 0x00, 0x00,
  0x04, 0x00, 0x00, 0x00, 0x01, 0x00, 0x00, 0x00, 0x40, 0x00, 0x00, 0x00,
  0x0d, 0x00, 0x00, 0x00, 0x08, 0x00, 0x00, 0x00, 0x42, 0xe6, 0xff, 0xff,
  0x00, 0x00, 0x00, 0x01, 0x18, 0x00, 0x00, 0x00, 0x28, 0x00, 0x00, 0x00,
  0x48, 0x00, 0x00, 0x00, 0x2b, 0x00, 0x00, 0x00, 0x00, 0x00, 0x00, 0x09,
  0x60, 0x00, 0x00, 0x00, 0x04, 0x00, 0x00, 0x00, 0xff, 0xff, 0xff, 0xff,
  0x08, 0x00, 0x00, 0x00, 0x01, 0x00, 0x00, 0x00, 0x08, 0x00, 0x00, 0x00,
  0x2c, 0xe6, 0xff, 0xff, 0x08, 0x00, 0x00, 0x00, 0x14, 0x00, 0x00, 0x00,
  0x01, 0x00, 0x00, 0x00, 0x94, 0xff, 0xff, 0xff, 0xff, 0xff, 0xff, 0xff,
  0x00, 0x00, 0x00, 0x00, 0x01, 0x00, 0x00, 0x00, 0x3d, 0x05, 0x98, 0x3d,
  0x1d, 0x00, 0x00, 0x00, 0x6d, 0x6f, 0x64, 0x65, 0x6c, 0x2f, 0x6d, 0x61,
  0x78, 0x5f, 0x70, 0x6f, 0x6f, 0x6c, 0x69, 0x6e, 0x67, 0x32, 0x64, 0x5f,
  0x35, 0x2f, 0x4d, 0x61, 0x78, 0x50, 0x6f, 0x6f, 0x6c, 0x00, 0x00, 0x00,
  0x04, 0x00, 0x00, 0x00, 0x01, 0x00, 0x00, 0x00, 0x08, 0x00, 0x00, 0x00,
  0x01, 0x00, 0x00, 0x00, 0x08, 0x00, 0x00, 0x00, 0xd2, 0xe6, 0xff, 0xff,
  0x00, 0x00, 0x00, 0x01, 0x18, 0x00, 0x00, 0x00, 0x28, 0x00, 0x00, 0x00,
  0x48, 0x00, 0x00, 0x00, 0x2a, 0x00, 0x00, 0x00, 0x00, 0x00, 0x00, 0x09,
  0x70, 0x00, 0x00, 0x00, 0x04, 0x00, 0x00, 0x00, 0xff, 0xff, 0xff, 0xff,
  0x10, 0x00, 0x00, 0x00, 0x03, 0x00, 0x00, 0x00, 0x08, 0x00, 0x00, 0x00,
  0xbc, 0xe6, 0xff, 0xff, 0x08, 0x00, 0x00, 0x00, 0x14, 0x00, 0x00, 0x00,
  0x01, 0x00, 0x00, 0x00, 0x94, 0xff, 0xff, 0xff, 0xff, 0xff, 0xff, 0xff,
  0x00, 0x00, 0x00, 0x00, 0x01, 0x00, 0x00, 0x00, 0x3d, 0x05, 0x98, 0x3d,
  0x2d, 0x00, 0x00, 0x00, 0x6d, 0x6f, 0x64, 0x65, 0x6c, 0x2f, 0x62, 0x61,
  0x74, 0x63, 0x68, 0x5f, 0x6e, 0x6f, 0x72, 0x6d, 0x61, 0x6c, 0x69, 0x7a,
  0x61, 0x74, 0x69, 0x6f, 0x6e, 0x5f, 0x35, 0x2f, 0x46, 0x75, 0x73, 0x65,
  0x64, 0x42, 0x61, 0x74, 0x63, 0x68, 0x4e, 0x6f, 0x72, 0x6d, 0x56, 0x33,
  0x33, 0x00, 0x00, 0x00, 0x04, 0x00, 0x00, 0x00, 0x01, 0x00, 0x00, 0x00,
  0x10, 0x00, 0x00, 0x00, 0x03, 0x00, 0x00, 0x00, 0x08, 0x00, 0x00, 0x00,
  0x72, 0xe7, 0xff, 0xff, 0x00, 0x00, 0x00, 0x01, 0x18, 0x00, 0x00, 0x00,
  0x28, 0x00, 0x00, 0x00, 0x48, 0x00, 0x00, 0x00, 0x29, 0x00, 0x00, 0x00,
  0x00, 0x00, 0x00, 0x09, 0x70, 0x00, 0x00, 0x00, 0x04, 0x00, 0x00, 0x00,
  0xff, 0xff, 0xff, 0xff, 0x10, 0x00, 0x00, 0x00, 0x03, 0x00, 0x00, 0x00,
  0x08, 0x00, 0x00, 0x00, 0x5c, 0xe7, 0xff, 0xff, 0x08, 0x00, 0x00, 0x00,
  0x14, 0x00, 0x00, 0x00, 0x01, 0x00, 0x00, 0x00, 0x8e, 0xff, 0xff, 0xff,
  0xff, 0xff, 0xff, 0xff, 0x00, 0x00, 0x00, 0x00, 0x01, 0x00, 0x00, 0x00,
  0xfe, 0x67, 0x86, 0x3d, 0x2d, 0x00, 0x00, 0x00, 0x6d, 0x6f, 0x64, 0x65,
  0x6c, 0x2f, 0x62, 0x61, 0x74, 0x63, 0x68, 0x5f, 0x6e, 0x6f, 0x72, 0x6d,
  0x61, 0x6c, 0x69, 0x7a, 0x61, 0x74, 0x69, 0x6f, 0x6e, 0x5f, 0x35, 0x2f,
  0x46, 0x75, 0x73, 0x65, 0x64, 0x42, 0x61, 0x74, 0x63, 0x68, 0x4e, 0x6f,
  0x72, 0x6d, 0x56, 0x33, 0x32, 0x00, 0x00, 0x00, 0x04, 0x00, 0x00, 0x00,
  0x01, 0x00, 0x00, 0x00, 0x10, 0x00, 0x00, 0x00, 0x03, 0x00, 0x00, 0x00,
  0x08, 0x00, 0x00, 0x00, 0x12, 0xe8, 0xff, 0xff, 0x00, 0x00, 0x00, 0x01,
  0x18, 0x00, 0x00, 0x00, 0x28, 0x00, 0x00, 0x00, 0x48, 0x00, 0x00, 0x00,
  0x28, 0x00, 0x00, 0x00, 0x00, 0x00, 0x00, 0x09, 0xc0, 0x00, 0x00, 0x00,
  0x04, 0x00, 0x00, 0x00, 0xff, 0xff, 0xff, 0xff, 0x10, 0x00, 0x00, 0x00,
  0x03, 0x00, 0x00, 0x00, 0x08, 0x00, 0x00, 0x00, 0xfc, 0xe7, 0xff, 0xff,
  0x08, 0x00, 0x00, 0x00, 0x14, 0x00, 0x00, 0x00, 0x01, 0x00, 0x00, 0x00,
  0x80, 0xff, 0xff, 0xff, 0xff, 0xff, 0xff, 0xff, 0x00, 0x00, 0x00, 0x00,
  0x01, 0x00, 0x00, 0x00, 0xc1, 0x8e, 0x7d, 0x3d, 0x7c, 0x00, 0x00, 0x00,
  0x6d, 0x6f, 0x64, 0x65, 0x6c, 0x2f, 0x63, 0x6f, 0x6e, 0x76, 0x32, 0x64,
  0x5f, 0x35, 0x2f, 0x52, 0x65, 0x6c, 0x75, 0x3b, 0x6d, 0x6f, 0x64, 0x65,
  0x6c, 0x2f, 0x63, 0x6f, 0x6e, 0x76, 0x32, 0x64, 0x5f, 0x35, 0x2f, 0x42,
  0x69, 0x61, 0x73, 0x41, 0x64, 0x64, 0x3b, 0x6d, 0x6f, 0x64, 0x65, 0x6c,
  0x2f, 0x63, 0x6f, 0x6e, 0x76, 0x32, 0x64, 0x5f, 0x32, 0x2f, 0x43, 0x6f,
  0x6e, 0x76, 0x32, 0x44, 0x3b, 0x6d, 0x6f, 0x64, 0x65, 0x6c, 0x2f, 0x63,
  0x6f, 0x6e, 0x76, 0x32, 0x64, 0x5f, 0x35, 0x2f, 0x43, 0x6f, 0x6e, 0x76,
  0x32, 0x44, 0x3b, 0x6d, 0x6f, 0x64, 0x65, 0x6c, 0x2f, 0x63, 0x6f, 0x6e,
  0x76, 0x32, 0x64, 0x5f, 0x35, 0x2f, 0x42, 0x69, 0x61, 0x73, 0x41, 0x64,
  0x64, 0x2f, 0x52, 0x65, 0x61, 0x64, 0x56, 0x61, 0x72, 0x69, 0x61, 0x62,
  0x6c, 0x65, 0x4f, 0x70, 0x00, 0x00, 0x00, 0x00, 0x04, 0x00, 0x00, 0x00,
  0x01, 0x00, 0x00, 0x00, 0x10, 0x00, 0x00, 0x00, 0x03, 0x00, 0x00, 0x00,
  0x08, 0x00, 0x00, 0x00, 0x02, 0xe9, 0xff, 0xff, 0x00, 0x00, 0x00, 0x01,
  0x18, 0x00, 0x00, 0x00, 0x28, 0x00, 0x00, 0x00, 0x48, 0x00, 0x00, 0x00,
  0x27, 0x00, 0x00, 0x00, 0x00, 0x00, 0x00, 0x09, 0x60, 0x00, 0x00, 0x00,
  0x04, 0x00, 0x00, 0x00, 0xff, 0xff, 0xff, 0xff, 0x10, 0x00, 0x00, 0x00,
  0x03, 0x00, 0x00, 0x00, 0x08, 0x00, 0x00, 0x00, 0xec, 0xe8, 0xff, 0xff,
  0x08, 0x00, 0x00, 0x00, 0x14, 0x00, 0x00, 0x00, 0x01, 0x00, 0x00, 0x00,
  0x9c, 0xff, 0xff, 0xff, 0xff, 0xff, 0xff, 0xff, 0x00, 0x00, 0x00, 0x00,
  0x01, 0x00, 0x00, 0x00, 0x75, 0x47, 0x1d, 0x3d, 0x1d, 0x00, 0x00, 0x00,
  0x6d, 0x6f, 0x64, 0x65, 0x6c, 0x2f, 0x6d, 0x61, 0x78, 0x5f, 0x70, 0x6f,
  0x6f, 0x6c, 0x69, 0x6e, 0x67, 0x32, 0x64, 0x5f, 0x34, 0x2f, 0x4d, 0x61,
  0x78, 0x50, 0x6f, 0x6f, 0x6c, 0x00, 0x00, 0x00, 0x04, 0x00, 0x00, 0x00,
  0x01, 0x00, 0x00, 0x00, 0x10, 0x00, 0x00, 0x00, 0x03, 0x00, 0x00, 0x00,
  0x08, 0x00, 0x00, 0x00, 0x92, 0xe9, 0xff, 0xff, 0x00, 0x00, 0x00, 0x01,
  0x18, 0x00, 0x00, 0x00, 0x28, 0x00, 0x00, 0x00, 0x48, 0x00, 0x00, 0x00,
  0x26, 0x00, 0x00, 0x00, 0x00, 0x00, 0x00, 0x09, 0x70, 0x00, 0x00, 0x00,
  0x04, 0x00, 0x00, 0x00, 0xff, 0xff, 0xff, 0xff, 0x20, 0x00, 0x00, 0x00,
  0x06, 0x00, 0x00, 0x00, 0x08, 0x00, 0x00, 0x00, 0x7c, 0xe9, 0xff, 0xff,
  0x08, 0x00, 0x00, 0x00, 0x14, 0x00, 0x00, 0x00, 0x01, 0x00, 0x00, 0x00,
  0x9c, 0xff, 0xff, 0xff, 0xff, 0xff, 0xff, 0xff, 0x00, 0x00, 0x00, 0x00,
  0x01, 0x00, 0x00, 0x00, 0x75, 0x47, 0x1d, 0x3d, 0x2d, 0x00, 0x00, 0x00,
  0x6d, 0x6f, 0x64, 0x65, 0x6c, 0x2f, 0x62, 0x61, 0x74, 0x63, 0x68, 0x5f,
  0x6e, 0x6f, 0x72, 0x6d, 0x61, 0x6c, 0x69, 0x7a, 0x61, 0x74, 0x69, 0x6f,
  0x6e, 0x5f, 0x34, 0x2f, 0x46, 0x75, 0x73, 0x65, 0x64, 0x42, 0x61, 0x74,
  0x63, 0x68, 0x4e, 0x6f, 0x72, 0x6d, 0x56, 0x33, 0x33, 0x00, 0x00, 0x00,
  0x04, 0x00, 0x00, 0x00, 0x01, 0x00, 0x00, 0x00, 0x20, 0x00, 0x00, 0x00,
  0x06, 0x00, 0x00, 0x00, 0x08, 0x00, 0x00, 0x00, 0x32, 0xea, 0xff, 0xff,
  0x00, 0x00, 0x00, 0x01, 0x18, 0x00, 0x00, 0x00, 0x28, 0x00, 0x00, 0x00,
  0x48, 0x00, 0x00, 0x00, 0x25, 0x00, 0x00, 0x00, 0x00, 0x00, 0x00, 0x09,
  0x70, 0x00, 0x00, 0x00, 0x04, 0x00, 0x00, 0x00, 0xff, 0xff, 0xff, 0xff,
  0x20, 0x00, 0x00, 0x00, 0x06, 0x00, 0x00, 0x00, 0x08, 0x00, 0x00, 0x00,
  0x1c, 0xea, 0xff, 0xff, 0x08, 0x00, 0x00, 0x00, 0x14, 0x00, 0x00, 0x00,
  0x01, 0x00, 0x00, 0x00, 0x9a, 0xff, 0xff, 0xff, 0xff, 0xff, 0xff, 0xff,
  0x00, 0x00, 0x00, 0x00, 0x01, 0x00, 0x00, 0x00, 0x76, 0x42, 0x25, 0x3d,
  0x2d, 0x00, 0x00, 0x00, 0x6d, 0x6f, 0x64, 0x65, 0x6c, 0x2f, 0x62, 0x61,
  0x74, 0x63, 0x68, 0x5f, 0x6e, 0x6f, 0x72, 0x6d, 0x61, 0x6c, 0x69, 0x7a,
  0x61, 0x74, 0x69, 0x6f, 0x6e, 0x5f, 0x34, 0x2f, 0x46, 0x75, 0x73, 0x65,
  0x64, 0x42, 0x61, 0x74, 0x63, 0x68, 0x4e, 0x6f, 0x72, 0x6d, 0x56, 0x33,
  0x32, 0x00, 0x00, 0x00, 0x04, 0x00, 0x00, 0x00, 0x01, 0x00, 0x00, 0x00,
  0x20, 0x00, 0x00, 0x00, 0x06, 0x00, 0x00, 0x00, 0x08, 0x00, 0x00, 0x00,
  0xd2, 0xea, 0xff, 0xff, 0x00, 0x00, 0x00, 0x01, 0x18, 0x00, 0x00, 0x00,
  0x28, 0x00, 0x00, 0x00, 0x48, 0x00, 0x00, 0x00, 0x24, 0x00, 0x00, 0x00,
  0x00, 0x00, 0x00, 0x09, 0xc0, 0x00, 0x00, 0x00, 0x04, 0x00, 0x00, 0x00,
  0xff, 0xff, 0xff, 0xff, 0x20, 0x00, 0x00, 0x00, 0x06, 0x00, 0x00, 0x00,
  0x08, 0x00, 0x00, 0x00, 0xbc, 0xea, 0xff, 0xff, 0x08, 0x00, 0x00, 0x00,
  0x14, 0x00, 0x00, 0x00, 0x01, 0x00, 0x00, 0x00, 0x80, 0xff, 0xff, 0xff,
  0xff, 0xff, 0xff, 0xff, 0x00, 0x00, 0x00, 0x00, 0x01, 0x00, 0x00, 0x00,
  0x7e, 0x24, 0x58, 0x3d, 0x7c, 0x00, 0x00, 0x00, 0x6d, 0x6f, 0x64, 0x65,
  0x6c, 0x2f, 0x63, 0x6f, 0x6e, 0x76, 0x32, 0x64, 0x5f, 0x34, 0x2f, 0x52,
  0x65, 0x6c, 0x75, 0x3b, 0x6d, 0x6f, 0x64, 0x65, 0x6c, 0x2f, 0x63, 0x6f,
  0x6e, 0x76, 0x32, 0x64, 0x5f, 0x34, 0x2f, 0x42, 0x69, 0x61, 0x73, 0x41,
  0x64, 0x64, 0x3b, 0x6d, 0x6f, 0x64, 0x65, 0x6c, 0x2f, 0x63, 0x6f, 0x6e,
  0x76, 0x32, 0x64, 0x5f, 0x32, 0x2f, 0x43, 0x6f, 0x6e, 0x76, 0x32, 0x44,
  0x3b, 0x6d, 0x6f, 0x64, 0x65, 0x6c, 0x2f, 0x63, 0x6f, 0x6e, 0x76, 0x32,
  0x64, 0x5f, 0x34, 0x2f, 0x43, 0x6f, 0x6e, 0x76, 0x32, 0x44, 0x3b, 0x6d,
  0x6f, 0x64, 0x65, 0x6c, 0x2f, 0x63, 0x6f, 0x6e, 0x76, 0x32, 0x64, 0x5f,
  0x34, 0x2f, 0x42, 0x69, 0x61, 0x73, 0x41, 0x64, 0x64, 0x2f, 0x52, 0x65,
  0x61, 0x64, 0x56, 0x61, 0x72, 0x69, 0x61, 0x62, 0x6c, 0x65, 0x4f, 0x70,
  0x00, 0x00, 0x00, 0x00, 0x04, 0x00, 0x00, 0x00, 0x01, 0x00, 0x00, 0x00,
  0x20, 0x00, 0x00, 0x00, 0x06, 0x00, 0x00, 0x00, 0x08, 0x00, 0x00, 0x00,
  0xc2, 0xeb, 0xff, 0xff, 0x00, 0x00, 0x00, 0x01, 0x18, 0x00, 0x00, 0x00,
  0x28, 0x00, 0x00, 0x00, 0x48, 0x00, 0x00, 0x00, 0x23, 0x00, 0x00, 0x00,
  0x00, 0x00, 0x00, 0x09, 0x60, 0x00, 0x00, 0x00, 0x04, 0x00, 0x00, 0x00,
  0xff, 0xff, 0xff, 0xff, 0x20, 0x00, 0x00, 0x00, 0x06, 0x00, 0x00, 0x00,
  0x08, 0x00, 0x00, 0x00, 0xac, 0xeb, 0xff, 0xff, 0x08, 0x00, 0x00, 0x00,
  0x14, 0x00, 0x00, 0x00, 0x01, 0x00, 0x00, 0x00, 0x91, 0xff, 0xff, 0xff,
  0xff, 0xff, 0xff, 0xff, 0x00, 0x00, 0x00, 0x00, 0x01, 0x00, 0x00, 0x00,
  0x8b, 0x50, 0x21, 0x3d, 0x1d, 0x00, 0x00, 0x00, 0x6d, 0x6f, 0x64, 0x65,
  0x6c, 0x2f, 0x6d, 0x61, 0x78, 0x5f, 0x70, 0x6f, 0x6f, 0x6c, 0x69, 0x6e,
  0x67, 0x32, 0x64, 0x5f, 0x33, 0x2f, 0x4d, 0x61, 0x78, 0x50, 0x6f, 0x6f,
  0x6c, 0x00, 0x00, 0x00, 0x04, 0x00, 0x00, 0x00, 0x01, 0x00, 0x00, 0x00,
  0x20, 0x00, 0x00, 0x00, 0x06, 0x00, 0x00, 0x00, 0x08, 0x00, 0x00, 0x00,
  0x52, 0xec, 0xff, 0xff, 0x00, 0x00, 0x00, 0x01, 0x18, 0x00, 0x00, 0x00,
  0x28, 0x00, 0x00, 0x00, 0x48, 0x00, 0x00, 0x00, 0x22, 0x00, 0x00, 0x00,
  0x00, 0x00, 0x00, 0x09, 0x70, 0x00, 0x00, 0x00, 0x04, 0x00, 0x00, 0x00,
  0xff, 0xff, 0xff, 0xff, 0x40, 0x00, 0x00, 0x00, 0x0d, 0x00, 0x00, 0x00,
  0x08, 0x00, 0x00, 0x00, 0x3c, 0xec, 0xff, 0xff, 0x08, 0x00, 0x00, 0x00,
  0x14, 0x00, 0x00, 0x00, 0x01, 0x00, 0x00, 0x00, 0x91, 0xff, 0xff, 0xff,
  0xff, 0xff, 0xff, 0xff, 0x00, 0x00, 0x00, 0x00, 0x01, 0x00, 0x00, 0x00,
  0x8b, 0x50, 0x21, 0x3d, 0x2d, 0x00, 0x00, 0x00, 0x6d, 0x6f, 0x64, 0x65,
  0x6c, 0x2f, 0x62, 0x61, 0x74, 0x63, 0x68, 0x5f, 0x6e, 0x6f, 0x72, 0x6d,
  0x61, 0x6c, 0x69, 0x7a, 0x61, 0x74, 0x69, 0x6f, 0x6e, 0x5f, 0x33, 0x2f,
  0x46, 0x75, 0x73, 0x65, 0x64, 0x42, 0x61, 0x74, 0x63, 0x68, 0x4e, 0x6f,
  0x72, 0x6d, 0x56, 0x33, 0x33, 0x00, 0x00, 0x00, 0x04, 0x00, 0x00, 0x00,
  0x01, 0x00, 0x00, 0x00, 0x40, 0x00, 0x00, 0x00, 0x0d, 0x00, 0x00, 0x00,
  0x08, 0x00, 0x00, 0x00, 0xf2, 0xec, 0xff, 0xff, 0x00, 0x00, 0x00, 0x01,
  0x18, 0x00, 0x00, 0x00, 0x28, 0x00, 0x00, 0x00, 0x48, 0x00, 0x00, 0x00,
  0x21, 0x00, 0x00, 0x00, 0x00, 0x00, 0x00, 0x09, 0x70, 0x00, 0x00, 0x00,
  0x04, 0x00, 0x00, 0x00, 0xff, 0xff, 0xff, 0xff, 0x40, 0x00, 0x00, 0x00,
  0x0d, 0x00, 0x00, 0x00, 0x08, 0x00, 0x00, 0x00, 0xdc, 0xec, 0xff, 0xff,
  0x08, 0x00, 0x00, 0x00, 0x14, 0x00, 0x00, 0x00, 0x01, 0x00, 0x00, 0x00,
  0x91, 0xff, 0xff, 0xff, 0xff, 0xff, 0xff, 0xff, 0x00, 0x00, 0x00, 0x00,
  0x01, 0x00, 0x00, 0x00, 0xeb, 0xdd, 0x27, 0x3d, 0x2d, 0x00, 0x00, 0x00,
  0x6d, 0x6f, 0x64, 0x65, 0x6c, 0x2f, 0x62, 0x61, 0x74, 0x63, 0x68, 0x5f,
  0x6e, 0x6f, 0x72, 0x6d, 0x61, 0x6c, 0x69, 0x7a, 0x61, 0x74, 0x69, 0x6f,
  0x6e, 0x5f, 0x33, 0x2f, 0x46, 0x75, 0x73, 0x65, 0x64, 0x42, 0x61, 0x74,
  0x63, 0x68, 0x4e, 0x6f, 0x72, 0x6d, 0x56, 0x33, 0x32, 0x00, 0x00, 0x00,
  0x04, 0x00, 0x00, 0x00, 0x01, 0x00, 0x00, 0x00, 0x40, 0x00, 0x00, 0x00,
  0x0d, 0x00, 0x00, 0x00, 0x08, 0x00, 0x00, 0x00, 0x92, 0xed, 0xff, 0xff,
  0x00, 0x00, 0x00, 0x01, 0x18, 0x00, 0x00, 0x00, 0x28, 0x00, 0x00, 0x00,
  0x48, 0x00, 0x00, 0x00, 0x20, 0x00, 0x00, 0x00, 0x00, 0x00, 0x00, 0x09,
  0xc0, 0x00, 0x00, 0x00, 0x04, 0x00, 0x00, 0x00, 0xff, 0xff, 0xff, 0xff,
  0x40, 0x00, 0x00, 0x00, 0x0d, 0x00, 0x00, 0x00, 0x08, 0x00, 0x00, 0x00,
  0x7c, 0xed, 0xff, 0xff, 0x08, 0x00, 0x00, 0x00, 0x14, 0x00, 0x00, 0x00,
  0x01, 0x00, 0x00, 0x00, 0x80, 0xff, 0xff, 0xff, 0xff, 0xff, 0xff, 0xff,
  0x00, 0x00, 0x00, 0x00, 0x01, 0x00, 0x00, 0x00, 0x43, 0xa1, 0xb2, 0x3f,
  0x7c, 0x00, 0x00, 0x00, 0x6d, 0x6f, 0x64, 0x65, 0x6c, 0x2f, 0x63, 0x6f,
  0x6e, 0x76, 0x32, 0x64, 0x5f, 0x33, 0x2f, 0x52, 0x65, 0x6c, 0x75, 0x3b,
  0x6d, 0x6f, 0x64, 0x65, 0x6c, 0x2f, 0x63, 0x6f, 0x6e, 0x76, 0x32, 0x64,
  0x5f, 0x33, 0x2f, 0x42, 0x69, 0x61, 0x73, 0x41, 0x64, 0x64, 0x3b, 0x6d,
  0x6f, 0x64, 0x65, 0x6c, 0x2f, 0x63, 0x6f, 0x6e, 0x76, 0x32, 0x64, 0x5f,
  0x32, 0x2f, 0x43, 0x6f, 0x6e, 0x76, 0x32, 0x44, 0x3b, 0x6d, 0x6f, 0x64,
  0x65, 0x6c, 0x2f, 0x63, 0x6f, 0x6e, 0x76, 0x32, 0x64, 0x5f, 0x33, 0x2f,
  0x43, 0x6f, 0x6e, 0x76, 0x32, 0x44, 0x3b, 0x6d, 0x6f, 0x64, 0x65, 0x6c,
  0x2f, 0x63, 0x6f, 0x6e, 0x76, 0x32, 0x64, 0x5f, 0x33, 0x2f, 0x42, 0x69,
  0x61, 0x73, 0x41, 0x64, 0x64, 0x2f, 0x52, 0x65, 0x61, 0x64, 0x56, 0x61,
  0x72, 0x69, 0x61, 0x62, 0x6c, 0x65, 0x4f, 0x70, 0x00, 0x00, 0x00, 0x00,
  0x04, 0x00, 0x00, 0x00, 0x01, 0x00, 0x00, 0x00, 0x40, 0x00, 0x00, 0x00,
  0x0d, 0x00, 0x00, 0x00, 0x08, 0x00, 0x00, 0x00, 0x82, 0xee, 0xff, 0xff,
  0x00, 0x00, 0x00, 0x01, 0x18, 0x00, 0x00, 0x00, 0x28, 0x00, 0x00, 0x00,
  0x48, 0x00, 0x00, 0x00, 0x1f, 0x00, 0x00, 0x00, 0x00, 0x00, 0x00, 0x09,
  0x50, 0x00, 0x00, 0x00, 0x04, 0x00, 0x00, 0x00, 0xff, 0xff, 0xff, 0xff,
  0x40, 0x00, 0x00, 0x00, 0x0d, 0x00, 0x00, 0x00, 0x01, 0x00, 0x00, 0x00,
  0x6c, 0xee, 0xff, 0xff, 0x08, 0x00, 0x00, 0x00, 0x14, 0x00, 0x00, 0x00,
  0x01, 0x00, 0x00, 0x00, 0x80, 0xff, 0xff, 0xff, 0xff, 0xff, 0xff, 0xff,
  0x00, 0x00, 0x00, 0x00, 0x01, 0x00, 0x00, 0x00, 0x00, 0x00, 0x80, 0x3f,
  0x0d, 0x00, 0x00, 0x00, 0x74, 0x66, 0x6c, 0x2e, 0x71, 0x75, 0x61, 0x6e,
  0x74, 0x69, 0x7a, 0x65, 0x31, 0x00, 0x00, 0x00, 0x04, 0x00, 0x00, 0x00,
  0x01, 0x00, 0x00, 0x00, 0x40, 0x00, 0x00, 0x00, 0x0d, 0x00, 0x00, 0x00,
  0x01, 0x00, 0x00, 0x00, 0x02, 0xef, 0xff, 0xff, 0x00, 0x00, 0x00, 0x01,
  0x18, 0x00, 0x00, 0x00, 0x28, 0x00, 0x00, 0x00, 0x48, 0x00, 0x00, 0x00,
  0x1e, 0x00, 0x00, 0x00, 0x00, 0x00, 0x00, 0x09, 0x50, 0x00, 0x00, 0x00,
  0x04, 0x00, 0x00, 0x00, 0xff, 0xff, 0xff, 0xff, 0x40, 0x00, 0x00, 0x00,
  0x0d, 0x00, 0x00, 0x00, 0x01, 0x00, 0x00, 0x00, 0xec, 0xee, 0xff, 0xff,
  0x08, 0x00, 0x00, 0x00, 0x14, 0x00, 0x00, 0x00, 0x01, 0x00, 0x00, 0x00,
  0x80, 0xff, 0xff, 0xff, 0xff, 0xff, 0xff, 0xff, 0x00, 0x00, 0x00, 0x00,
  0x01, 0x00, 0x00, 0x00, 0x00, 0x00, 0x80, 0x3f, 0x0c, 0x00, 0x00, 0x00,
  0x74, 0x66, 0x6c, 0x2e, 0x71, 0x75, 0x61, 0x6e, 0x74, 0x69, 0x7a, 0x65,
  0x00, 0x00, 0x00, 0x00, 0x04, 0x00, 0x00, 0x00, 0x01, 0x00, 0x00, 0x00,
  0x40, 0x00, 0x00, 0x00, 0x0d, 0x00, 0x00, 0x00, 0x01, 0x00, 0x00, 0x00,
  0x6a, 0xf0, 0xff, 0xff, 0x00, 0x00, 0x00, 0x01, 0x14, 0x00, 0x00, 0x00,
  0x84, 0x00, 0x00, 0x00, 0x1d, 0x00, 0x00, 0x00, 0x00, 0x00, 0x00, 0x09,
  0x94, 0x00, 0x00, 0x00, 0x54, 0xef, 0xff, 0xff, 0x08, 0x00, 0x00, 0x00,
  0x48, 0x00, 0x00, 0x00, 0x08, 0x00, 0x00, 0x00, 0x00, 0x00, 0x00, 0x00,
  0x00, 0x00, 0x00, 0x00, 0x00, 0x00, 0x00, 0x00, 0x00, 0x00, 0x00, 0x00,
  0x00, 0x00, 0x00, 0x00, 0x00, 0x00, 0x00, 0x00, 0x00, 0x00, 0x00, 0x00,
  0x00, 0x00, 0x00, 0x00, 0x00, 0x00, 0x00, 0x00, 0x00, 0x00, 0x00, 0x00,
  0x00, 0x00, 0x00, 0x00, 0x00, 0x00, 0x00, 0x00, 0x00, 0x00, 0x00, 0x00,
  0x00, 0x00, 0x00, 0x00, 0x00, 0x00, 0x00, 0x00, 0x00, 0x00, 0x00, 0x00,
  0x08, 0x00, 0x00, 0x00, 0xc2, 0xa1, 0xd8, 0x3a, 0x70, 0xb2, 0xa1, 0x3a,
  0xe6, 0xe6, 0xb4, 0x3a, 0x8b, 0x42, 0x8f, 0x3a, 0x54, 0xa6, 0xcb, 0x3a,
  0x17, 0x64, 0xcb, 0x3a, 0x71, 0xf6, 0xc3, 0x3a, 0xdf, 0x37, 0x9b, 0x3a,
  0x15, 0x00, 0x00, 0x00, 0x6d, 0x6f, 0x64, 0x65, 0x6c, 0x2f, 0x63, 0x6f,
  0x6e, 0x76, 0x32, 0x64, 0x5f, 0x33, 0x2f, 0x43, 0x6f, 0x6e, 0x76, 0x32,
  0x44, 0x00, 0x00, 0x00, 0x04, 0x00, 0x00, 0x00, 0x08, 0x00, 0x00, 0x00,
  0x07, 0x00, 0x00, 0x00, 0x07, 0x00, 0x00, 0x00, 0x01, 0x00, 0x00, 0x00,
  0x2a, 0xf1, 0xff, 0xff, 0x00, 0x00, 0x00, 0x01, 0x14, 0x00, 0x00, 0x00,
  0x88, 0x00, 0x00, 0x00, 0x1c, 0x00, 0x00, 0x00, 0x00, 0x00, 0x00, 0x02,
  0xa8, 0x00, 0x00, 0x00, 0x14, 0xf0, 0xff, 0xff, 0x08, 0x00, 0x00, 0x00,
  0x4c, 0x00, 0x00, 0x00, 0x08, 0x00, 0x00, 0x00, 0x00, 0x00, 0x00, 0x00,
  0x00, 0x00, 0x00, 0x00, 0x00, 0x00, 0x00, 0x00, 0x00, 0x00, 0x00, 0x00,
  0x00, 0x00, 0x00, 0x00, 0x00, 0x00, 0x00, 0x00, 0x00, 0x00, 0x00, 0x00,
  0x00, 0x00, 0x00, 0x00, 0x00, 0x00, 0x00, 0x00, 0x00, 0x00, 0x00, 0x00,
  0x00, 0x00, 0x00, 0x00, 0x00, 0x00, 0x00, 0x00, 0x00, 0x00, 0x00, 0x00,
  0x00, 0x00, 0x00, 0x00, 0x00, 0x00, 0x00, 0x00, 0x00, 0x00, 0x00, 0x00,
  0x00, 0x00, 0x00, 0x00, 0x08, 0x00, 0x00, 0x00, 0xc2, 0xa1, 0xd8, 0x3a,
  0x70, 0xb2, 0xa1, 0x3a, 0xe6, 0xe6, 0xb4, 0x3a, 0x8b, 0x42, 0x8f, 0x3a,
  0x54, 0xa6, 0xcb, 0x3a, 0x17, 0x64, 0xcb, 0x3a, 0x71, 0xf6, 0xc3, 0x3a,
  0xdf, 0x37, 0x9b, 0x3a, 0x25, 0x00, 0x00, 0x00, 0x6d, 0x6f, 0x64, 0x65,
  0x6c, 0x2f, 0x63, 0x6f, 0x6e, 0x76, 0x32, 0x64, 0x5f, 0x33, 0x2f, 0x42,
  0x69, 0x61, 0x73, 0x41, 0x64, 0x64, 0x2f, 0x52, 0x65, 0x61, 0x64, 0x56,
  0x61, 0x72, 0x69, 0x61, 0x62, 0x6c, 0x65, 0x4f, 0x70, 0x00, 0x00, 0x00,
  0x01, 0x00, 0x00, 0x00, 0x08, 0x00, 0x00, 0x00, 0xf2, 0xf1, 0xff, 0xff,
  0x00, 0x00, 0x00, 0x01, 0x14, 0x00, 0x00, 0x00, 0x30, 0x00, 0x00, 0x00,
  0x1b, 0x00, 0x00, 0x00, 0x00, 0x00, 0x00, 0x09, 0x58, 0x00, 0x00, 0x00,
  0xdc, 0xf0, 0xff, 0xff, 0x08, 0x00, 0x00, 0x00, 0x10, 0x00, 0x00, 0x00,
  0x01, 0x00, 0x00, 0x00, 0x80, 0xff, 0xff, 0xff, 0xff, 0xff, 0xff, 0xff,
  0x01, 0x00, 0x00, 0x00, 0xe5, 0x13, 0x93, 0x39, 0x2c, 0x00, 0x00, 0x00,
  0x6d, 0x6f, 0x64, 0x65, 0x6c, 0x2f, 0x62, 0x61, 0x74, 0x63, 0x68, 0x5f,
  0x6e, 0x6f, 0x72, 0x6d, 0x61, 0x6c, 0x69, 0x7a, 0x61, 0x74, 0x69, 0x6f,
  0x6e, 0x5f, 0x33, 0x2f, 0x46, 0x75, 0x73, 0x65, 0x64, 0x42, 0x61, 0x74,
  0x63, 0x68, 0x4e, 0x6f, 0x72, 0x6d, 0x56, 0x33, 0x00, 0x00, 0x00, 0x00,
  0x01, 0x00, 0x00, 0x00, 0x08, 0x00, 0x00, 0x00, 0x6a, 0xf2, 0xff, 0xff,
  0x00, 0x00, 0x00, 0x01, 0x14, 0x00, 0x00, 0x00, 0x30, 0x00, 0x00, 0x00,
  0x1a, 0x00, 0x00, 0x00, 0x00, 0x00, 0x00, 0x09, 0x58, 0x00, 0x00, 0x00,
  0x54, 0xf1, 0xff, 0xff, 0x08, 0x00, 0x00, 0x00, 0x10, 0x00, 0x00, 0x00,
  0x01, 0x00, 0x00, 0x00, 0x7f, 0x00, 0x00, 0x00, 0x00, 0x00, 0x00, 0x00,
  0x01, 0x00, 0x00, 0x00, 0x99, 0xfe, 0x2d, 0x3b, 0x2d, 0x00, 0x00, 0x00,
  0x6d, 0x6f, 0x64, 0x65, 0x6c, 0x2f, 0x62, 0x61, 0x74, 0x63, 0x68, 0x5f,
  0x6e, 0x6f, 0x72, 0x6d, 0x61, 0x6c, 0x69, 0x7a, 0x61, 0x74, 0x69, 0x6f,
  0x6e, 0x5f, 0x33, 0x2f, 0x46, 0x75, 0x73, 0x65, 0x64, 0x42, 0x61, 0x74,
  0x63, 0x68, 0x4e, 0x6f, 0x72, 0x6d, 0x56, 0x33, 0x31, 0x00, 0x00, 0x00,
  0x01, 0x00, 0x00, 0x00, 0x08, 0x00, 0x00, 0x00, 0xe2, 0xf2, 0xff, 0xff,
  0x00, 0x00, 0x00, 0x01, 0x14, 0x00, 0x00, 0x00, 0x84, 0x00, 0x00, 0x00,
  0x19, 0x00, 0x00, 0x00, 0x00, 0x00, 0x00, 0x09, 0x94, 0x00, 0x00, 0x00,
  0xcc, 0xf1, 0xff, 0xff, 0x08, 0x00, 0x00, 0x00, 0x48, 0x00, 0x00, 0x00,
  0x08, 0x00, 0x00, 0x00, 0x00, 0x00, 0x00, 0x00, 0x00, 0x00, 0x00, 0x00,
  0x00, 0x00, 0x00, 0x00, 0x00, 0x00, 0x00, 0x00, 0x00, 0x00, 0x00, 0x00,
  0x00, 0x00, 0x00, 0x00, 0x00, 0x00, 0x00, 0x00, 0x00, 0x00, 0x00, 0x00,
  0x00, 0x00, 0x00, 0x00, 0x00, 0x00, 0x00, 0x00, 0x00, 0x00, 0x00, 0x00,
  0x00, 0x00, 0x00, 0x00, 0x00, 0x00, 0x00, 0x00, 0x00, 0x00, 0x00, 0x00,
  0x00, 0x00, 0x00, 0x00, 0x00, 0x00, 0x00, 0x00, 0x08, 0x00, 0x00, 0x00,
  0xcd, 0x97, 0xc4, 0x3a, 0x7e, 0x79, 0xbb, 0x3a, 0xe7, 0x82, 0x0b, 0x3b,
  0xa7, 0xc6, 0xc9, 0x3a, 0xec, 0x02, 0x09, 0x3b, 0x30, 0xd7, 0xca, 0x3a,
  0x0e, 0x79, 0xdb, 0x3a, 0xff, 0x6e, 0xd1, 0x3a, 0x15, 0x00, 0x00, 0x00,
  0x6d, 0x6f, 0x64, 0x65, 0x6c, 0x2f, 0x63, 0x6f, 0x6e, 0x76, 0x32, 0x64,
  0x5f, 0x34, 0x2f, 0x43, 0x6f, 0x6e, 0x76, 0x32, 0x44, 0x00, 0x00, 0x00,
  0x04, 0x00, 0x00, 0x00, 0x08, 0x00, 0x00, 0x00, 0x05, 0x00, 0x00, 0x00,
  0x05, 0x00, 0x00, 0x00, 0x08, 0x00, 0x00, 0x00, 0xa2, 0xf3, 0xff, 0xff,
  0x00, 0x00, 0x00, 0x01, 0x14, 0x00, 0x00, 0x00, 0x88, 0x00, 0x00, 0x00,
  0x18, 0x00, 0x00, 0x00, 0x00, 0x00, 0x00, 0x02, 0xa8, 0x00, 0x00, 0x00,
  0x8c, 0xf2, 0xff, 0xff, 0x08, 0x00, 0x00, 0x00, 0x4c, 0x00, 0x00, 0x00,
  0x08, 0x00, 0x00, 0x00, 0x00, 0x00, 0x00, 0x00, 0x00, 0x00, 0x00, 0x00,
  0x00, 0x00, 0x00, 0x00, 0x00, 0x00, 0x00, 0x00, 0x00, 0x00, 0x00, 0x00,
  0x00, 0x00, 0x00, 0x00, 0x00, 0x00, 0x00, 0x00, 0x00, 0x00, 0x00, 0x00,
  0x00, 0x00, 0x00, 0x00, 0x00, 0x00, 0x00, 0x00, 0x00, 0x00, 0x00, 0x00,
  0x00, 0x00, 0x00, 0x00, 0x00, 0x00, 0x00, 0x00, 0x00, 0x00, 0x00, 0x00,
  0x00, 0x00, 0x00, 0x00, 0x00, 0x00, 0x00, 0x00, 0x00, 0x00, 0x00, 0x00,
  0x08, 0x00, 0x00, 0x00, 0xa4, 0xc2, 0x77, 0x38, 0xc8, 0x44, 0x6c, 0x38,
  0x70, 0xd2, 0xaf, 0x38, 0xd5, 0x4a, 0x7e, 0x38, 0xe3, 0xab, 0xac, 0x38,
  0x4d, 0xa2, 0x7f, 0x38, 0x2f, 0x4c, 0x8a, 0x38, 0xb3, 0xf8, 0x83, 0x38,
  0x25, 0x00, 0x00, 0x00, 0x6d, 0x6f, 0x64, 0x65, 0x6c, 0x2f, 0x63, 0x6f,
  0x6e, 0x76, 0x32, 0x64, 0x5f, 0x34, 0x2f, 0x42, 0x69, 0x61, 0x73, 0x41,
  0x64, 0x64, 0x2f, 0x52, 0x65, 0x61, 0x64, 0x56, 0x61, 0x72, 0x69, 0x61,
  0x62, 0x6c, 0x65, 0x4f, 0x70, 0x00, 0x00, 0x00, 0x01, 0x00, 0x00, 0x00,
  0x08, 0x00, 0x00, 0x00, 0x6a, 0xf4, 0xff, 0xff, 0x00, 0x00, 0x00, 0x01,
  0x14, 0x00, 0x00, 0x00, 0x30, 0x00, 0x00, 0x00, 0x17, 0x00, 0x00, 0x00,
  0x00, 0x00, 0x00, 0x09, 0x58, 0x00, 0x00, 0x00, 0x54, 0xf3, 0xff, 0xff,
  0x08, 0x00, 0x00, 0x00, 0x10, 0x00, 0x00, 0x00, 0x01, 0x00, 0x00, 0x00,
  0x80, 0xff, 0xff, 0xff, 0xff, 0xff, 0xff, 0xff, 0x01, 0x00, 0x00, 0x00,
  0x37, 0xc6, 0x04, 0x3c, 0x2c, 0x00, 0x00, 0x00, 0x6d, 0x6f, 0x64, 0x65,
  0x6c, 0x2f, 0x62, 0x61, 0x74, 0x63, 0x68, 0x5f, 0x6e, 0x6f, 0x72, 0x6d,
  0x61, 0x6c, 0x69, 0x7a, 0x61, 0x74, 0x69, 0x6f, 0x6e, 0x5f, 0x34, 0x2f,
  0x46, 0x75, 0x73, 0x65, 0x64, 0x42, 0x61, 0x74, 0x63, 0x68, 0x4e, 0x6f,
  0x72, 0x6d, 0x56, 0x33, 0x00, 0x00, 0x00, 0x00, 0x01, 0x00, 0x00, 0x00,
  0x08, 0x00, 0x00, 0x00, 0xe2, 0xf4, 0xff, 0xff, 0x00, 0x00, 0x00, 0x01,
  0x14, 0x00, 0x00, 0x00, 0x30, 0x00, 0x00, 0x00, 0x16, 0x00, 0x00, 0x00,
  0x00, 0x00, 0x00, 0x09, 0x58, 0x00, 0x00, 0x00, 0xcc, 0xf3, 0xff, 0xff,
  0x08, 0x00, 0x00, 0x00, 0x10, 0x00, 0x00, 0x00, 0x01, 0x00, 0x00, 0x00,
  0x7f, 0x00, 0x00, 0x00, 0x00, 0x00, 0x00, 0x00, 0x01, 0x00, 0x00, 0x00,
  0x3a, 0xfe, 0x88, 0x3b, 0x2d, 0x00, 0x00, 0x00, 0x6d, 0x6f, 0x64, 0x65,
  0x6c, 0x2f, 0x62, 0x61, 0x74, 0x63, 0x68, 0x5f, 0x6e, 0x6f, 0x72, 0x6d,
  0x61, 0x6c, 0x69, 0x7a, 0x61, 0x74, 0x69, 0x6f, 0x6e, 0x5f, 0x34, 0x2f,
  0x46, 0x75, 0x73, 0x65, 0x64, 0x42, 0x61, 0x74, 0x63, 0x68, 0x4e, 0x6f,
  0x72, 0x6d, 0x56, 0x33, 0x31, 0x00, 0x00, 0x00, 0x01, 0x00, 0x00, 0x00,
  0x08, 0x00, 0x00, 0x00, 0x5a, 0xf5, 0xff, 0xff, 0x00, 0x00, 0x00, 0x01,
  0x14, 0x00, 0x00, 0x00, 0x84, 0x00, 0x00, 0x00, 0x15, 0x00, 0x00, 0x00,
  0x00, 0x00, 0x00, 0x09, 0x94, 0x00, 0x00, 0x00, 0x44, 0xf4, 0xff, 0xff,
  0x08, 0x00, 0x00, 0x00, 0x48, 0x00, 0x00, 0x00, 0x08, 0x00, 0x00, 0x00,
  0x00, 0x00, 0x00, 0x00, 0x00, 0x00, 0x00, 0x00, 0x00, 0x00, 0x00, 0x00,
  0x00, 0x00, 0x00, 0x00, 0x00, 0x00, 0x00, 0x00, 0x00, 0x00, 0x00, 0x00,
  0x00, 0x00, 0x00, 0x00, 0x00, 0x00, 0x00, 0x00, 0x00, 0x00, 0x00, 0x00,
  0x00, 0x00, 0x00, 0x00, 0x00, 0x00, 0x00, 0x00, 0x00, 0x00, 0x00, 0x00,
  0x00, 0x00, 0x00, 0x00, 0x00, 0x00, 0x00, 0x00, 0x00, 0x00, 0x00, 0x00,
  0x00, 0x00, 0x00, 0x00, 0x08, 0x00, 0x00, 0x00, 0x75, 0xca, 0x0f, 0x3b,
  0x4f, 0xaa, 0x2e, 0x3b, 0x25, 0x2a, 0x09, 0x3b, 0x9f, 0x17, 0x2d, 0x3b,
  0x16, 0x48, 0x10, 0x3b, 0xe1, 0x05, 0x00, 0x3b, 0x8b, 0xf4, 0x5d, 0x3b,
  0x9e, 0xd1, 0x2d, 0x3b, 0x15, 0x00, 0x00, 0x00, 0x6d, 0x6f, 0x64, 0x65,
  0x6c, 0x2f, 0x63, 0x6f, 0x6e, 0x76, 0x32, 0x64, 0x5f, 0x35, 0x2f, 0x43,
  0x6f, 0x6e, 0x76, 0x32, 0x44, 0x00, 0x00, 0x00, 0x04, 0x00, 0x00, 0x00,
  0x08, 0x00, 0x00, 0x00, 0x03, 0x00, 0x00, 0x00, 0x03, 0x00, 0x00, 0x00,
  0x08, 0x00, 0x00, 0x00, 0x1a, 0xf6, 0xff, 0xff, 0x00, 0x00, 0x00, 0x01,
  0x14, 0x00, 0x00, 0x00, 0x88, 0x00, 0x00, 0x00, 0x14, 0x00, 0x00, 0x00,
  0x00, 0x00, 0x00, 0x02, 0xa8, 0x00, 0x00, 0x00, 0x04, 0xf5, 0xff, 0xff,
  0x08, 0x00, 0x00, 0x00, 0x4c, 0x00, 0x00, 0x00, 0x08, 0x00, 0x00, 0x00,
  0x00, 0x00, 0x00, 0x00, 0x00, 0x00, 0x00, 0x00, 0x00, 0x00, 0x00, 0x00,
  0x00, 0x00, 0x00, 0x00, 0x00, 0x00, 0x00, 0x00, 0x00, 0x00, 0x00, 0x00,
  0x00, 0x00, 0x00, 0x00, 0x00, 0x00, 0x00, 0x00, 0x00, 0x00, 0x00, 0x00,
  0x00, 0x00, 0x00, 0x00, 0x00, 0x00, 0x00, 0x00, 0x00, 0x00, 0x00, 0x00,
  0x00, 0x00, 0x00, 0x00, 0x00, 0x00, 0x00, 0x00, 0x00, 0x00, 0x00, 0x00,
  0x00, 0x00, 0x00, 0x00, 0x00, 0x00, 0x00, 0x00, 0x08, 0x00, 0x00, 0x00,
  0x99, 0xae, 0xb0, 0x38, 0x67, 0x9e, 0xd6, 0x38, 0x44, 0x8a, 0xa8, 0x38,
  0x9a, 0xaf, 0xd4, 0x38, 0xf7, 0x48, 0xb1, 0x38, 0xae, 0x4e, 0x9d, 0x38,
  0xee, 0x5c, 0x08, 0x39, 0x25, 0x94, 0xd5, 0x38, 0x25, 0x00, 0x00, 0x00,
  0x6d, 0x6f, 0x64, 0x65, 0x6c, 0x2f, 0x63, 0x6f, 0x6e, 0x76, 0x32, 0x64,
  0x5f, 0x35, 0x2f, 0x42, 0x69, 0x61, 0x73, 0x41, 0x64, 0x64, 0x2f, 0x52,
  0x65, 0x61, 0x64, 0x56, 0x61, 0x72, 0x69, 0x61, 0x62, 0x6c, 0x65, 0x4f,
  0x70, 0x00, 0x00, 0x00, 0x01, 0x00, 0x00, 0x00, 0x08, 0x00, 0x00, 0x00,
  0xe2, 0xf6, 0xff, 0xff, 0x00, 0x00, 0x00, 0x01, 0x14, 0x00, 0x00, 0x00,
  0x30, 0x00, 0x00, 0x00, 0x13, 0x00, 0x00, 0x00, 0x00, 0x00, 0x00, 0x09,
  0x58, 0x00, 0x00, 0x00, 0xcc, 0xf5, 0xff, 0xff, 0x08, 0x00, 0x00, 0x00,
